<pad>	0
<s>	0
</s>	0
<unk>	0
▁.	-3.21994
을	-3.59578
는	-3.73198
의	-3.77344
은	-3.9869
▁	-4.02946
를	-4.07626
가	-4.35091
▁,	-4.4455
에	-4.45096
이	-4.4549
고	-4.6987
에서	-5.15009
한	-5.1658
로	-5.19237
▁일	-5.25632
▁이	-5.2581
인	-5.29378
▁그	-5.34341
▁있다	-5.44867
으로	-5.47231
과	-5.49288
▁고	-5.55542
와	-5.57322
도	-5.63351
▁수	-5.65355
▁밝혔다	-5.69881
▁말했다	-5.72229
할	-5.80812
▁년	-5.887
▁있는	-5.91228
하고	-6.00829
지	-6.02961
다	-6.07026
▁전	-6.20379
▁대한	-6.22759
▁위해	-6.23382
했다	-6.24432
▁이번	-6.29139
▁전했다	-6.29407
▁미국	-6.29993
하는	-6.31909
▁월	-6.32573
▁한	-6.33694
며	-6.36666
▁지난	-6.38745
▁현지시간	-6.3912
▁정부	-6.44466
▁대해	-6.50066
▁며	-6.50878
던	-6.52323
▁미	-6.52893
▁중	-6.55034
나	-6.55734
기	-6.56053
된	-6.57107
▁것으로	-6.57378
▁것	-6.57884
에게	-6.58107
해	-6.58162
▁명	-6.58706
▁명이	-6.59263
▁것이라고	-6.63036
으며	-6.68301
▁그러나	-6.6947
▁있다고	-6.69772
▁것을	-6.71162
히	-6.74909
▁더	-6.77028
▁이라크	-6.77596
게	-6.83006
▁다른	-6.83823
스	-6.8646
자	-6.88048
s	-6.89016
▁명의	-6.90502
▁대통령	-6.92594
▁중국	-6.92845
하게	-6.9287
운	-6.93702
▁한편	-6.94421
이다	-6.9655
▁이라고	-6.97185
▁또	-6.98194
▁약	-6.98666
지만	-6.99081
▁만	-6.99419
▁북한	-6.99798
▁오바마	-7.00943
▁주	-7.01686
▁에	-7.01914
▁등	-7.03099
▁경찰	-7.03628
▁대변인	-7.05603
▁후	-7.06884
▁총리	-7.07248
들이	-7.09012
▁우리	-7.11187
▁많은	-7.11284
▁통해	-7.11585
하기	-7.12903
▁이후	-7.13228
▁부시	-7.13327
▁위한	-7.15051
리	-7.15166
▁영국	-7.15984
▁대통령은	-7.16208
하지	-7.176
▁세	-7.17766
만	-7.1814
▁가장	-7.18374
▁내	-7.18405
적인	-7.18434
▁같은	-7.19568
했으며	-7.19741
하며	-7.20763
▁동안	-7.20975
까지	-7.21129
▁것이다	-7.21386
▁두	-7.2242
들	-7.22957
▁않았다	-7.23307
될	-7.25542
▁한국	-7.29885
▁말	-7.3145
▁가	-7.32042
▁주장했다	-7.32559
▁할	-7.33142
▁개	-7.33444
▁한다	-7.33895
▁세계	-7.344
시	-7.34532
▁이들	-7.35164
▁현재	-7.35636
▁될	-7.35702
▁것은	-7.36538
▁있	-7.36978
▁달러	-7.3701
▁문제	-7.37169
▁또한	-7.37899
트	-7.38391
▁관련	-7.38495
▁때	-7.39027
▁바	-7.39498
▁알	-7.41683
▁했다	-7.42311
상	-7.42736
▁덧붙였다	-7.42754
라	-7.42785
▁일부	-7.43355
어	-7.4403
▁이상	-7.44134
▁대	-7.4478
▁최근	-7.44891
▁것이	-7.44959
▁경우	-7.45064
▁지역	-7.45437
서	-7.45512
면	-7.45682
▁있었다	-7.45744
▁보도했다	-7.45818
▁시	-7.46448
드	-7.47525
으나	-7.481
및	-7.48184
▁영화	-7.48584
▁the	-7.4994
▁자신의	-7.49977
▁모든	-7.50129
했던	-7.51171
▁당시	-7.53081
▁함께	-7.53349
▁후보	-7.53366
사	-7.53631
▁라고	-7.53976
▁새로	-7.54421
▁시간	-7.56383
했다고	-7.57122
수	-7.5735
▁미군	-7.5823
▁로	-7.58577
▁일본	-7.59115
거	-7.59527
됐다	-7.60056
▁그리고	-7.60115
주	-7.60437
일	-7.61213
▁조사	-7.61687
▁뒤	-7.61868
야	-7.62562
▁의	-7.62782
에따르면	-7.62895
▁설명했다	-7.63945
▁에서	-7.64528
▁경제	-7.64607
▁계획	-7.64855
▁예정이다	-7.65279
▁결과	-7.66
▁모두	-7.66101
▁수도	-7.66881
▁있으며	-7.67393
▁러시아	-7.67444
▁프랑스	-7.6875
▁처음	-7.68882
▁몇	-7.69184
도록	-7.70308
▁아직	-7.71028
라고	-7.7133
▁당국	-7.71996
▁s	-7.72014
보다	-7.72426
성	-7.7278
▁없다	-7.73081
▁유엔	-7.7311
▁위	-7.7316
▁공격	-7.73366
▁하는	-7.73617
▁cnn	-7.73813
▁큰	-7.7407
▁파키스탄	-7.74216
▁이란	-7.746
▁이스라엘	-7.74623
▁사실	-7.74819
▁차	-7.7546
▁계속	-7.75687
간	-7.75762
▁있습니다	-7.76373
▁사고	-7.77079
▁경기	-7.77787
▁지난해	-7.78596
▁to	-7.7863
해야	-7.78646
▁분	-7.79209
▁그녀	-7.79675
진	-7.79708
▁국가	-7.80316
▁라	-7.80859
▁제	-7.80954
▁나	-7.81036
▁회담	-7.81251
▁대통령이	-7.81587
▁올해	-7.81997
▁사건	-7.82625
비	-7.82697
▁지	-7.83174
▁민주당	-7.83233
▁않을	-7.83413
르	-7.83494
▁이날	-7.83551
▁열린	-7.84271
▁클린턴	-7.84326
▁사람들	-7.85393
아	-7.85547
▁성명	-7.85705
때문에	-7.85753
▁억	-7.8619
들을	-7.86558
한다	-7.88113
니	-7.88423
▁하고	-7.88435
면서	-7.89299
▁발표했다	-7.89339
▁발생한	-7.89377
하다	-7.90479
▁받았다	-7.90583
▁번째	-7.90816
▁받고	-7.91758
이라고	-7.91994
크	-7.92095
▁테러	-7.92817
▁비	-7.92846
선	-7.93463
▁다시	-7.93693
▁미국의	-7.9392
장	-7.94079
▁이라	-7.94092
▁그들	-7.94483
▁지원	-7.94648
▁존	-7.94936
▁된다	-7.95201
부	-7.95819
▁관계자	-7.96352
적	-7.96463
▁여성	-7.96528
었다	-7.96665
▁가운데	-7.96706
했습니다	-7.96882
▁사망했다	-7.97051
즈	-7.97096
▁핵	-7.97154
▁사	-7.97888
▁사람들이	-7.98168
▁반	-7.98359
▁됐다	-7.98481
▁발표	-7.98526
▁달	-7.98542
하	-7.98673
▁이에	-7.98872
▁a	-7.98936
적으로	-7.99547
치	-7.99588
▁있을	-7.99783
했	-8.00212
대	-8.00485
에는	-8.00553
화	-8.01073
▁주요	-8.01474
▁of	-8.01734
▁오	-8.01821
부터	-8.01907
▁사람	-8.02741
▁의해	-8.03175
하여	-8.03295
▁초	-8.03474
▁대부분	-8.03992
▁자	-8.0407
▁해	-8.04095
▁국제	-8.04224
▁조	-8.04983
▁데	-8.0521
▁아	-8.05228
▁인해	-8.05376
당	-8.0547
이나	-8.05578
▁장관	-8.05837
▁관계	-8.05951
▁채	-8.06368
소	-8.06624
에따라	-8.06817
▁않은	-8.0699
▁첫	-8.07353
▁선거	-8.07447
에도	-8.07715
하지만	-8.08158
처럼	-8.08198
▁조치	-8.09031
▁아프간	-8.09248
▁tv	-8.09326
▁혐의로	-8.09574
▁시위	-8.09648
▁결정	-8.10181
입니다	-8.10253
▁보고	-8.10409
전	-8.10501
▁승리	-8.11096
▁거	-8.1122
▁이미	-8.1155
▁지금	-8.11605
습니다	-8.12146
▁기록	-8.12172
길	-8.12312
용	-8.13093
▁위치한	-8.13302
▁매우	-8.13873
▁군	-8.13969
▁사망	-8.14054
▁있었	-8.14848
▁연구	-8.14876
▁원	-8.15052
▁번	-8.15062
세	-8.15475
le	-8.15582
하면서	-8.1566
이며	-8.15721
▁안	-8.1645
▁이슬람	-8.16702
▁팔레스타인	-8.16975
▁총	-8.17238
▁줄	-8.17329
▁없는	-8.17645
▁km	-8.17687
▁마	-8.17767
타	-8.18034
바	-8.1831
였	-8.18651
▁살	-8.1871
로부터	-8.18823
보	-8.18909
e	-8.19065
▁의원	-8.19684
▁회사	-8.19717
되어	-8.19965
프	-8.20137
▁방문	-8.20572
▁않고	-8.20582
원	-8.20828
▁피해	-8.2084
▁노	-8.20873
▁추가	-8.20885
마	-8.21111
▁비난	-8.21136
▁뉴욕	-8.21478
▁강	-8.21731
▁때문	-8.21869
레	-8.21984
▁있다는	-8.22225
▁조지	-8.22377
▁아이	-8.22448
▁탈레반	-8.22514
▁지적했다	-8.22554
▁한다고	-8.22645
▁호주	-8.22678
▁유럽	-8.22983
명	-8.2304
됐	-8.23111
▁대선	-8.23272
▁정보	-8.23413
▁어떤	-8.23681
▁점	-8.23985
에서는	-8.24049
▁년간	-8.24147
식	-8.24239
▁정도	-8.24505
▁잘	-8.24644
▁인도	-8.2467
▁소속	-8.24909
▁기자	-8.25266
▁독일	-8.25641
였다	-8.25658
▁하지	-8.26156
▁간	-8.26227
▁대표	-8.26236
▁시장	-8.26303
돼	-8.26354
▁포함	-8.2652
d	-8.27383
▁지지	-8.27417
▁w	-8.27628
▁혐의	-8.27662
▁감독	-8.277
▁부	-8.27717
안	-8.27831
했지만	-8.2847
▁다	-8.28737
디	-8.28838
▁?	-8.28877
▁개의	-8.29004
려	-8.29273
▁우려	-8.29315
라는	-8.29344
▁협상	-8.29464
제	-8.29507
▁내용	-8.29582
▁활동	-8.29727
▁상원의원	-8.29881
▁오늘	-8.29894
▁새	-8.29911
티	-8.30031
▁in	-8.30042
파	-8.30336
▁프로그램	-8.30591
▁발생했다	-8.30779
▁않는다	-8.31044
▁기	-8.31133
코	-8.31158
우	-8.3119
▁없다고	-8.31355
미	-8.31467
▁인터넷	-8.3187
▁못했다	-8.32002
▁여러	-8.32176
▁부상	-8.32191
▁받은	-8.32283
▁대학	-8.32308
▁구	-8.32388
▁보고서	-8.32481
y	-8.32693
함	-8.32742
질	-8.32922
▁최고	-8.3353
▁입장	-8.33587
▁성	-8.33718
▁올림픽	-8.34721
▁카	-8.34752
▁m	-8.35055
구	-8.35149
▁사용	-8.35157
▁상	-8.35157
▁매케인	-8.35485
▁관리	-8.35486
▁오후	-8.35682
▁하	-8.35756
▁발생	-8.35981
▁박사	-8.36014
▁많	-8.36136
▁예정	-8.36552
▁주장	-8.37
▁도	-8.37314
린	-8.37572
▁폭탄	-8.37693
▁언론	-8.37764
▁요구	-8.37774
▁된	-8.37778
▁전쟁	-8.38252
▁의회	-8.38366
▁북한이	-8.38422
▁모습	-8.38938
되는	-8.39274
▁판매	-8.39856
되었다	-8.40024
권	-8.40574
▁인터뷰에서	-8.40622
▁남자	-8.40633
▁나는	-8.41442
오	-8.41521
▁컴퓨터	-8.41544
▁시작	-8.41551
▁원문기사보기	-8.41777
▁현지	-8.41911
▁터키	-8.41922
ing	-8.41948
토	-8.4226
▁갖고	-8.42319
▁앞으로	-8.42324
▁보	-8.42432
▁단체	-8.42437
▁개월	-8.42846
▁준비	-8.42951
산	-8.43111
▁있어	-8.43159
▁joins	-8.43191
▁자동차	-8.43204
▁강조했다	-8.4324
▁경찰이	-8.43819
▁보도	-8.43909
▁것에	-8.43919
합니다	-8.44097
▁차량	-8.44142
▁병원	-8.44253
▁마지막	-8.44617
▁않	-8.44799
▁곳	-8.45021
▁떨어진	-8.45203
내	-8.45412
▁공화당	-8.45564
▁생각	-8.45974
되지	-8.46081
▁이러	-8.46353
▁미얀마	-8.46396
▁남부	-8.46595
▁무	-8.46609
▁오전	-8.46619
▁배	-8.46619
▁가진	-8.4706
▁앞서	-8.47162
▁기술	-8.47204
관	-8.47211
국	-8.47285
▁교수	-8.47297
▁변화	-8.47403
▁오는	-8.47702
러	-8.47948
▁자신이	-8.48007
▁힐러리	-8.48025
▁우주	-8.48141
▁미국과	-8.48314
▁비난했다	-8.48351
▁평화	-8.48401
▁폭발	-8.48466
ed	-8.48535
▁사이	-8.48558
하는데	-8.48808
▁합의	-8.48922
▁않았	-8.48954
▁차례	-8.48965
▁지도자	-8.49085
▁주지사	-8.49239
▁개발	-8.49355
▁반대	-8.49534
▁이어	-8.49628
카	-8.49639
이었다	-8.4978
차	-8.50136
릴	-8.50214
▁버락	-8.50555
▁정책	-8.50639
되고	-8.50716
들에게	-8.50721
었던	-8.50864
▁검찰	-8.50949
▁방송	-8.51327
▁지난달	-8.51364
▁석방	-8.51671
▁피	-8.51693
▁스페인	-8.51848
▁상태	-8.52332
는데	-8.52341
▁상황	-8.52428
▁의사	-8.52432
▁없었다	-8.52596
▁미국이	-8.52643
▁아시아	-8.52678
▁무샤라프	-8.53133
▁좋은	-8.53133
▁물	-8.53229
▁도시	-8.53283
▁정	-8.53376
▁와	-8.53513
▁볼	-8.53803
노	-8.54062
▁인근	-8.54121
▁타	-8.54182
▁여	-8.54221
▁지역에서	-8.54253
▁연방	-8.54312
▁규모	-8.54643
▁없이	-8.54654
브	-8.54964
▁마리	-8.5497
▁이용	-8.55035
▁있지만	-8.55051
▁노력	-8.55168
▁집	-8.55194
모	-8.55343
▁가지	-8.55413
▁안전	-8.55432
▁백악관	-8.55538
▁이를	-8.56247
정	-8.56335
▁이런	-8.56449
물	-8.5645
▁영향	-8.56773
▁리	-8.56873
▁야당	-8.57107
▁장	-8.57109
▁재	-8.57334
▁ap	-8.57383
▁아무	-8.57425
▁관한	-8.57573
법	-8.57579
▁다음	-8.57881
▁전문가들	-8.57982
▁해결	-8.58001
▁이름	-8.58147
▁최소	-8.58178
▁이탈리아	-8.58204
▁김	-8.58245
▁보인다	-8.58434
▁날	-8.58442
▁않다	-8.58676
으로부터	-8.58976
▁증가	-8.59164
▁까지	-8.59259
직	-8.59476
▁치료	-8.59483
▁미국은	-8.59678
▁산	-8.59788
▁검사	-8.59849
▁가족	-8.59912
▁투표	-8.59988
▁중요한	-8.60004
▁생산	-8.60161
조	-8.60169
▁보다	-8.60388
▁artic	-8.60454
단	-8.60608
▁가능성	-8.60837
온	-8.6086
▁행사	-8.60877
호	-8.60897
▁파	-8.61126
▁금융	-8.61364
난	-8.61365
▁저	-8.61985
u	-8.6236
하기로	-8.62506
▁밤	-8.62523
▁사망자	-8.62581
▁양	-8.62677
▁하나	-8.62686
▁미사일	-8.62792
▁연기	-8.62822
▁공식	-8.63008
요	-8.63084
▁여행	-8.63272
al	-8.63579
▁알려졌다	-8.63613
▁만에	-8.63681
▁불법	-8.63868
▁년에	-8.63986
▁알카에다	-8.64088
▁최초	-8.64472
▁외	-8.64544
데	-8.64701
씨	-8.64815
▁논의	-8.65655
▁역사	-8.65668
▁사태	-8.65714
▁이전	-8.65827
▁발언	-8.65841
▁필요	-8.65893
했었다	-8.6594
들의	-8.66193
▁이야기	-8.66247
▁위협	-8.66379
▁포인트	-8.66609
▁불	-8.66728
▁주둔	-8.66777
▁상승	-8.66802
▁정치적	-8.66886
터	-8.66937
▁법원	-8.67097
▁팀	-8.67406
신	-8.67426
▁관심	-8.67535
▁사망한	-8.67551
중	-8.6759
▁주민들	-8.67822
▁신	-8.67966
▁방법	-8.67999
더	-8.68043
▁반면	-8.68165
▁매	-8.68203
▁용의자	-8.68205
▁부토	-8.68386
▁없	-8.68498
피	-8.68509
▁대통령과	-8.68717
▁돈	-8.68756
▁모	-8.68811
▁비행기	-8.68857
▁런던	-8.6897
박	-8.69114
▁무기	-8.69166
▁반군	-8.69235
▁골	-8.69308
점	-8.69317
▁서비스	-8.69484
▁자신들	-8.69512
측	-8.69657
▁가격	-8.69873
▁자신	-8.69933
▁자금	-8.70089
▁정치	-8.70223
력	-8.70238
▁은행	-8.70263
▁조직	-8.70632
▁대해서	-8.70777
▁유	-8.70787
▁일간	-8.71015
하도록	-8.71073
▁선	-8.71105
▁회장	-8.71179
▁불구하	-8.71232
▁인	-8.71294
▁으로	-8.71518
▁출신	-8.71712
▁벌이	-8.71807
▁관계자들	-8.71883
포	-8.72367
▁올	-8.72484
▁지난주	-8.72598
▁최대	-8.72676
▁위험	-8.72695
▁학교	-8.72711
▁북부	-8.7286
▁공	-8.72895
▁게임	-8.72981
▁열	-8.732
▁당	-8.73279
▁것입니다	-8.73287
▁만명	-8.73371
▁인용	-8.73517
체	-8.73778
▁인질	-8.73788
▁n	-8.73846
▁건물	-8.73882
임	-8.73895
▁것이라는	-8.74083
▁바그다드	-8.74093
▁씨	-8.74269
▁for	-8.74356
루	-8.74457
▁가능성이	-8.74546
▁살해	-8.74554
▁전에	-8.74658
계	-8.74922
▁더욱	-8.74962
츠	-8.75027
▁e	-8.75287
▁의하면	-8.75364
위	-8.75405
들과	-8.7541
▁역할	-8.75824
▁알고	-8.75866
▁특	-8.76102
▁군사	-8.76216
▁수사	-8.76277
▁지역에	-8.76284
해서	-8.76413
문	-8.76422
▁중단	-8.76423
▁발	-8.76493
▁공동	-8.76597
▁아버지	-8.76604
▁지구	-8.76756
▁아니다	-8.76808
▁적	-8.76905
▁국경	-8.76913
▁높은	-8.76929
▁뜻	-8.76944
▁시위대	-8.77188
▁강력	-8.7729
▁고위	-8.77295
▁말했습니다	-8.77415
▁것이며	-8.77517
▁천	-8.77722
▁한나라당	-8.77929
▁선수	-8.7812
▁호	-8.78176
▁스	-8.7819
▁심	-8.7822
▁우승	-8.78307
▁이와	-8.78369
▁코	-8.78402
▁병력	-8.78549
▁사르코지	-8.78601
이자	-8.78603
▁금지	-8.78614
든	-8.7866
▁앞	-8.78745
▁공급	-8.78767
동	-8.7893
▁되는	-8.79306
▁시작했다	-8.79312
▁왔다	-8.79466
발	-8.79526
▁필요한	-8.79589
▁만달러	-8.79632
▁아이들	-8.79638
시킬	-8.79671
▁폭탄테러	-8.79671
형	-8.79779
됐다고	-8.79948
▁핵무기	-8.7996
▁나라	-8.80111
▁부족	-8.80144
방	-8.80205
t	-8.80387
▁운동	-8.80391
▁법안	-8.805
▁부인	-8.80578
▁콜롬비아	-8.80646
▁결국	-8.80655
▁자살	-8.80757
▁거래	-8.8078
▁기자회견에서	-8.80881
o	-8.80922
▁그것	-8.812
▁법	-8.8121
▁소식	-8.81281
▁하마스	-8.81296
▁독립	-8.81328
군	-8.81467
▁위기	-8.8165
▁티베트	-8.81684
▁언급	-8.81708
▁기업	-8.81811
위원회	-8.81816
▁동영상	-8.81845
▁감소	-8.81984
▁못	-8.82024
▁이같	-8.82041
▁라이스	-8.82063
▁보였다	-8.82197
▁행동	-8.82618
▁아들	-8.82673
▁충돌	-8.82752
▁확인	-8.82754
▁전화	-8.8278
▁뉴스	-8.82787
▁보호	-8.82794
▁공항	-8.82848
▁코리아	-8.83092
▁아니라	-8.83191
▁행위	-8.83256
▁하루	-8.83291
▁관련된	-8.83327
키	-8.83368
▁않는	-8.83392
▁투자	-8.83459
▁건강	-8.8356
▁각	-8.83689
▁소	-8.83822
▁발견	-8.83926
▁이제	-8.83928
▁위해서	-8.83963
▁직접	-8.84031
하겠다고	-8.84154
▁포	-8.84159
▁표	-8.84184
시켰다	-8.84268
▁la	-8.84404
▁사람이	-8.84527
▁eu	-8.84528
▁레	-8.84554
▁억원	-8.84597
▁브라운	-8.84872
▁캘리포니아	-8.8493
▁국방부	-8.84947
c	-8.85082
▁여부	-8.85103
회	-8.85209
실	-8.85473
▁타고	-8.85781
여	-8.8586
▁인쇄	-8.85947
친	-8.86871
▁워싱턴	-8.86972
런	-8.8716
▁있고	-8.87164
▁남성	-8.87264
된다	-8.87586
▁자유	-8.87595
▁특별	-8.87645
▁비행	-8.87704
▁건설	-8.87731
종	-8.87767
▁보안	-8.87909
▁아침	-8.88155
▁받을	-8.88229
er	-8.88486
▁어떻게	-8.88521
유	-8.88524
▁주택	-8.88691
날	-8.88731
하면	-8.88761
이라는	-8.88778
다고	-8.88786
져	-8.88838
▁서울	-8.88874
란	-8.88991
▁대화	-8.89034
▁베이징	-8.89245
▁받았	-8.8925
▁년까지	-8.89258
▁숨졌다	-8.89495
▁드	-8.89588
▁시신	-8.8961
자들	-8.89689
▁상원	-8.89793
급	-8.89822
▁년대	-8.89953
▁빌	-8.89982
▁이유	-8.90018
▁열리는	-8.90045
▁기간	-8.90082
▁이유로	-8.90204
▁국무부	-8.90404
▁폴	-8.90569
▁손	-8.90656
▁서	-8.9066
▁곧	-8.90831
▁문	-8.91072
▁석유	-8.91137
▁역시	-8.91189
▁에너지	-8.91233
▁회의	-8.91422
▁노무현	-8.91546
▁p	-8.91557
▁음악	-8.91672
▁협력	-8.91735
네	-8.91761
▁어	-8.91988
▁and	-8.92024
심	-8.9211
▁아프가니스탄	-8.92125
▁데이비드	-8.92317
▁호텔	-8.92471
긴	-8.92493
설	-8.92721
▁어제	-8.92741
▁문제에	-8.92879
▁연설	-8.9288
설명	-8.92934
▁사건에	-8.93152
▁과학자들	-8.93185
▁철수	-8.93329
▁판결	-8.93373
한다고	-8.93436
▁요청	-8.93508
▁폐쇄	-8.93603
학	-8.93924
▁변호사	-8.94
▁종	-8.94057
▁교육	-8.94089
▁발사	-8.9427
▁대선후보	-8.94273
▁같다	-8.94412
▁도로	-8.94471
▁수술	-8.94693
▁원문	-8.947
▁발견했다	-8.94801
▁인구	-8.94842
그	-8.94853
▁우	-8.94894
▁생활	-8.94919
▁범죄	-8.95044
감	-8.95045
하자	-8.95073
▁온	-8.95078
▁하락	-8.95086
속	-8.95156
▁길	-8.95205
▁너무	-8.95318
▁korea	-8.95331
혀	-8.95437
▁진행	-8.95479
▁독해	-8.95501
▁위원회	-8.95592
▁전세계	-8.95855
▁기회	-8.95901
▁못하	-8.9601
버	-8.96034
▁체포	-8.96035
▁한국인	-8.96454
▁주변	-8.96484
▁양국	-8.96687
▁요구했다	-8.96779
▁신문	-8.9685
▁있게	-8.96902
▁비디오	-8.97074
▁눈	-8.97092
▁생각한다	-8.97152
▁증거	-8.97287
▁내년	-8.97385
▁아니	-8.97701
▁대사	-8.97745
하려	-8.97878
▁결혼	-8.97983
▁공개	-8.98028
▁성공	-8.98068
▁승인	-8.98091
▁사회	-8.98103
▁있기	-8.9836
▁월에	-8.98378
▁화재	-8.98656
반	-8.98662
▁힘	-8.98683
▁실	-8.98791
공	-8.98857
▁예정이라	-8.99092
▁동물	-8.99118
하던	-8.99177
▁관할	-8.99252
▁구조	-8.99347
▁어린이	-8.99404
▁억달러	-8.99541
▁대규모	-8.99544
▁훈련	-8.99591
▁수준	-8.99948
▁로버트	-8.9996
▁나타났다	-8.99995
▁만원	-9.00159
n	-9.00162
▁했다고	-9.00357
▁g	-9.00372
▁목표	-9.00393
▁들	-9.00394
▁납치	-9.00471
▁출전	-9.00543
▁박	-9.00626
▁개인	-9.00675
▁전체	-9.00695
▁전망	-9.00772
▁레바논	-9.00781
▁경고	-9.00784
▁사진	-9.00934
▁방	-9.00973
▁현	-9.00978
▁재판	-9.01154
▁앞두고	-9.01213
울	-9.01322
▁것이라	-9.01376
▁재개	-9.01429
▁딸	-9.01431
▁전투	-9.01537
▁정상	-9.01589
▁비롯	-9.01638
▁아닌	-9.01641
병	-9.01647
▁남	-9.01779
▁d	-9.01957
▁포함한	-9.01983
교	-9.02025
▁난	-9.02026
▁통	-9.02032
연	-9.02163
▁안에	-9.02214
▁사업	-9.0226
▁멕시코	-9.02602
▁애	-9.02603
재	-9.0263
▁com	-9.02643
▁심각한	-9.02698
하려는	-9.02863
▁임무	-9.03012
▁경기에서	-9.03012
▁이동	-9.03066
▁경선	-9.03118
으로써	-9.03363
▁co	-9.03385
▁c	-9.03445
▁작은	-9.03469
▁입	-9.03512
▁환경	-9.0352
▁대사관	-9.03532
▁태국	-9.03651
▁인도네시아	-9.03785
▁b	-9.04056
▁방안	-9.04075
▁여객기	-9.0416
▁대신	-9.04195
판	-9.04205
▁명과	-9.04223
▁밝혀졌다	-9.04242
▁제안	-9.04267
▁민간인	-9.0429
▁의견	-9.04506
▁여전	-9.04703
r	-9.04743
▁인간	-9.04757
▁통신	-9.04846
역	-9.05007
로서	-9.05163
경	-9.05291
▁네	-9.05342
▁푸틴	-9.05533
▁성장	-9.05578
▁친구	-9.05696
▁촉구했다	-9.05717
슨	-9.05739
스트	-9.05871
▁퍼센트	-9.05974
▁마이클	-9.05975
▁규정	-9.06051
▁열차	-9.06092
▁수치	-9.06183
▁가지고	-9.06198
▁판사	-9.06299
a	-9.06347
▁마을	-9.06467
▁입은	-9.06921
▁아기	-9.07046
▁국민들	-9.07097
▁수입	-9.07117
▁그들의	-9.07126
▁온라인	-9.07251
▁산업	-9.07342
▁받아	-9.07382
▁당신	-9.07387
▁이상이	-9.07401
▁지도자들	-9.07429
▁선택	-9.07497
▁예	-9.07514
▁해외	-9.07609
▁돌	-9.07609
▁대회	-9.07615
▁항	-9.07616
▁국민	-9.07665
▁입었다	-9.07693
i	-9.07704
▁폭력	-9.07763
▁작전	-9.08094
▁말한다	-9.08106
▁그들이	-9.08354
▁인정	-9.08407
▁인권	-9.08647
▁제재	-9.08709
▁타임즈	-9.08742
▁이것	-9.08756
▁시도	-9.08809
▁시설	-9.08896
▁살고	-9.09061
청	-9.09145
b	-9.09492
▁메시지	-9.09603
▁예상	-9.0977
▁아프리카	-9.09849
되었	-9.09921
▁경쟁	-9.09981
▁얼마	-9.10002
건	-9.10016
▁증시	-9.10065
론	-9.10098
▁대의원	-9.10188
너	-9.10262
▁알리	-9.10264
▁막	-9.1035
st	-9.10421
▁최종	-9.10517
▁만약	-9.1058
후	-9.10616
▁여자	-9.10641
▁바로	-9.10684
▁행정부	-9.10853
▁밝힌	-9.10975
▁필요하다	-9.10988
량	-9.11173
▁개선	-9.11186
▁본	-9.1141
▁속	-9.11422
▁us	-9.11589
▁낮	-9.1166
▁f	-9.1168
▁힐	-9.11712
▁남편	-9.11795
▁보내	-9.11845
▁무장	-9.1197
▁발표한	-9.12011
무	-9.12126
▁경고했다	-9.12258
▁서로	-9.12272
▁관계자가	-9.12275
m	-9.12406
▁도움	-9.12598
▁스타	-9.1276
▁항공	-9.12897
▁배우	-9.1292
▁측	-9.12979
▁벌였다	-9.13057
▁이라크에서	-9.13097
▁안보	-9.13111
▁책임	-9.13233
▁즉	-9.13244
▁관리들	-9.13246
▁지방	-9.13254
▁짐바브웨	-9.13334
하라	-9.13425
▁부대	-9.13668
지는	-9.1369
▁건	-9.13817
▁출연	-9.1389
▁중인	-9.13929
▁지수	-9.14324
▁연합	-9.14387
▁중동	-9.14408
민	-9.14475
▁사임	-9.14509
▁시스템	-9.14531
▁담	-9.14531
▁그런	-9.14581
▁과거	-9.14648
있는	-9.14658
▁미국인	-9.14697
▁un	-9.14765
▁헬기	-9.1483
▁외국	-9.14844
▁세금	-9.14851
▁소송	-9.14887
▁없을	-9.14913
▁기록했다	-9.14938
▁주식	-9.15046
▁팔	-9.15168
▁외국인	-9.15297
었다고	-9.15313
▁맞	-9.15429
de	-9.15439
통	-9.15592
▁부부	-9.15684
▁시아파	-9.15749
▁화요일	-9.15952
▁밝혔	-9.15964
복	-9.15997
▁의장	-9.16004
▁밖에	-9.16175
▁베	-9.16195
▁비해	-9.16196
▁같이	-9.16344
▁가치	-9.16386
▁홍콩	-9.16415
▁내렸다	-9.16429
▁빈	-9.16437
행	-9.16466
▁브라질	-9.16477
▁사망하	-9.16662
류	-9.16681
▁약속	-9.16781
▁만나	-9.16982
▁시즌	-9.16983
▁원인	-9.17473
▁총선	-9.17499
▁얻	-9.17606
▁계약	-9.17777
▁회	-9.1778
▁미국에서	-9.17786
▁년부터	-9.18114
▁일정	-9.18201
▁각각	-9.18234
금	-9.18325
▁공연	-9.1839
▁해군	-9.18418
▁걸	-9.18432
▁웹사이트	-9.18454
▁작품	-9.18591
▁가스	-9.18598
▁상당	-9.18625
▁나오	-9.18745
▁하기	-9.18771
▁권리	-9.18775
영	-9.18818
▁앤	-9.18854
▁수단	-9.1891
▁놓	-9.19051
▁다양	-9.19083
▁제작	-9.19083
▁디	-9.19137
k	-9.19152
▁사무총장	-9.19232
▁정권	-9.19296
▁파업	-9.19303
▁거리	-9.1936
▁평균	-9.19363
▁일본의	-9.19516
졌다	-9.19555
▁확보	-9.19652
▁스미스	-9.1974
▁연료	-9.19792
▁과정에서	-9.19805
▁소식통	-9.19829
▁케냐	-9.19831
▁국영	-9.19841
증	-9.19878
▁되	-9.1994
엔	-9.20005
워	-9.20031
▁발견됐다	-9.20194
▁내무부	-9.2025
▁부통령	-9.20253
▁부상했다	-9.2043
강	-9.20459
했을	-9.20594
▁비용	-9.20617
▁유지	-9.20681
▁암	-9.20702
▁않아	-9.20753
▁여름	-9.2077
▁구성	-9.20898
▁위원장	-9.21026
▁사이에	-9.21057
▁상황이	-9.21101
▁패	-9.21197
출	-9.21264
▁환자	-9.21355
▁여명	-9.21364
▁대가	-9.21433
▁운영	-9.21454
▁메	-9.21494
▁완전	-9.2175
▁처리	-9.22033
▁주말	-9.22233
▁걸쳐	-9.22333
▁인상	-9.22471
▁합의했다	-9.22579
되	-9.22607
앞서	-9.22685
▁몸	-9.22823
▁유일	-9.22924
▁단	-9.22934
▁라디오	-9.2295
▁감시	-9.22983
▁반응	-9.22997
▁기대	-9.23045
▁대만	-9.2305
▁텍사스	-9.23131
▁추	-9.23187
▁사건이	-9.23271
▁담당	-9.23319
▁개최	-9.23324
▁동부	-9.23349
▁이곳	-9.23443
▁결정했다	-9.23531
▁주민	-9.23763
▁경	-9.24007
석	-9.24079
▁갈	-9.24183
▁통과	-9.2426
▁국내	-9.24304
▁주재	-9.24395
▁베네수엘라	-9.24428
▁바이러스	-9.24429
▁광고	-9.24523
▁되었다	-9.24549
▁어머니	-9.24578
▁캐나다	-9.24767
▁키	-9.24978
저	-9.24995
▁학생	-9.25116
▁강제	-9.25181
작	-9.25249
▁해안	-9.255
▁익명	-9.25501
▁야후	-9.25511
▁것과	-9.25553
▁치	-9.2556
래	-9.25645
▁선고	-9.25724
▁그룹	-9.26019
▁후세인	-9.26042
▁시험	-9.26048
▁차베스	-9.26049
▁대상으로	-9.26227
▁촬영	-9.26359
두	-9.26397
▁상대로	-9.26486
▁토	-9.26915
▁on	-9.26916
팀	-9.27003
분	-9.2702
▁페	-9.27048
▁서부	-9.27062
▁발견된	-9.27183
es	-9.27322
▁h	-9.27444
▁경찰에	-9.2746
▁바란다	-9.27688
▁알려진	-9.27699
▁요청했다	-9.2772
▁다리	-9.2773
▁일까지	-9.27942
▁사는	-9.27976
▁저장	-9.27988
▁인기	-9.28006
▁항공사	-9.28063
▁마치	-9.281
기구	-9.28141
▁받는	-9.28396
기도	-9.2847
▁왕자	-9.28535
▁플로리다	-9.28537
▁곳에서	-9.28687
▁누	-9.28829
▁통제	-9.28893
▁찾아	-9.28977
해왔다	-9.28992
았다	-9.29026
줄	-9.29031
▁책	-9.29102
▁지명	-9.29118
▁버스	-9.29248
케	-9.29265
▁무장세력	-9.2933
▁친	-9.29501
▁여론조사	-9.29525
▁백	-9.29681
시켜	-9.29749
▁k	-9.29772
▁편	-9.29822
▁민주주의	-9.29981
▁별	-9.30061
▁대변인이	-9.30065
▁사과	-9.3008
▁루	-9.30238
▁받지	-9.30288
▁논쟁	-9.30466
▁이래	-9.3047
색	-9.305
▁제품	-9.30503
▁예상된다	-9.30538
▁변호사는	-9.30564
▁총격	-9.30699
▁과	-9.30829
품	-9.30884
▁제공	-9.30906
층	-9.30998
▁인터뷰	-9.31031
힌	-9.31036
▁거대	-9.31289
▁북핵	-9.316
많은	-9.31601
▁무장단체	-9.3163
▁쿠바	-9.3166
▁때까지	-9.31895
▁희망	-9.32009
▁고통	-9.32086
한다는	-9.32171
▁파병	-9.32182
▁집단	-9.32412
▁머리	-9.32504
▁유권자들	-9.32571
▁수출	-9.32658
▁발전	-9.32711
▁직원	-9.32803
▁크게	-9.32859
▁임기	-9.32908
▁일부터	-9.33082
▁평가	-9.33182
▁수상	-9.33296
▁의료	-9.33394
하겠다	-9.33439
▁강한	-9.33498
▁되고	-9.33529
▁사실이	-9.33633
▁도움이	-9.33734
▁적이	-9.33762
▁암살	-9.33791
▁밝히	-9.33862
▁최악	-9.33934
록	-9.34004
▁질문	-9.34196
중인	-9.34224
▁수색	-9.34263
▁동	-9.34274
▁연	-9.34282
▁주간	-9.34284
▁위성	-9.34348
테	-9.34369
▁아니라고	-9.34378
▁따른	-9.34527
▁매년	-9.34532
▁상원의원이	-9.34546
었습니다	-9.34547
▁나온	-9.34587
업체	-9.34671
▁있지	-9.34706
▁실험	-9.34746
▁제한	-9.34876
▁이집트	-9.34928
▁여론	-9.34959
▁사퇴	-9.34979
▁nasa	-9.35112
하였다	-9.35185
▁be	-9.35342
음	-9.35391
▁칸	-9.35548
료	-9.3562
▁접근	-9.35662
▁사우디	-9.35711
▁명령	-9.35714
▁받게	-9.35804
▁시간이	-9.36071
▁파리	-9.3609
▁확인했다	-9.36166
▁음식	-9.36193
▁선수들	-9.36196
▁차이	-9.36243
▁성폭행	-9.363
▁로마	-9.36328
▁뇌	-9.36331
▁기사	-9.36418
▁보냈다	-9.36493
▁하원	-9.36579
▁적어	-9.36584
▁가졌다	-9.36602
본	-9.36697
▁비밀	-9.36779
▁어느	-9.36912
▁u	-9.36943
▁한다는	-9.37004
▁탑승	-9.37017
▁무역	-9.37028
▁나왔다	-9.37088
▁개혁	-9.37091
등	-9.37112
탄	-9.37136
▁벌	-9.37138
▁밝히지	-9.37171
▁의미	-9.37231
▁가능한	-9.37298
▁항공기	-9.3739
▁전국	-9.37413
인한	-9.37465
▁동료	-9.37493
▁가자지구	-9.37494
▁나머지	-9.37515
▁있음	-9.37589
기로	-9.37625
▁자세	-9.3763
▁들어	-9.37654
▁마크	-9.37821
▁공격으로	-9.37841
▁파괴	-9.37864
▁후에	-9.37919
▁병	-9.38101
▁감염	-9.38208
▁압력	-9.38275
▁올랐다	-9.38341
▁되어	-9.38345
▁직원들	-9.38346
▁개국	-9.38391
▁인수	-9.3841
약	-9.38456
▁못한	-9.38462
▁자료	-9.38466
되기	-9.38577
▁제임스	-9.38736
▁필리핀	-9.38738
▁사람들을	-9.38772
▁불만	-9.38824
처	-9.38858
▁국가들	-9.38896
▁복귀	-9.38908
대로	-9.38933
다면	-9.39008
▁사랑	-9.39045
▁남한	-9.39139
▁정부와	-9.39178
▁야	-9.39212
▁국회	-9.39308
튼	-9.39308
▁신고	-9.39331
지역	-9.39343
▁이끄는	-9.39358
▁구체적	-9.39361
▁달리	-9.39389
▁사형	-9.39415
▁전시	-9.39425
▁중에	-9.39431
▁명으로	-9.39442
동안	-9.39451
센터	-9.39523
▁부상자	-9.39633
▁시리아	-9.39635
▁월요일	-9.39787
▁인질들	-9.39809
▁북한에	-9.39827
▁진압	-9.39875
▁권력	-9.39999
▁회복	-9.40115
▁병사	-9.40134
▁사령관	-9.40156
▁학생들	-9.40294
▁허가	-9.40344
▁군대	-9.40358
▁지나	-9.40371
▁주도	-9.40467
p	-9.40501
▁언급했다	-9.40529
▁싶다	-9.40602
▁긴장	-9.40718
▁장면	-9.40771
▁막기	-9.40779
▁사람들에게	-9.40842
▁두고	-9.4098
▁해야	-9.40988
▁커	-9.41019
개	-9.41165
▁관해	-9.4118
른	-9.41235
▁다음달	-9.41243
▁오른	-9.41245
▁공습	-9.41261
▁센터	-9.41283
▁향해	-9.41323
▁희생자	-9.41327
으로서	-9.41419
▁만큼	-9.41529
▁되지	-9.41553
▁아내	-9.4156
▁살인	-9.41655
▁소재	-9.41886
갈	-9.41911
커	-9.41925
▁흑인	-9.41963
업	-9.42031
▁질문에	-9.42032
▁자체	-9.42173
▁설치	-9.42241
▁질	-9.42302
▁나이	-9.42342
▁지진	-9.42356
▁목숨	-9.425
▁잘못	-9.42502
▁수천명	-9.42521
▁중국은	-9.42619
▁팬들	-9.43085
▁안정	-9.43103
▁위반	-9.43137
▁세력	-9.43501
▁외교	-9.43548
▁죽음	-9.43703
▁사항	-9.43782
▁허리케인	-9.43787
▁밝혔습니다	-9.43826
▁마음	-9.43839
▁전기	-9.43842
▁기지	-9.43911
▁일자리	-9.43913
▁숨지고	-9.43916
생	-9.43926
▁만들어	-9.44044
▁참석	-9.44114
▁쇼	-9.44144
▁유로	-9.44253
▁위로	-9.44266
▁업체	-9.44291
f	-9.44303
▁예측	-9.444
▁식량	-9.4443
▁국방장관	-9.44439
▁일반	-9.44605
▁설명	-9.45018
▁부모	-9.45039
▁소리	-9.45088
▁헌법	-9.45164
쳐	-9.45199
▁자회담	-9.45281
▁넘는	-9.45427
▁북	-9.45568
on	-9.45574
▁따라	-9.4563
▁삶	-9.45747
▁이수지	-9.45756
▁마약	-9.45771
▁고용	-9.45899
▁의원들	-9.46194
▁뿐	-9.4623
▁달러에	-9.46291
g	-9.46294
▁미군이	-9.46309
w	-9.46343
하기도	-9.46355
h	-9.46366
▁칼	-9.46386
양	-9.46434
▁작업을	-9.46476
▁접촉	-9.46487
▁해리	-9.46621
▁비판	-9.46669
▁끝에	-9.46717
▁샤	-9.46739
▁경제적	-9.46872
▁여성이	-9.46926
▁유명한	-9.46936
▁이란이	-9.46941
▁선정	-9.47047
▁석	-9.47077
▁외무부	-9.47106
▁중앙	-9.47146
▁문화	-9.47207
▁제조	-9.4723
▁혼란	-9.47245
▁당선인	-9.47568
망	-9.47717
▁베컴	-9.47749
▁물론	-9.47777
▁입고	-9.47784
거리	-9.47833
▁전력	-9.47852
시키는	-9.47891
쉬	-9.47893
▁존스	-9.4791
▁교전	-9.47913
▁심장	-9.47928
▁제기	-9.48089
▁이달	-9.48123
l	-9.48308
▁종교	-9.48384
▁시카고	-9.48409
▁출마	-9.48441
▁참가	-9.48495
▁사원	-9.48512
▁움직임	-9.48551
▁수요일	-9.48606
▁곳에	-9.48611
▁자리	-9.48698
▁발생해	-9.48721
▁아주	-9.48865
▁시기	-9.48911
▁마련	-9.49046
▁기관	-9.49084
▁소말리아	-9.49103
▁미래	-9.49153
▁주장하고	-9.49166
▁내려	-9.49336
▁자녀	-9.49379
▁시민	-9.49414
▁사진을	-9.49459
▁t	-9.49473
▁목적	-9.49576
▁교통	-9.49604
▁선언	-9.49641
▁파견	-9.49704
▁fbi	-9.4979
▁주가	-9.4979
▁찰스	-9.49805
▁아베	-9.49864
▁양측	-9.49915
▁맥	-9.49992
▁수익	-9.50065
▁넘	-9.50077
▁붕괴	-9.50212
▁비슷	-9.50287
▁대중	-9.50288
▁귀	-9.50307
▁신원	-9.50341
▁기소	-9.5047
▁어떠한	-9.50478
▁시상식	-9.50478
▁외무장관	-9.50479
▁휴대폰	-9.50479
▁선출	-9.50536
▁영어	-9.50552
▁임시	-9.50558
▁관련해	-9.50578
베	-9.50772
만이	-9.50774
▁시행	-9.50819
▁계획이	-9.50837
▁추락	-9.50879
▁국무장관	-9.50966
or	-9.51106
▁사장	-9.51147
▁긴급	-9.51175
▁총재	-9.51218
▁전문가	-9.51223
▁최고의	-9.51233
▁정부에	-9.5125
▁구매	-9.51277
▁쿠	-9.51301
▁진출	-9.51362
▁거부	-9.51386
▁re	-9.51433
▁자국	-9.5157
▁강화	-9.51571
▁이라크에	-9.51729
▁체포됐다	-9.51746
▁갖	-9.51792
▁좀	-9.51872
▁지도자인	-9.51881
▁국제사회	-9.51882
주의	-9.5189
▁선두	-9.5189
▁피해자	-9.51909
마다	-9.52005
회사	-9.5202
▁경험	-9.52142
▁엘	-9.52189
▁누구	-9.52261
퍼	-9.52294
▁추진	-9.52296
이었	-9.52475
▁충격	-9.52486
▁그리스	-9.52525
인들	-9.52564
▁게이츠	-9.52579
▁어려움	-9.52579
▁착륙	-9.52617
▁유권자	-9.52806
▁상대	-9.52822
▁위에	-9.52836
들에	-9.52865
▁변	-9.52887
▁결의안	-9.52912
▁승객	-9.52988
▁거주하	-9.52998
▁교회	-9.53031
▁일이	-9.53181
▁목표로	-9.53223
▁여명이	-9.5324
▁로켓	-9.53292
tal	-9.53303
▁카운티	-9.53335
▁주민들이	-9.53345
▁받	-9.53416
림	-9.53422
▁위치	-9.53537
▁검토	-9.53585
▁사상	-9.53671
▁부분	-9.53842
▁실시	-9.5385
▁병원에	-9.53955
▁젊은	-9.53969
▁고문	-9.53992
▁id	-9.54081
▁판	-9.54144
락	-9.54255
▁여사	-9.54258
▁정상회담	-9.54293
근	-9.54311
▁임명	-9.5453
▁정당	-9.54583
▁선거에서	-9.54598
▁유명	-9.5462
▁현장	-9.54712
▁코소보	-9.54719
▁확대	-9.54719
▁동결	-9.54727
메	-9.5476
▁이라크전	-9.54824
▁것인지	-9.54879
▁금	-9.54889
▁집중	-9.55177
▁작년	-9.55183
▁크	-9.55229
▁섬	-9.55259
▁나가	-9.55411
▁연속	-9.5546
▁숨진	-9.55476
▁모델	-9.55505
있다	-9.55536
▁일요일	-9.55545
▁공군	-9.55573
▁해제	-9.55694
▁폭력사태	-9.55789
▁인사	-9.55813
▁여성들	-9.55832
▁노조	-9.559
▁j	-9.56001
▁약간	-9.56003
▁추정	-9.56047
▁잉글랜드	-9.56174
▁나타나	-9.56174
▁총기	-9.56185
▁사무실	-9.56257
▁정말	-9.56355
장을	-9.56462
▁있는지	-9.56564
▁현대	-9.56621
쿠	-9.56643
▁인물	-9.56704
었	-9.56813
▁절차	-9.5692
▁판단	-9.56932
렌	-9.5695
▁도착	-9.56961
▁방문한	-9.56963
▁빨	-9.56964
v	-9.56995
▁월부터	-9.57018
▁지지자들	-9.57032
▁보여주	-9.57131
▁듯	-9.57186
▁가질	-9.57218
▁들고	-9.5724
▁배치	-9.57395
투	-9.57481
▁작업	-9.57514
▁보이는	-9.57527
▁단지	-9.57535
▁국립	-9.57635
▁신화통신	-9.57651
▁유죄	-9.57681
ra	-9.57686
▁카메라	-9.5773
▁남북	-9.57799
▁당했다	-9.57804
▁마일	-9.57861
▁도전	-9.57893
▁감	-9.58005
협회	-9.58011
준	-9.58114
▁윌리엄	-9.58257
▁실패	-9.58297
▁이전에	-9.58319
▁전달	-9.58381
▁항의	-9.58381
▁밝혀지지	-9.58435
각	-9.58526
▁가까	-9.58631
▁전략	-9.58807
▁수석	-9.58887
센	-9.58908
▁다이애나	-9.59108
▁블레어	-9.59148
▁도쿄	-9.59175
▁스포츠	-9.59221
▁압박	-9.59467
▁약물	-9.59562
▁불리	-9.59598
▁됐	-9.59661
액	-9.59663
ion	-9.59666
▁관광	-9.59672
아니라	-9.59691
장관	-9.597
▁올라	-9.59724
▁오래	-9.59758
▁급	-9.59775
▁노동	-9.59775
▁걱정	-9.59847
배	-9.59917
▁감사	-9.59941
▁군인	-9.59975
▁매일	-9.60029
▁대형	-9.60035
▁체포했다	-9.60037
▁패배	-9.60324
▁관광객	-9.60406
▁가량	-9.6043
▁반대하는	-9.60436
▁결	-9.60484
정부	-9.6051
▁버지니아	-9.60559
▁올메르트	-9.60669
▁몇몇	-9.60669
▁스스로	-9.6067
▁비상사태	-9.60671
▁과학	-9.60708
▁나토	-9.60754
단체	-9.60772
▁효과	-9.60799
로써	-9.60823
▁연합군	-9.60835
▁피트	-9.60855
집	-9.6104
▁연설에서	-9.61075
▁세기	-9.6113
턴	-9.61297
자인	-9.61312
▁조건	-9.61359
▁탁신	-9.61438
했는데	-9.61453
▁확실히	-9.61502
▁작성	-9.61517
▁연구소	-9.6152
▁탄	-9.61548
▁도중	-9.61559
▁만든	-9.61578
▁목요일	-9.6174
시키고	-9.6177
▁영국의	-9.61892
▁분기	-9.62084
▁허용	-9.62096
▁오랫동안	-9.62213
▁할리우드	-9.62213
▁빠른	-9.62214
▁장기	-9.62224
▁성적	-9.62234
▁수백명	-9.62237
▁구호	-9.62265
▁연장	-9.623
▁사이트	-9.62337
▁옷	-9.62344
▁실수	-9.62346
tp	-9.62444
▁korean	-9.62467
▁자주	-9.62467
▁구속	-9.62484
▁전통	-9.62553
▁잠	-9.62702
링	-9.62755
남	-9.62852
▁아마	-9.62907
▁전까지	-9.62914
▁bbc	-9.62997
▁직후	-9.63002
▁회담에서	-9.63005
ly	-9.63147
▁테	-9.63244
리아	-9.63402
리자	-9.63427
▁글	-9.63589
▁사기	-9.6362
▁기억	-9.63744
렸다	-9.63775
▁이밖에	-9.63782
▁담배	-9.63793
▁유세	-9.63825
▁동시	-9.63869
an	-9.63881
▁cat	-9.63908
▁버	-9.63929
▁높이	-9.63997
▁퍼	-9.64115
▁뉴	-9.64129
지도	-9.64178
▁ms	-9.64234
▁내부	-9.64235
▁여당	-9.64277
▁진	-9.64388
▁여왕	-9.6439
▁애플	-9.64391
▁바다	-9.64428
▁겪고	-9.64575
▁민병대	-9.64575
▁스피어스	-9.64575
▁샤리프	-9.64579
▁하며	-9.64607
▁투입	-9.64609
▁마무리	-9.64612
▁단계	-9.64622
▁조작	-9.64623
▁핵심	-9.64646
▁윌리엄스	-9.64723
▁분쟁	-9.64735
▁넣	-9.64739
▁소비자	-9.64768
▁알게	-9.64789
▁능력	-9.64835
▁실제	-9.64865
▁생	-9.64962
스러운	-9.65003
▁이와같	-9.65007
▁프로젝트	-9.65073
▁만명이	-9.65145
▁홍보	-9.65347
▁iaea	-9.65375
▁그렇게	-9.65375
▁우크라이나	-9.65375
▁크리스토퍼	-9.65376
▁산불	-9.65388
▁오랜	-9.65393
▁왜	-9.65409
▁고양이	-9.65481
▁없어	-9.65532
▁의심	-9.65541
▁체	-9.65604
▁is	-9.65655
▁차지했다	-9.65823
▁끝	-9.65838
▁병원에서	-9.65868
▁극	-9.65928
왔다	-9.66011
▁운행	-9.66049
▁무가베	-9.66182
▁주의	-9.66206
▁노래	-9.66223
▁초기	-9.66239
▁난민	-9.66299
▁후보에	-9.66512
▁보안관	-9.66565
▁대법원	-9.66572
▁넘어	-9.66576
▁문서	-9.66678
은행	-9.66698
▁실시된	-9.66741
▁속에	-9.66819
▁그러	-9.66965
▁네덜란드	-9.66995
▁높다	-9.66995
▁감축	-9.67
▁원자로	-9.67017
▁영상	-9.67022
▁날씨	-9.67047
▁나타냈다	-9.67055
▁스위스	-9.67092
▁집회	-9.67135
인지	-9.67155
▁잡	-9.6716
▁맞아	-9.67209
▁보기	-9.67239
▁집에서	-9.67269
en	-9.67344
▁한국은	-9.67346
하다고	-9.67406
▁주에서	-9.67423
▁한반도	-9.67555
▁표현	-9.67572
▁블로그에	-9.67573
▁대응	-9.67605
빌	-9.67624
▁이미지	-9.6763
페	-9.67692
▁따	-9.67761
▁폭풍	-9.67792
▁세르비아	-9.67798
▁처벌	-9.67816
▁배럴	-9.6782
▁중심	-9.67827
▁조금	-9.67868
▁위기에	-9.6788
▁제거	-9.6789
▁시작된	-9.67923
▁빠르	-9.6793
▁수정	-9.67962
▁미국인들	-9.67971
▁목사	-9.68014
▁군부	-9.68038
절	-9.68085
ment	-9.68133
▁가수	-9.68237
▁투	-9.68283
▁망명	-9.68316
▁약속했다	-9.68411
▁소녀	-9.68439
▁대비	-9.68637
▁ht	-9.68667
▁지배	-9.6867
▁기후	-9.68688
▁치안	-9.68692
▁알려지	-9.68713
▁내각	-9.68725
▁받기	-9.68733
▁수천	-9.68794
▁나무	-9.68812
▁개봉	-9.68831
▁프라이머리	-9.68847
▁중이다	-9.68852
▁소장	-9.6889
▁않겠다	-9.68906
▁집행	-9.68912
▁상황에서	-9.68942
▁가족들	-9.68988
입	-9.69035
▁굴	-9.69044
▁어려	-9.69057
▁그중	-9.69118
▁전문	-9.6913
▁경찰과	-9.69132
족	-9.69156
▁보낸	-9.69201
▁r	-9.69209
▁증가했다	-9.69367
▁보건	-9.6938
▁법률	-9.69423
자들이	-9.69436
▁일어난	-9.69475
▁asp	-9.6948
▁kg	-9.69486
▁대표팀	-9.6953
하길	-9.69533
▁주년	-9.69557
▁왕	-9.69582
▁고든	-9.69636
다른	-9.69725
▁이용해	-9.69755
▁발생할	-9.69772
▁둔	-9.69896
▁중국이	-9.6994
▁월까지	-9.6995
초	-9.7002
▁장소	-9.70024
▁위험한	-9.7014
샤	-9.70199
▁축구	-9.70261
▁크리스마스	-9.70311
▁찾기	-9.70315
▁하워드	-9.70321
▁엄마	-9.70322
▁대책	-9.70343
표	-9.70376
▁작가	-9.70452
▁단어	-9.70462
▁마드리드	-9.70462
▁다쳤다	-9.70547
▁북한과	-9.70571
▁수니파	-9.70771
▁게	-9.70794
회의	-9.70799
▁사상자	-9.70816
▁말하고	-9.70862
▁의원이	-9.70909
▁부인했다	-9.70985
▁떠나	-9.71014
냐	-9.71016
▁시민들	-9.71016
▁그에게	-9.7105
▁먼저	-9.71167
▁수백	-9.71203
▁나섰다	-9.71234
▁청와대	-9.71245
겠다	-9.71288
▁대단	-9.71337
▁긴	-9.71366
▁법적	-9.71404
번	-9.71413
▁목소리	-9.71451
▁최신	-9.71458
되었습니다	-9.71496
▁남성이	-9.7184
▁보좌관	-9.71902
싼	-9.71973
▁찾는	-9.72017
▁스티브	-9.72022
▁역사적	-9.72044
▁보이고	-9.72095
ic	-9.72097
▁보장	-9.72105
시킨	-9.72119
▁연구진	-9.72215
▁기자회견	-9.72298
▁떨어져	-9.72305
▁고래	-9.72446
만한	-9.72486
▁소지	-9.72648
▁시작됐다	-9.72724
▁순간	-9.72781
▁제출	-9.72836
▁쿠르드	-9.72873
▁캠프	-9.72879
▁모하메드	-9.7288
▁진입	-9.72886
▁구글	-9.72893
▁사례	-9.72901
▁아바스	-9.7291
▁영향력	-9.73053
▁폐	-9.73067
▁전자	-9.73113
▁수행	-9.73223
▁의혹	-9.73224
▁확산	-9.73235
▁비상	-9.73239
▁구성된	-9.73346
▁없었	-9.73513
▁현장에	-9.73572
▁인정했다	-9.73591
▁공장	-9.73592
▁후보로	-9.73605
승	-9.7364
▁정확한	-9.73748
▁farc	-9.7375
▁장난감	-9.73751
▁네팔	-9.73753
▁사용하는	-9.73817
▁추정되	-9.73901
▁하락했다	-9.73999
하였	-9.74004
▁않기	-9.74144
▁니콜라	-9.74174
ce	-9.74193
▁프리	-9.74197
자가	-9.74234
졌	-9.74245
▁마감	-9.74284
▁박물관	-9.74314
▁특사	-9.74322
▁얼굴	-9.74352
기간	-9.74462
▁집계	-9.74543
니다	-9.74591
▁등록	-9.74609
▁수가	-9.74619
▁규제	-9.74627
▁cia	-9.74636
▁찬성	-9.74703
▁말레이시아	-9.74705
▁가능	-9.74738
▁홍수	-9.74787
▁과정	-9.74787
▁분석	-9.74802
▁대표단	-9.7482
▁보이지	-9.74827
▁슈	-9.74846
▁만들	-9.74863
▁크기	-9.74977
천	-9.75107
▁대통령에게	-9.75203
▁술	-9.75225
씩	-9.75314
랑	-9.75332
언	-9.75362
▁실시한	-9.75503
▁분위기	-9.75519
▁자신들이	-9.7555
▁분노	-9.75633
▁출발	-9.75638
▁웹사이트에	-9.75652
매	-9.75655
▁놀라	-9.75661
▁있는데	-9.75665
이지만	-9.75675
▁돼	-9.75728
▁캐	-9.75781
▁시리즈	-9.75786
▁완화	-9.75789
시키기	-9.7579
▁참여	-9.75949
태	-9.76121
▁실제로	-9.76136
▁증언	-9.7621
▁명에	-9.76305
▁new	-9.76306
▁아르헨티나	-9.76403
▁말한	-9.76409
▁i	-9.76516
▁후반	-9.76584
▁아부	-9.76597
것	-9.76746
▁태도	-9.76755
▁집권	-9.76763
▁당한	-9.76839
겠다고	-9.76841
▁이끌	-9.76981
▁들었다	-9.77102
▁못할	-9.77151
되면서	-9.77176
▁국	-9.77186
▁축하	-9.77216
▁화성	-9.7729
▁경계	-9.77295
▁머물	-9.77299
▁피터	-9.77307
▁노대통령	-9.7731
▁휴가	-9.77376
▁원조	-9.77388
이라	-9.77418
ar	-9.77449
년	-9.77564
▁부정	-9.77568
▁밀	-9.77576
▁해당	-9.77623
▁사용할	-9.77626
▁민간	-9.77639
▁임	-9.77694
▁얻었다	-9.7771
▁나와	-9.77781
▁헤	-9.77814
▁미국에	-9.77828
▁경찰관	-9.77849
담	-9.77929
말	-9.77949
▁등이	-9.77956
▁일에	-9.7802
▁깊	-9.78043
당국	-9.78072
▁협의	-9.78094
▁시대	-9.78097
▁말리키	-9.78214
▁쉽게	-9.78227
▁총장	-9.78231
▁상황에	-9.78257
▁확신	-9.78261
▁조정	-9.78263
▁비자	-9.78271
▁우주선	-9.78345
▁가격이	-9.78347
▁영국에서	-9.78375
▁대체	-9.78379
▁떨어졌다	-9.78465
▁허	-9.7847
▁장치	-9.78474
▁힐튼	-9.78501
▁취소	-9.78514
술	-9.78577
편	-9.78645
▁주로	-9.78708
외	-9.78815
▁도착했다	-9.78841
▁진행되	-9.78876
▁테러로	-9.78885
▁시위자들	-9.78924
▁환영	-9.78953
플	-9.78983
▁의한	-9.7903
▁운전	-9.79102
▁엘리자베스	-9.79131
▁향	-9.79172
▁문제로	-9.79179
국가	-9.79257
▁중요하다	-9.79273
▁무사	-9.79334
▁성인	-9.79405
쳤다	-9.79407
▁만들었다	-9.79451
▁형	-9.79716
▁내린	-9.79721
▁하다	-9.79776
해졌다	-9.79841
▁경기에	-9.79869
▁근무	-9.7988
▁유사	-9.79926
▁오하이오	-9.79931
▁강도	-9.79944
▁국장	-9.7997
▁징역	-9.80042
▁저녁	-9.80057
▁north	-9.80057
씬	-9.80057
▁태풍	-9.8006
▁알려져	-9.80061
▁참석한	-9.80074
▁유럽연합	-9.80077
▁신속	-9.80097
▁맺	-9.80098
▁지급	-9.80164
볼	-9.80178
▁영국군	-9.80251
▁쉬	-9.8027
▁취임	-9.80382
범	-9.80428
레이	-9.80448
▁이곳에서	-9.80469
령	-9.80488
▁숨	-9.80495
▁보이	-9.8054
▁월드컵	-9.80617
▁소비	-9.80801
▁태	-9.8087
합	-9.80895
살	-9.80918
▁했	-9.80946
▁제시	-9.80963
▁드라마	-9.80992
▁승무원	-9.81005
▁침해	-9.81023
▁연루	-9.8103
▁반발	-9.81086
방송	-9.8111
▁지불	-9.81121
▁소년	-9.81129
▁아파트	-9.81353
▁수반	-9.81363
▁당선자	-9.81389
▁자산	-9.81445
▁어린	-9.81527
▁살해한	-9.81529
▁클럽	-9.81588
▁없다는	-9.81599
▁요구한	-9.81601
▁교체	-9.81664
▁속도	-9.81704
▁부동산	-9.8183
▁한국과	-9.8188
▁언제	-9.81927
▁매들린	-9.81935
▁소프트웨어	-9.81935
▁토요일	-9.81935
▁콘돌	-9.81937
▁결론	-9.81948
▁타격	-9.81952
▁들어가	-9.81971
빈	-9.81989
▁형성	-9.81991
▁절반	-9.82005
▁입국	-9.82008
▁최소한	-9.82008
▁기타	-9.82071
▁물질	-9.82182
시설	-9.82245
스타	-9.82298
▁속에서	-9.82317
▁오픈	-9.82686
▁남북한	-9.82752
하려고	-9.82761
▁대처	-9.82776
▁장군	-9.82813
▁현장에서	-9.82832
▁외교부	-9.82881
▁잭슨	-9.82887
▁협조	-9.82887
▁사이클론	-9.82892
▁활용	-9.82893
▁연락	-9.82899
▁토니	-9.82902
▁인식	-9.82906
▁통화	-9.82963
활동	-9.83008
▁역	-9.83098
▁예방	-9.83102
▁체포된	-9.83221
▁ac	-9.83235
▁선포	-9.83271
▁임신	-9.83288
▁요구하는	-9.83478
▁요	-9.83495
▁당선	-9.83655
열	-9.83687
▁보여	-9.83767
▁자살폭탄테러	-9.83844
▁개입	-9.83846
▁긍정적	-9.83849
▁뉴질랜드	-9.83849
▁리버풀	-9.83849
▁벌금	-9.8385
▁ceo	-9.83855
▁페르베	-9.8386
▁끝난	-9.83871
▁모른다	-9.8388
▁갖추	-9.83886
▁신경	-9.83886
▁귀국	-9.83894
▁지출	-9.8393
▁대출	-9.83958
▁백만	-9.83975
▁방어	-9.83993
한다면	-9.84002
▁기자들	-9.84004
▁신청	-9.84014
블	-9.84088
달	-9.84095
▁총선에서	-9.84104
▁수감	-9.84163
렸	-9.84191
▁되면	-9.84289
▁이들이	-9.84334
▁한번	-9.84421
▁제외	-9.84464
▁방해	-9.84565
▁심리	-9.84568
라도	-9.84568
▁용의자들	-9.84592
먼	-9.84593
현	-9.84654
▁재정	-9.84801
▁빠져	-9.84818
▁김정일	-9.8482
▁론스타	-9.84823
▁루이스	-9.84852
▁길이	-9.84852
▁나달	-9.84862
▁개정	-9.84863
▁범인	-9.84914
▁연결	-9.84934
▁트럭	-9.84942
▁촉구	-9.84946
▁예산	-9.84973
▁성화	-9.84974
▁않으면	-9.8499
▁조종사	-9.85059
▁세트	-9.85072
▁자격	-9.85083
▁예정이	-9.8514
ation	-9.85167
▁터키군	-9.85205
결	-9.85211
▁왔	-9.85277
▁고려	-9.85414
▁한미	-9.85681
▁토론	-9.85777
▁싱가포르	-9.858
▁포르투갈	-9.858
▁뛰어	-9.85802
▁에이즈	-9.85818
▁신용	-9.85824
수가	-9.85874
▁웹	-9.85927
▁충분	-9.86029
▁기구	-9.8604
▁자연	-9.86044
▁적용	-9.86059
했는지	-9.86099
▁이틀	-9.86124
▁레이	-9.86141
▁고속도로	-9.86199
▁동맹	-9.86225
▁협정	-9.86354
▁침체	-9.86553
▁펜실베이니아	-9.86681
ies	-9.86711
▁방식	-9.86716
▁풀	-9.86723
▁우라늄	-9.8679
▁핵실험	-9.86793
책	-9.86809
▁실행	-9.86816
▁송	-9.86827
▁힘든	-9.86827
▁성공했다	-9.8689
▁공식적으로	-9.86904
▁일반적	-9.86905
▁이것이	-9.86924
채	-9.8698
▁회사들	-9.87013
름	-9.87042
맨	-9.87086
▁신뢰	-9.87109
▁공화당의	-9.87332
▁조사하고	-9.87341
▁관	-9.8758
▁찍	-9.87586
▁지지하는	-9.87664
▁시드	-9.87681
시장	-9.87734
▁cbs	-9.8779
▁테이프	-9.8779
▁with	-9.8779
▁이르는	-9.87812
▁소개	-9.87814
▁드러났다	-9.87818
▁중이라고	-9.87822
▁테러가	-9.87834
▁쥐	-9.8784
▁압둘라	-9.87856
▁포드	-9.87875
만에	-9.87887
▁금리	-9.87906
▁조사에서	-9.8796
▁해고	-9.88058
▁일본은	-9.88089
▁소유	-9.88136
▁지지자	-9.88218
▁진술	-9.88254
▁향하	-9.88254
▁그린	-9.88381
▁진정	-9.88412
▁민	-9.88417
▁투자자들	-9.88418
▁수용	-9.88442
▁아랍	-9.8854
▁오르	-9.8862
▁동원	-9.88669
us	-9.88725
춘	-9.88755
▁권	-9.88799
▁얘기	-9.888
▁페일린	-9.888
▁south	-9.888
▁첼시	-9.88801
▁ppp	-9.88803
▁로봇	-9.88807
▁걸어	-9.88809
▁나쁜	-9.8881
▁민주화	-9.88822
▁육군	-9.88824
랜드	-9.8886
▁올렸다	-9.8892
▁목격자들	-9.88954
ia	-9.89014
▁곳으로	-9.89047
▁전면	-9.89069
▁안보리	-9.89069
목	-9.89112
▁설립	-9.89125
▁at	-9.89145
▁엔	-9.89166
▁삼	-9.89188
▁복제	-9.8921
▁목	-9.89244
▁경선에서	-9.89246
▁점령	-9.89261
▁학생들이	-9.89386
▁지지율	-9.89455
▁필	-9.89461
▁중국에서	-9.89464
ational	-9.89519
▁집에	-9.8952
▁주고	-9.89681
광	-9.89704
머	-9.89782
▁캠페인	-9.8982
▁해리포터	-9.8982
▁휘발유	-9.8982
▁국제유가	-9.89822
▁답변	-9.89824
▁불참	-9.89828
▁벌어진	-9.89836
▁차관보	-9.89843
달하는	-9.89859
▁반정부	-9.89866
▁벨	-9.8988
골	-9.9
▁개월간	-9.90017
▁의무	-9.90053
▁편지	-9.90055
▁만드는	-9.90067
▁대의	-9.90082
▁총리와	-9.90105
▁회담에	-9.90145
▁협회	-9.90153
▁상품	-9.90193
▁창	-9.90442
▁일어나	-9.90472
▁이혼	-9.90477
▁당선인은	-9.90636
▁중국과	-9.90666
클	-9.90699
▁수십	-9.90724
▁해결하기	-9.90764
▁믿고	-9.90851
▁케네디	-9.90856
▁fta	-9.90858
▁휴전	-9.90862
▁통합	-9.90865
▁입양	-9.90869
▁아카데미	-9.90874
예	-9.90876
▁가득	-9.90876
▁축제	-9.90882
▁잔해	-9.90963
둔	-9.91041
▁이해	-9.91048
▁못했	-9.91296
▁외부	-9.91334
▁pa	-9.91339
리스	-9.91426
re	-9.91567
▁지도부	-9.91577
▁내에	-9.91599
▁장비	-9.91651
▁주일	-9.917
▁맨체스터	-9.91891
▁승	-9.91893
▁앨범	-9.91897
▁dna	-9.919
▁화산	-9.91904
▁향후	-9.91905
▁변경	-9.91911
▁센트	-9.91922
▁교황	-9.91964
▁가입	-9.92005
▁통치	-9.92027
▁학대	-9.92027
▁평화적	-9.92092
▁본부	-9.9215
▁공개했다	-9.92176
▁행진	-9.92181
▁정부군	-9.92224
흐	-9.92244
▁터	-9.92287
▁근	-9.9229
▁유리	-9.92308
▁격	-9.92357
▁부패	-9.9247
▁킹	-9.92491
▁이하	-9.92533
▁잡지	-9.9259
▁차지	-9.9266
▁대피	-9.92662
조치	-9.92663
통신	-9.92668
▁포함되어	-9.92809
시간	-9.92825
▁접	-9.92877
▁한국군	-9.92882
▁톰	-9.92907
▁좋지	-9.92946
훨	-9.92946
▁학살	-9.92951
▁방침	-9.92953
▁맨유	-9.92953
▁음모	-9.92959
▁선거운동	-9.92967
▁영토	-9.92968
▁리비아	-9.92975
▁면	-9.92982
▁체니	-9.93014
▁며칠	-9.93034
▁선물	-9.93036
창	-9.93092
격	-9.93157
▁밀란	-9.93159
▁질환	-9.93196
▁응	-9.93333
추	-9.9335
▁울	-9.93388
▁정신	-9.93421
습	-9.93545
▁대통령에	-9.93547
톤	-9.9361
▁중에는	-9.93617
▁벌인	-9.9371
▁철회	-9.93711
▁관광객들	-9.93732
사건	-9.93732
▁멋	-9.93762
▁회담이	-9.93864
▁전망이	-9.93921
▁페더러	-9.9401
▁이메일	-9.9401
▁다르푸르	-9.9401
▁포함해	-9.94048
▁준	-9.9406
▁헤럴드	-9.94076
▁콜	-9.94118
▁지진으로	-9.9417
▁기능	-9.94177
▁것보다	-9.94221
▁랭킹	-9.94321
▁평	-9.94357
때	-9.94384
▁시절	-9.94397
▁수집	-9.94498
▁이스라엘과	-9.94507
▁가정	-9.94511
▁재산	-9.94593
▁충분한	-9.9463
필드	-9.94648
▁소니	-9.94677
▁진행된	-9.94851
▁밝혀	-9.94899
▁머	-9.94939
▁언급하지	-9.9494
규	-9.9499
x	-9.95075
▁사드르	-9.95083
▁콘서트	-9.95085
▁iraq	-9.95085
▁반기문	-9.95087
▁who	-9.95097
▁야생	-9.95098
으면	-9.95133
▁이웃	-9.95144
▁바그다드에서	-9.95167
▁동의	-9.95191
▁장식	-9.95215
ch	-9.95246
▁레이스	-9.9527
▁거절	-9.95286
▁보상	-9.95345
▁대결	-9.95408
▁지하	-9.95464
▁여기	-9.95511
▁방법으로	-9.95513
힐	-9.95526
정책	-9.95534
▁의료진	-9.95642
▁방지	-9.95738
▁의도	-9.95788
▁짐	-9.9587
레스	-9.96051
▁다니	-9.9608
▁사용되	-9.96081
▁영	-9.96106
▁기도	-9.96146
▁생각하고	-9.96161
▁지적	-9.96164
▁멸종	-9.96171
▁헤즈볼라	-9.96172
▁접속	-9.96185
▁폭	-9.96193
▁출시	-9.96202
▁원유	-9.96254
▁유가	-9.96277
▁다이아몬드	-9.96298
대한	-9.96309
▁밖에서	-9.96315
▁성향	-9.96411
▁손실	-9.96499
▁파타	-9.96707
▁방문했다	-9.9681
▁죽	-9.96811
▁방문할	-9.96816
▁척	-9.96846
▁생명	-9.96907
▁바람	-9.96923
▁니	-9.97034
▁워싱턴에서	-9.97083
▁아이들이	-9.97085
▁기업들	-9.97111
▁이번주	-9.97142
므로	-9.97262
▁무릎	-9.97271
▁밖으로	-9.97271
▁온난화	-9.97271
▁현지시각	-9.97271
항	-9.97271
▁원하는	-9.97276
▁리콜	-9.9728
▁폭우	-9.97296
▁결혼식	-9.97328
▁강경	-9.97333
▁요구하고	-9.97357
▁크리스	-9.97374
▁발표된	-9.97379
지에	-9.97387
▁바라고	-9.97495
▁회원국	-9.97521
▁잃었다	-9.97575
▁폐지	-9.97591
▁이익	-9.9764
▁노동자	-9.97659
▁모습이	-9.97663
▁모양	-9.97701
▁생존	-9.97719
섬	-9.97751
▁힘들	-9.97876
▁지도	-9.97904
▁주장하는	-9.97989
▁차드	-9.98015
▁기념	-9.98102
▁이스라엘군	-9.98118
립	-9.98221
▁내전	-9.98356
았	-9.98363
▁경찰서장	-9.98456
▁잠시	-9.98474
▁l	-9.98485
▁돌아가	-9.9849
▁취할	-9.9859
▁혹	-9.98645
▁성과	-9.98776
낼	-9.98793
손	-9.98857
▁분야	-9.98878
▁장관이	-9.98885
▁서명	-9.9892
쯤	-9.9896
▁예상했다	-9.99097
▁올랐	-9.99107
▁둘	-9.99123
킬	-9.99244
▁제도	-9.99258
▁스티븐	-9.99266
▁매장	-9.99344
▁고객	-9.99433
▁지키	-9.99453
웰	-9.99487
▁세계대전	-9.99506
▁nbc	-9.9951
▁영변	-9.9951
▁마틴	-9.99527
▁진실	-9.99528
▁공공	-9.99534
▁웨스트	-9.99538
▁특정	-9.99571
▁밑	-9.99596
▁자기	-9.99685
▁사건과	-9.99733
▁화	-9.99736
▁아래	-9.99803
▁평양	-9.99954
▁생존자	-10.0001
쇼	-10.0004
겐	-10.0005
▁마이크	-10.0009
▁말라	-10.0015
탈	-10.0026
율	-10.0038
려는	-10.0047
▁보면	-10.0048
착	-10.0049
었고	-10.005
지르	-10.0055
▁현재까지	-10.0055
▁지연	-10.0055
▁보였	-10.0056
▁질병	-10.0057
원들	-10.0064
▁찾고	-10.0064
▁쿠데타	-10.0064
▁훌륭	-10.0064
▁우선	-10.0068
시키	-10.0069
▁서방	-10.0069
▁기준	-10.0069
▁원한다	-10.007
▁주는	-10.007
▁일리노이주	-10.0071
▁목격자	-10.0079
해지	-10.0081
▁아일랜드	-10.0081
▁억류	-10.0082
서는	-10.0083
▁행	-10.009
▁프로	-10.0092
▁적절한	-10.0099
▁참	-10.0105
it	-10.0127
▁사실상	-10.0128
▁ba	-10.0136
▁나서	-10.0137
▁논란	-10.0139
변	-10.0147
▁대부분이	-10.0151
▁cm	-10.0157
▁존재	-10.0172
▁나이지리아	-10.0179
▁열린우리당	-10.0179
▁이렇게	-10.0179
▁카르자이	-10.0179
▁대다수	-10.0179
▁폭행	-10.018
▁버마	-10.0183
▁보통	-10.0184
▁사전	-10.0189
▁대북	-10.019
▁태평양	-10.0192
▁포기	-10.0198
▁수요	-10.02
스터	-10.0205
▁저지	-10.0209
불	-10.0211
▁심각	-10.0211
▁존슨	-10.0213
▁제안했다	-10.0215
▁계획에	-10.0215
▁케	-10.0223
찬	-10.0224
▁보고했다	-10.0228
엘	-10.0231
▁교	-10.024
▁가까이	-10.0243
▁톤	-10.0253
▁스테	-10.026
사는	-10.0269
▁협상이	-10.0283
▁검색	-10.029
▁흡연	-10.0295
▁파운드	-10.0295
▁라운드	-10.0295
▁갑자	-10.0296
관리	-10.0299
▁핵시설	-10.03
▁베트남	-10.03
▁심문	-10.0301
▁느끼	-10.0302
▁수백만	-10.0303
▁층	-10.0305
▁구제	-10.031
▁심슨	-10.0311
▁원제	-10.0312
▁각국	-10.0316
▁빅	-10.0319
▁만날	-10.0325
▁가구	-10.0347
▁되기	-10.035
만큼	-10.0354
▁다우	-10.0355
▁요원	-10.0357
▁교도소	-10.0358
▁투어	-10.0365
▁동물원	-10.038
▁업계	-10.0384
축	-10.0387
▁입원	-10.0391
▁광산	-10.0395
들어	-10.0397
▁일본에서	-10.0401
▁영화제	-10.0401
▁가자	-10.0407
▁오스트리아	-10.0413
▁덴마크	-10.0413
▁체결	-10.0415
▁국왕	-10.0415
▁격차	-10.0415
▁동반	-10.0416
▁an	-10.0418
▁치러진	-10.042
▁담당자	-10.0423
in	-10.0443
▁휴	-10.0455
ri	-10.0456
▁일본이	-10.0461
▁본사	-10.0467
▁공격이	-10.0474
앙	-10.0481
려고	-10.0486
▁선박	-10.0488
겠	-10.0498
▁감정	-10.0509
▁전반	-10.0523
▁사건으로	-10.0525
▁묻	-10.0532
▁다우존스	-10.0532
▁달라이라마	-10.0532
▁에드워즈	-10.0532
▁설득	-10.0532
▁기존	-10.0534
▁성관계	-10.0535
▁실시되	-10.0536
▁걸릴	-10.0537
▁공중	-10.0539
ir	-10.0541
▁경보	-10.0542
▁폐기	-10.055
▁식	-10.0558
▁하게	-10.0561
▁입었	-10.0563
▁신호	-10.0567
▁수감자	-10.057
▁사인	-10.0572
▁부문	-10.0579
연합	-10.0581
▁외교적	-10.0584
▁된다고	-10.0588
▁인하	-10.0592
돌	-10.0592
▁조사에	-10.0603
불어	-10.0604
▁남아	-10.0605
성이	-10.0618
▁근거	-10.062
▁소환	-10.0632
있	-10.0633
▁환자들	-10.0634
il	-10.0635
▁시장에서	-10.0641
▁노력하고	-10.0641
슈	-10.0646
▁내용이	-10.0648
▁차전	-10.0648
죠	-10.0652
▁맞서	-10.0652
▁고등학교	-10.0653
▁복잡	-10.0653
▁마카오	-10.0653
▁칠레	-10.0653
▁일주일	-10.0654
▁폭동	-10.0654
▁티	-10.0655
▁소설	-10.0657
▁강조	-10.0658
▁신임	-10.0659
▁그와	-10.066
▁의식	-10.0662
▁어린이들	-10.0669
▁as	-10.0675
▁will	-10.0679
자로	-10.0687
ro	-10.0689
사를	-10.0693
▁전투기	-10.0696
▁있어서	-10.0699
시아	-10.07
▁대기	-10.0701
▁군인들	-10.0711
▁늘	-10.0712
▁책임자	-10.0739
▁상점	-10.0742
▁국제적	-10.0742
▁노출	-10.0756
▁학	-10.0758
▁시작한	-10.0758
어야	-10.0759
받	-10.0762
▁달라	-10.0762
후드	-10.0764
관계	-10.0767
▁당신이	-10.0769
▁president	-10.0775
▁방글라데시	-10.0775
▁스웨덴	-10.0775
▁누군가	-10.0775
▁농축	-10.0775
▁남아공	-10.0776
▁검거	-10.0776
▁커피	-10.0778
▁교환	-10.0778
빠진	-10.0779
▁발병	-10.0779
▁상처	-10.0779
▁따라서	-10.0786
▁보수	-10.0787
▁대상	-10.0804
▁주인공	-10.0806
칠	-10.0809
▁부근에서	-10.0823
▁부르	-10.0823
▁지진이	-10.0827
되면	-10.0831
▁청소년	-10.0832
▁승리했다	-10.0836
봉	-10.0836
▁마르	-10.0841
▁서울에서	-10.0857
▁벌였	-10.0857
▁그림	-10.0858
들도	-10.0858
▁장애	-10.0862
▁기반	-10.0863
▁깨	-10.0868
▁경기장	-10.0878
▁악화	-10.0886
셔	-10.0894
▁습격	-10.0898
▁카스트로	-10.0898
▁다니엘	-10.0898
▁단순	-10.0899
▁매각	-10.0901
▁삼성	-10.0906
▁이뤄지	-10.0911
▁행성	-10.0923
▁복용	-10.0926
지수	-10.0931
▁말합니다	-10.0933
▁내릴	-10.0935
▁많다	-10.0939
▁브	-10.0943
▁팬	-10.0943
▁합동	-10.0957
▁직	-10.096
취	-10.0966
이어	-10.0968
▁모인	-10.0981
▁세대	-10.0983
▁희생자들	-10.0993
▁운영하	-10.1003
▁주기	-10.1005
▁공항에서	-10.1006
듯	-10.1009
▁명단	-10.1014
▁그것이	-10.1018
▁지휘	-10.1019
▁왕세자	-10.1019
▁보관	-10.1019
▁챔피언스리그	-10.1023
▁겨울	-10.1024
▁새끼	-10.1024
▁탐사	-10.1025
▁최선	-10.1026
▁페루	-10.1027
▁손상	-10.1028
기관	-10.1029
▁공산당	-10.1032
▁파산	-10.1033
▁분명히	-10.1034
▁북측	-10.1034
▁즉각적	-10.1037
▁테러리스트	-10.1041
▁소수	-10.1042
▁추적	-10.1053
▁말하는	-10.1056
▁곳이	-10.1059
놓고	-10.1068
▁세우	-10.1069
렛	-10.1076
▁펜	-10.1083
▁대답	-10.1087
▁철도	-10.1088
▁사망했	-10.1091
▁전날	-10.1092
▁기다리고	-10.1092
애	-10.1093
계획	-10.1101
▁음반	-10.1103
▁목적으로	-10.1105
▁반군이	-10.1107
▁재무장관	-10.1109
▁그동안	-10.1121
장에서	-10.1123
영화	-10.1125
▁시위에	-10.1127
▁이중	-10.1137
▁자리에서	-10.1138
▁불안	-10.1145
▁권한	-10.1146
▁고대	-10.1148
▁파예드	-10.115
▁네트워크	-10.115
▁봄	-10.1151
▁복구	-10.1151
▁순방	-10.1151
▁그래서	-10.1154
▁도입	-10.1154
▁가옥	-10.1154
▁사담	-10.1154
▁저항	-10.1156
▁구입	-10.1162
스키	-10.1163
▁사살	-10.1166
문제	-10.1168
▁상승했다	-10.1171
▁올린	-10.1173
▁잇	-10.118
했음	-10.1192
▁이사	-10.1203
▁차관	-10.1205
자와	-10.1211
▁국회의원	-10.1213
▁기본	-10.1216
▁경매	-10.1229
▁나갈	-10.123
▁공원	-10.1231
▁못하는	-10.1243
▁유치	-10.1246
▁의사들	-10.1255
▁있다면	-10.1259
▁주지	-10.1259
▁계속되고	-10.1263
랄	-10.1271
▁붉은	-10.1277
▁블랙	-10.1277
▁ioc	-10.1278
▁활주로	-10.1278
▁숫자	-10.1278
▁넓	-10.1279
▁회원	-10.128
▁유감	-10.1283
▁거뒀다	-10.1286
▁열대	-10.1291
▁점차	-10.1291
▁제공하는	-10.1303
▁유전자	-10.1307
장이	-10.1309
▁조성	-10.1316
▁오브	-10.1322
▁낸	-10.1323
▁조원	-10.1324
▁체계	-10.1327
▁무대	-10.1333
▁모여	-10.1334
la	-10.1338
순	-10.1342
▁바이	-10.1347
▁기독교	-10.1347
▁수영	-10.1351
▁베이징에서	-10.1355
▁허락	-10.1357
▁수용소	-10.1362
▁수상자	-10.137
▁달성	-10.1378
▁계속되	-10.1381
▁잔	-10.1381
▁주석	-10.1382
▁의회에서	-10.1384
왔	-10.1389
▁둘러	-10.1391
▁공격에	-10.1392
▁색	-10.14
▁카드	-10.1405
▁nato	-10.1408
▁uefa	-10.1408
▁북동부	-10.1408
▁정확히	-10.1408
▁레알	-10.1409
▁커플	-10.1409
▁알래스카	-10.1409
▁노예	-10.1411
▁부담	-10.1411
▁해병대	-10.1412
▁항소	-10.1413
▁초점	-10.1421
▁찬	-10.1424
▁수감자들	-10.1425
선수	-10.1439
▁시내	-10.1439
했기	-10.144
▁공화국	-10.1441
▁형태	-10.1442
▁의회에	-10.1442
드시	-10.1451
▁실종	-10.1452
▁빙하	-10.1454
▁샌프란시스코	-10.146
▁소식이	-10.1468
▁pc	-10.1473
▁곡	-10.1493
▁내놓	-10.1506
▁표시	-10.1506
▁건의	-10.1522
▁스리랑카	-10.1532
▁말까지	-10.1533
▁의지	-10.1536
▁중독	-10.1538
▁사우디아라비아	-10.1539
▁혜택	-10.1539
▁심지어	-10.1539
▁완벽	-10.1539
▁폴란드	-10.1539
▁출석	-10.154
▁철저	-10.154
▁크루즈	-10.154
▁민감	-10.1541
▁입증	-10.1542
▁분열	-10.1545
▁서신	-10.1546
▁무력	-10.1548
▁불러	-10.1548
▁예비	-10.1551
▁폭탄이	-10.1551
▁지시	-10.1552
▁증가하고	-10.1556
▁이주	-10.1556
▁싸움	-10.1566
▁줄어들	-10.157
▁식품	-10.1572
▁현상	-10.1573
행위	-10.1576
▁얻기	-10.1595
▁린	-10.1596
▁타이	-10.1602
▁탈출	-10.1609
▁절	-10.1613
▁분명	-10.1622
▁선언했다	-10.1625
▁연구원	-10.1631
▁유나이티드	-10.1633
▁가졌	-10.1634
들로	-10.164
항공	-10.1652
▁만일	-10.1658
▁거부했다	-10.1667
▁노벨	-10.1669
▁전개	-10.167
▁태양	-10.1672
▁주한미군	-10.1673
▁실패했다	-10.1674
▁자극	-10.1676
▁무료	-10.1677
▁호세	-10.1684
▁페이지	-10.1684
웠다	-10.1689
▁베이	-10.1695
▁대선에서	-10.1709
▁운항	-10.1721
▁절대	-10.1722
▁혁명	-10.1724
▁대회에서	-10.173
▁기대하고	-10.1735
▁신체	-10.1738
▁납치된	-10.1738
▁지켜	-10.1738
▁년이	-10.1754
▁체제	-10.1757
시켰	-10.1758
▁여자친구	-10.1768
딘	-10.1769
▁법정	-10.177
▁외교관	-10.178
▁하면	-10.1783
▁피해가	-10.1791
▁챔피언	-10.1795
▁독	-10.1798
▁중부	-10.18
▁de	-10.1804
▁동티모르	-10.1808
▁마찬가지	-10.1808
▁frb	-10.1808
▁아이디어	-10.1809
▁보고서에서	-10.1809
▁인생	-10.1813
▁신발	-10.1815
▁발생하지	-10.1816
▁웃	-10.1824
▁발간	-10.1827
독	-10.1828
▁살아	-10.1833
▁고향	-10.184
▁콩고	-10.1844
▁달간	-10.1846
▁벤	-10.1846
▁공유	-10.1848
▁부정적	-10.185
▁it	-10.1852
▁분간	-10.1858
▁보인다고	-10.186
도시	-10.1864
▁광	-10.1864
▁시장에	-10.1864
해줄	-10.1867
▁수상했다	-10.1869
▁이곳에	-10.1877
▁수업	-10.1883
▁가는	-10.1885
례	-10.1891
뿐	-10.1897
젠	-10.1904
▁하던	-10.1906
▁합	-10.1917
▁이양	-10.1919
로운	-10.192
▁폭격	-10.1926
▁방향	-10.193
▁성화봉송	-10.1934
▁상징	-10.1941
▁라스베이거스	-10.1945
▁외교통상부	-10.1945
▁잃은	-10.1945
▁크라이슬러	-10.1945
▁토마스	-10.1945
▁하원의원	-10.1947
▁생긴	-10.1947
▁철군	-10.1948
▁보여줬다	-10.1949
▁모기지	-10.1951
▁바르셀로나	-10.1951
▁소요	-10.1952
▁공포	-10.1952
▁견해	-10.1955
▁높아지	-10.1956
▁기계	-10.1956
▁실종된	-10.1959
▁뼈	-10.1961
리는	-10.1961
▁무선	-10.1965
▁캘리포니아주	-10.1966
▁난사	-10.1966
▁갖게	-10.1966
▁순	-10.1968
▁클린턴이	-10.1968
▁의회의	-10.1969
▁고발	-10.197
▁증명	-10.197
▁개방	-10.1971
킨	-10.1978
▁답	-10.1985
▁만난	-10.199
▁고립	-10.1995
▁보안군	-10.1997
▁증권	-10.1998
▁뉴욕에서	-10.2
▁가했다	-10.2002
▁승리한	-10.2016
▁생각하는	-10.2026
▁경영	-10.2027
▁사회적	-10.2028
▁오염	-10.2037
▁중지	-10.2042
올	-10.2043
벌	-10.2044
컵	-10.2047
▁해변	-10.2047
▁안에서	-10.2051
▁감독이	-10.2057
▁야기	-10.2074
▁경제에	-10.208
▁운송	-10.2082
▁japan	-10.2084
▁태어난	-10.2084
▁논평	-10.2084
▁타이틀	-10.2084
▁두바이	-10.2084
▁디자인	-10.2086
▁헨리	-10.2086
▁본선	-10.2089
▁현금	-10.2092
▁예전	-10.2093
▁중순	-10.2099
▁대량	-10.2101
▁나누	-10.2107
▁늘어	-10.2111
우스	-10.2125
▁이사회	-10.2127
▁군정	-10.2128
▁성공적	-10.213
▁선거에	-10.2131
▁바라	-10.2144
▁이라크와	-10.2144
▁니콜	-10.2145
▁라이트	-10.2148
▁세상	-10.215
낸	-10.2151
▁사라	-10.2165
▁봤다	-10.2166
▁의미한다	-10.2168
까	-10.2174
is	-10.2186
ers	-10.2186
▁과학자	-10.2188
▁끌어	-10.219
▁데이	-10.2197
▁거두	-10.2215
▁결정에	-10.2217
▁중국에	-10.2223
▁요르단	-10.2223
▁덮	-10.2224
▁맞춰	-10.2224
▁리조트	-10.2224
▁휴대전화	-10.2224
▁엄격	-10.2225
▁사용한	-10.2225
▁첫번째	-10.2225
운동	-10.2227
▁구금	-10.2231
드라	-10.2233
▁쓰나미	-10.2233
▁오늘날	-10.2234
▁세계은행	-10.2236
▁케이블	-10.2236
▁마쳤다	-10.2236
▁여권	-10.2237
개발	-10.2239
▁총격전	-10.2239
▁회의에서	-10.2241
▁안전한	-10.2243
▁지시했다	-10.2251
▁누리	-10.2252
▁보낼	-10.2254
▁앞에	-10.2254
▁예수	-10.2255
▁표했다	-10.2256
▁받아야	-10.2257
▁교사	-10.2258
틀	-10.2259
▁하와이	-10.2261
▁채택	-10.2261
사가	-10.2277
▁gm	-10.228
▁근처	-10.2283
▁공간	-10.2287
▁한국에서	-10.2295
▁재단	-10.2295
▁mo	-10.2302
▁이스라엘이	-10.2303
▁도시에서	-10.2304
인들이	-10.231
해주	-10.2314
▁측근	-10.2315
▁인류	-10.2317
▁죽은	-10.2318
▁발생하는	-10.2321
▁주제	-10.2324
▁값	-10.2324
▁부여	-10.2325
수록	-10.2326
▁리그	-10.2333
산업	-10.2338
▁중요	-10.2345
더라	-10.2347
▁이끌어	-10.2348
▁이송	-10.235
▁플레이	-10.2358
▁에도	-10.2359
▁찾을	-10.2367
▁청문회	-10.2367
트리	-10.2368
▁abc	-10.2369
▁데이터	-10.2369
▁해결책	-10.237
▁몰	-10.237
▁단속	-10.2371
▁종류	-10.2371
▁돌아오	-10.2372
▁신중	-10.2375
▁개표	-10.2378
상태	-10.2381
▁전역	-10.2384
으	-10.2386
▁추정된다	-10.2389
▁만들어진	-10.2389
▁보유하고	-10.2391
▁한때	-10.2392
▁plan	-10.2397
▁런던에서	-10.24
▁대학교	-10.2405
▁뿐만	-10.2413
▁못한다	-10.2416
드는	-10.2419
▁시에	-10.2422
ol	-10.2424
▁아동	-10.2432
▁고어	-10.2441
▁발생했	-10.2445
▁프로그램에	-10.2457
▁호텔에서	-10.2459
▁물건	-10.2462
폭	-10.247
▁확실	-10.247
▁상태에	-10.2471
▁됩니다	-10.2471
▁방송국	-10.2473
▁비교	-10.2478
▁훼손	-10.248
▁빛	-10.2482
숙	-10.2483
▁책임이	-10.2493
▁얻어	-10.2494
▁참석했다	-10.2499
▁붙	-10.2501
▁지속적	-10.2502
▁지역으로	-10.2503
▁일리노이	-10.2504
▁아이오와	-10.2504
▁따르	-10.2508
▁거쳐	-10.251
▁앓고	-10.2512
▁와인하우스	-10.2512
▁섹스	-10.2512
▁격렬	-10.2512
▁외환은행	-10.2513
▁면담	-10.2513
▁무죄	-10.2516
▁중재	-10.2518
안에	-10.2518
um	-10.2521
▁방화	-10.2523
▁전쟁에	-10.2523
ate	-10.2523
▁강타	-10.2524
▁o	-10.2525
▁진화	-10.2525
▁펼쳤다	-10.2525
▁간단	-10.2526
▁아메리칸	-10.2526
▁크리스티	-10.253
▁추방	-10.2532
▁기상	-10.2542
▁신부	-10.2551
▁보트	-10.2551
▁백인	-10.2553
▁것이었다	-10.2557
▁당수	-10.2563
조차	-10.2563
▁주인	-10.2568
극	-10.2569
▁보유	-10.2572
▁시청	-10.2589
주의자	-10.2595
▁구출	-10.2598
총	-10.2603
▁분리	-10.2612
▁동성애자	-10.2617
▁방법이	-10.2622
▁제기했다	-10.2626
▁법원에	-10.2641
▁주목	-10.2641
▁못해	-10.2645
▁벗어나	-10.2649
닝	-10.2655
릭	-10.2658
▁홀	-10.2658
▁가슴	-10.2659
▁곤잘레스	-10.2659
▁블라디미	-10.2659
▁오사마빈라덴	-10.2659
▁불능화	-10.266
틴	-10.266
▁급등	-10.2661
▁은퇴	-10.2661
▁불편	-10.2662
▁우리나라	-10.2663
글	-10.2669
▁요소	-10.267
▁발전소	-10.2674
▁델	-10.2679
▁금요일	-10.2682
▁위조	-10.2682
세력	-10.2684
▁의석	-10.2685
전에	-10.2688
시키려	-10.269
▁업무	-10.2693
▁획득	-10.2695
▁천만	-10.2697
▁빚	-10.2698
▁상어	-10.2705
▁부과	-10.2707
▁악	-10.2715
▁의문	-10.2719
▁마감했다	-10.2728
스톤	-10.2729
▁경쟁자	-10.2741
슬	-10.2744
▁명예	-10.2745
▁폭발물	-10.275
▁이후로	-10.2756
▁초대	-10.2757
▁여성의	-10.2758
랜	-10.2759
쳤	-10.2762
▁만개	-10.2766
▁전원	-10.277
▁사망자수	-10.277
▁끼	-10.2771
하고자	-10.2772
▁나타내	-10.2772
악	-10.2773
▁지목	-10.2778
완	-10.2778
▁에어버스	-10.2785
뿐만	-10.2796
▁계	-10.2796
짝	-10.2808
▁선거캠프	-10.2809
▁스코틀랜드	-10.2809
▁일으킨	-10.2809
▁합병	-10.2809
▁송환	-10.2809
▁화장실	-10.2809
▁작	-10.281
▁고위관리	-10.2811
▁테스트	-10.2811
▁다수	-10.2813
▁나올	-10.2813
▁회동	-10.2813
▁진전	-10.2816
▁해양	-10.2818
▁적극적	-10.2825
션	-10.2826
▁케리	-10.2829
이기	-10.2834
▁불길	-10.2836
▁파악	-10.2843
▁만났다	-10.2843
▁민주	-10.2846
se	-10.2847
▁코트	-10.2851
기가	-10.2855
▁보지	-10.2861
▁죄	-10.2862
북	-10.2866
▁순찰	-10.2866
▁봉쇄	-10.2878
▁이행	-10.2879
▁자원	-10.2882
▁수퍼	-10.2884
▁비용이	-10.2885
▁명에게	-10.2892
▁윌	-10.2893
▁식당	-10.2901
▁이라크군	-10.2904
▁돌아	-10.2907
▁짓	-10.2914
ne	-10.2922
람	-10.2923
▁지속	-10.2929
▁주한	-10.293
▁그리	-10.2931
▁달러로	-10.2934
덴	-10.2934
▁분석가	-10.2934
▁미국측	-10.2935
▁엄청	-10.2946
▁우주비행사	-10.295
▁압둘	-10.295
닥	-10.2953
▁떠	-10.2956
▁샤라포바	-10.296
▁협박	-10.296
▁리차드	-10.296
▁북서부	-10.2961
▁핵프로그램	-10.2961
▁숀	-10.2962
▁다윈	-10.2962
▁임금	-10.2962
▁왕실	-10.2963
▁유력	-10.2968
▁쓴	-10.2972
▁스타일	-10.2976
▁폭스	-10.2978
▁화해	-10.2981
▁순위	-10.2982
▁차단	-10.2983
▁후보들	-10.2985
대학	-10.2986
▁답했다	-10.299
자는	-10.2993
밀	-10.2996
백	-10.2996
▁작동	-10.3015
▁블	-10.3017
▁방영	-10.3025
히려	-10.3033
▁얼음	-10.3039
▁하늘	-10.3043
▁주문	-10.3045
▁생각했다	-10.305
▁리드	-10.3052
▁기금	-10.3056
▁중대	-10.3061
▁행복	-10.3074
막	-10.308
▁자사	-10.3081
▁불가능	-10.3082
▁맡은	-10.3085
lo	-10.3097
▁록	-10.3107
당한	-10.3108
▁리처드	-10.3109
▁건축	-10.3111
▁코미디	-10.3113
▁디즈니	-10.3113
▁나스닥	-10.3114
▁캄보디아	-10.3114
▁남서부	-10.3114
▁리히터	-10.3114
▁복무	-10.3114
▁병사들	-10.3114
▁케빈	-10.3115
▁직업	-10.3115
▁저지른	-10.3115
▁물가	-10.3115
▁단체들	-10.3117
▁봉사	-10.3118
▁수십명	-10.3118
▁시점	-10.3119
▁노동당	-10.312
▁보복	-10.3121
▁언어	-10.3121
▁배경	-10.3121
▁공모	-10.3123
▁청	-10.3126
j	-10.3126
▁아니었다	-10.3127
▁뒤에	-10.3129
▁완전한	-10.313
▁이내	-10.3149
et	-10.315
▁가능하다	-10.3156
▁응답자	-10.3158
움	-10.3168
▁논란이	-10.3169
▁중간	-10.3173
▁폭락	-10.3189
▁거리에	-10.3189
▁자신에게	-10.319
▁대치	-10.3191
▁비판했다	-10.3192
▁환	-10.32
▁합류	-10.3202
환	-10.3212
▁공개된	-10.3217
ial	-10.3217
▁오바마와	-10.3221
▁국방	-10.3228
▁형제	-10.3235
적이	-10.3236
▁표명	-10.3238
드리	-10.3238
▁제대	-10.3246
희	-10.3249
▁개장	-10.325
▁골프	-10.3255
▁대상이	-10.3256
▁시티	-10.3257
대에	-10.3259
펠	-10.3261
om	-10.3262
▁그렇지	-10.3262
자금	-10.3263
▁시기에	-10.3267
▁사용자	-10.3268
▁블라고예비치	-10.327
▁비타민	-10.327
▁알코올	-10.327
▁디지털	-10.327
▁가택연금	-10.327
▁호랑이	-10.327
▁영웅	-10.327
▁자치정부	-10.327
▁패트릭	-10.327
▁산사태	-10.3272
▁새벽	-10.3272
▁들여	-10.3276
▁취임식	-10.3276
▁공개적으로	-10.3283
▁맥주	-10.3286
▁유럽의	-10.3286
▁들어갔다	-10.3288
▁했었다	-10.329
▁잡고	-10.3291
▁해임	-10.3293
▁정신적	-10.3296
자들에게	-10.3304
▁소문	-10.3306
▁유대인	-10.3306
▁혐의에	-10.3318
▁세포	-10.3325
▁국민들에게	-10.3327
▁스키	-10.3327
▁자제	-10.333
▁전해	-10.3331
스와	-10.3337
견	-10.334
▁세인	-10.3347
▁진술했다	-10.3347
▁공항에	-10.3357
▁아프가니스탄에서	-10.3359
제를	-10.3367
▁숨졌	-10.3377
▁한국인들	-10.3382
▁주장에	-10.3389
▁nu	-10.3406
학자	-10.3415
▁불과	-10.3415
▁회사가	-10.3419
▁열어	-10.342
▁발굴	-10.3424
▁취재	-10.3426
▁처	-10.3426
▁자유롭	-10.3426
▁보는	-10.3428
▁해적	-10.3428
▁김대중	-10.3429
▁마이애미	-10.3429
▁받아들일	-10.3429
▁쌍둥이	-10.3429
▁천연가스	-10.3429
▁둘러싸	-10.3429
▁활약	-10.3429
▁수석대표	-10.3429
▁마무	-10.3431
▁진영	-10.3431
▁강풍	-10.3431
▁벨기에	-10.3433
▁무엇보다	-10.3433
▁낸시	-10.3437
▁이루어졌다	-10.3438
▁선발	-10.3439
▁초반	-10.3441
▁전세계적으로	-10.3442
▁극복	-10.3447
▁떠났다	-10.3447
▁해산	-10.3448
송	-10.3448
▁채널	-10.3449
▁세계적	-10.3457
▁조합	-10.3464
▁보호하기	-10.3464
▁우리에게	-10.3469
짜리	-10.3469
▁시민들이	-10.3469
▁재건	-10.3478
▁전부터	-10.3479
▁호수	-10.3481
▁키스	-10.3483
ta	-10.3483
▁걸린	-10.3486
▁발언에	-10.3489
▁측정	-10.3493
▁노인	-10.3495
차기	-10.3502
▁평가했다	-10.3503
▁로비	-10.3503
▁한국에	-10.3512
젤	-10.3515
염	-10.3515
▁예루살렘	-10.3519
▁모스크바	-10.3525
▁인근에	-10.3526
녀	-10.3531
▁분석가들	-10.3531
▁무엇	-10.3532
▁추산	-10.3542
▁시장이	-10.3544
률	-10.3556
▁인종	-10.3564
ti	-10.3564
텔	-10.3567
다시	-10.3568
▁부근	-10.3572
▁즉각	-10.3575
켓	-10.3578
암	-10.3579
카운티	-10.3579
▁증가한	-10.3584
조직	-10.3588
▁패션	-10.3589
▁뿌리	-10.359
▁쓰촨성	-10.359
▁아메리카	-10.359
▁토네이도	-10.359
▁겨냥	-10.359
▁파트너	-10.359
▁거듭	-10.359
▁은신처	-10.359
▁라이벌	-10.3591
▁사생활	-10.3592
▁위안부	-10.3593
▁축소	-10.3593
▁폭파	-10.3594
▁악어	-10.3598
▁주었다	-10.3599
▁아프간에서	-10.36
▁상공	-10.36
▁직전	-10.3602
▁선전	-10.3612
▁탈	-10.3616
▁조명	-10.3617
▁나에게	-10.3619
▁출동	-10.362
▁계획은	-10.3632
익	-10.364
▁알카에다와	-10.3641
▁투표에서	-10.3643
▁관찰	-10.3645
▁영국인	-10.3645
▁전환	-10.3654
▁이른	-10.3658
▁노동자들	-10.3666
▁가족과	-10.3668
▁감행	-10.367
▁우리당	-10.3672
▁국민들이	-10.3673
겨	-10.3674
웨이	-10.368
▁얻을	-10.3685
▁취	-10.3687
▁불구	-10.3714
▁지점	-10.3715
▁이루	-10.3722
▁연주	-10.3728
▁전역에	-10.373
▁참여한	-10.3731
풍	-10.3737
▁조기	-10.3737
▁쇼핑	-10.375
경찰	-10.3752
▁근로자	-10.3753
됨	-10.3754
▁pkk	-10.3754
▁마이크로소프트	-10.3754
▁왼쪽	-10.3754
▁좋다	-10.3754
▁키바키	-10.3754
▁오딩가	-10.3754
▁침몰	-10.3754
▁법무장관	-10.3754
▁거짓말	-10.3754
▁다우지수	-10.3755
▁황금	-10.3755
▁포경	-10.3756
▁눈에	-10.3757
▁체코	-10.3759
▁엔진	-10.3761
▁피해자들	-10.3763
▁킬로미터	-10.3764
▁생일	-10.3764
▁만들고	-10.3765
▁재난	-10.3765
▁천명	-10.3767
▁카터	-10.3767
▁에드	-10.3769
▁보내는	-10.3769
▁경력	-10.377
▁상승세	-10.377
▁쌀	-10.377
▁차량에	-10.377
▁치열한	-10.3773
▁미칠	-10.3774
▁달려	-10.3781
▁상태로	-10.3781
▁이론	-10.3782
▁논의하기	-10.3783
▁북쪽	-10.3785
▁연구팀	-10.3786
▁구조대	-10.3789
▁장면이	-10.3795
▁부서	-10.3805
▁인사들	-10.3806
▁정지	-10.3806
▁지내	-10.3809
na	-10.3811
▁제조업체	-10.3815
▁법안이	-10.3817
▁동쪽	-10.3829
▁음	-10.3831
▁예상되	-10.3831
▁이란과	-10.3834
▁철	-10.3838
▁움직이	-10.3842
▁사람에게	-10.3844
▁라이	-10.3854
▁경험이	-10.3857
▁파티	-10.3864
육	-10.3867
▁내리	-10.3869
▁든	-10.3875
잔	-10.3879
▁이재민	-10.388
에만	-10.3883
같은	-10.3883
▁모색	-10.3884
▁나왔	-10.3885
▁흔들	-10.3887
▁물이	-10.3891
월	-10.3893
▁인디애나	-10.3899
향	-10.39
왕	-10.3908
▁의학	-10.3909
조사	-10.3911
공격	-10.3911
▁문제들	-10.3914
걸	-10.3917
▁감염된	-10.3919
▁천주교	-10.3919
▁늦게	-10.3921
▁비핵화	-10.3921
▁알렉산더	-10.3921
▁결선투표	-10.3921
▁택시	-10.3921
닷컴	-10.3921
▁슈퍼	-10.3922
▁로이터	-10.3922
▁근로자들	-10.3922
▁사찰단	-10.3923
▁부총리	-10.3923
▁사냥	-10.3923
▁싶어	-10.3923
▁체중	-10.3924
됐었다	-10.3929
▁분류	-10.3935
▁트리	-10.3937
▁날짜	-10.394
▁침입	-10.3941
▁구조대원들	-10.3948
▁것인가	-10.395
▁재무부	-10.3953
▁수위	-10.3957
▁현실	-10.3958
▁리치	-10.3962
▁차량이	-10.3963
주는	-10.3965
▁가동	-10.3965
돼야	-10.3972
했으	-10.3972
▁로한	-10.3975
▁총상	-10.3977
▁딕	-10.3982
▁만들기	-10.3984
▁기다리	-10.3997
▁프레스	-10.4004
▁올리	-10.4009
▁월드	-10.4017
▁푸	-10.402
▁극장	-10.4021
▁백악관에서	-10.4022
▁치러	-10.4027
▁정의	-10.4032
▁조약	-10.4042
ss	-10.4047
▁농	-10.405
▁그대로	-10.4055
▁형사	-10.4056
베이	-10.4059
아야	-10.406
▁출판	-10.4061
▁한국이	-10.4063
▁홍수로	-10.4068
압	-10.4069
▁진행자	-10.4069
▁북미	-10.4074
▁연구에	-10.4074
▁일간지	-10.4084
딩	-10.4088
▁산림	-10.4089
상황	-10.4089
▁골키퍼	-10.409
▁남자친구	-10.409
▁인플레이션	-10.409
▁득점	-10.409
▁구멍	-10.409
▁from	-10.409
▁다섯	-10.409
▁원칙	-10.4091
▁영업	-10.4092
▁폭설	-10.4092
▁삭제	-10.4092
▁아이폰	-10.4092
▁할머니	-10.4093
▁기밀	-10.4093
▁소집	-10.4094
▁성격	-10.4094
▁법무부	-10.4101
▁들어오	-10.4107
베나	-10.4108
경제	-10.4109
작전	-10.4109
▁이뤄졌다	-10.4109
▁world	-10.411
▁만남	-10.4111
▁미군과	-10.4112
▁공대	-10.4112
▁화재로	-10.4113
▁최	-10.4114
▁밥	-10.4116
▁양국간	-10.4119
pa	-10.4119
달라고	-10.412
▁구간	-10.4125
▁사람들과	-10.4128
▁가상	-10.413
된다고	-10.4135
▁독도	-10.4136
▁표명했다	-10.4139
▁기록한	-10.414
▁강요	-10.4147
▁좋아	-10.4154
▁여론조사에서	-10.4156
▁언론에	-10.4163
▁노스캐롤라이나	-10.4164
▁방식으로	-10.4164
▁수리	-10.4168
▁일제	-10.4175
해질	-10.418
▁급속	-10.4181
▁기소됐다	-10.4187
▁미국인들이	-10.4188
▁시드니	-10.4192
▁입수	-10.4192
누	-10.4196
되어야	-10.4201
▁수상한	-10.4202
▁테러와	-10.4205
▁분만	-10.4207
▁제작한	-10.4216
▁토지	-10.4217
▁가족들이	-10.4217
▁연관	-10.4221
▁이식	-10.4223
▁보석	-10.4225
놓	-10.4227
▁만화	-10.4231
기에	-10.4231
델	-10.4237
▁제공할	-10.4243
몬	-10.4244
▁말해	-10.4249
패	-10.4249
좌	-10.4259
▁대륙	-10.4259
▁사우스캐롤라이나	-10.4263
▁이산화탄소	-10.4263
▁중앙일보	-10.4263
▁코끼리	-10.4263
▁필라델피아	-10.4263
clear	-10.4263
▁급격	-10.4264
▁감금	-10.4265
▁징역형	-10.4265
▁주최측	-10.4266
▁브랜드	-10.4266
▁당국자	-10.4267
▁라덴	-10.4267
▁호소	-10.4268
▁날개	-10.4269
▁소위	-10.4271
▁확인됐다	-10.4271
▁다음날	-10.4271
▁숙	-10.4273
▁갔다	-10.4273
▁조류	-10.4274
▁보험	-10.4275
▁초청	-10.4275
▁친구들	-10.428
▁마리아	-10.4294
▁공기	-10.4294
▁고객들	-10.4295
▁노선	-10.4296
▁연금	-10.4304
da	-10.4305
▁예를들	-10.4309
▁예술	-10.4309
▁앨	-10.4314
▁이란에	-10.4315
ca	-10.432
▁돼지	-10.432
▁군사적	-10.4323
▁장례식	-10.4323
▁여행객	-10.4327
▁out	-10.4327
▁나오지	-10.4329
▁주장한	-10.4339
받았다	-10.4352
▁실망	-10.4356
▁마비	-10.4358
▁낼	-10.4358
▁바꾸	-10.4359
▁먼	-10.4368
▁떨어지	-10.4373
▁남동부	-10.4379
▁받는다	-10.438
▁마시	-10.4383
▁모르	-10.4384
▁카페	-10.4392
el	-10.4392
▁미스	-10.4392
철	-10.4398
▁부상으로	-10.4404
▁시각	-10.441
찰	-10.4411
▁기대한다	-10.4415
탕	-10.4426
갑	-10.4428
▁최저	-10.4428
▁옮겨	-10.4436
얼	-10.4437
▁화학	-10.4438
▁minister	-10.4438
▁선관위	-10.4438
▁테일러	-10.4438
▁후진타오	-10.4438
▁hiv	-10.4438
▁보스턴	-10.4438
▁계좌	-10.4438
▁남극	-10.444
싱	-10.444
▁줄리아니	-10.4441
▁실적	-10.4442
▁스턴	-10.4442
▁진단	-10.4443
▁음주	-10.4444
▁여학생	-10.4446
▁대립	-10.4447
▁군은	-10.4448
거래	-10.4449
▁하락세	-10.4451
니아	-10.4453
니스	-10.4455
▁홈	-10.4456
▁용기	-10.4457
▁비교적	-10.4458
▁성장률	-10.4459
▁보여준다	-10.4461
▁특수	-10.4465
▁스톤	-10.4465
▁영장	-10.4468
▁정전	-10.4469
▁수사관들	-10.4469
력이	-10.4472
ity	-10.4476
한번	-10.4482
▁황	-10.4482
▁통일부	-10.4487
▁이에따라	-10.4497
▁투쟁	-10.4502
▁밴드	-10.4506
부대	-10.4517
▁다이	-10.4522
▁하나로	-10.4525
버그	-10.4526
▁관계에	-10.4535
▁사용했다	-10.4536
▁정치인	-10.4536
▁조각	-10.4537
▁물에	-10.4543
▁올려	-10.4546
▁데에	-10.4547
▁쓰	-10.4554
▁not	-10.456
▁올라가	-10.4568
▁끝나	-10.4569
▁치르	-10.458
▁중이었다	-10.458
▁보고서에	-10.4593
▁희생	-10.4594
▁가게	-10.4596
▁보잉	-10.4596
▁존중	-10.4605
▁벽	-10.4607
▁결과에	-10.4612
▁에콰도르	-10.4617
▁쿠웨이트	-10.4617
▁돌고래	-10.4617
▁스트레스	-10.4617
연맹	-10.4617
▁균형	-10.4617
▁show	-10.4618
▁소규모	-10.4618
▁동생	-10.462
▁government	-10.4622
장치	-10.4622
▁관계당국	-10.4623
▁세워	-10.4623
▁배후	-10.4625
▁화상	-10.4627
사항	-10.463
사태	-10.463
▁발생하고	-10.4634
▁정식	-10.4635
▁타임스	-10.4637
▁사태에	-10.4642
▁일으켰다	-10.4643
▁st	-10.4646
▁출연한	-10.4649
th	-10.4649
치를	-10.465
▁피부	-10.465
지역에서	-10.4658
▁서장	-10.4661
▁회견	-10.4662
▁북쪽으로	-10.4664
▁위협이	-10.4664
▁파도	-10.4669
▁일어났다	-10.4669
▁월요일에	-10.4672
▁자본	-10.4672
▁수립	-10.4674
▁세력이	-10.4678
▁자신과	-10.4678
▁사법	-10.4684
▁일환	-10.4697
▁무게	-10.4698
▁대피했다	-10.4699
▁생기	-10.4699
경기	-10.47
▁참석할	-10.4701
▁동기	-10.4704
▁초안	-10.4706
▁것임	-10.4706
▁이용하는	-10.4717
▁전통적	-10.4724
▁분에	-10.473
▁폭발이	-10.4731
▁콘	-10.4733
▁세계적으로	-10.474
▁자택	-10.4742
▁다가	-10.4745
▁같	-10.4746
▁남부에서	-10.4752
▁내렸	-10.476
그룹	-10.476
▁정상들	-10.4773
슨은	-10.4782
▁북극	-10.4785
▁품	-10.4787
▁부모들	-10.4789
▁지상	-10.4793
▁입을	-10.4793
멸	-10.4796
켈	-10.4798
▁dvd	-10.4798
▁과반수	-10.4798
▁냈다	-10.4798
▁다큐멘터리	-10.4798
▁식료품	-10.4798
▁탱크	-10.4798
▁마라톤	-10.4798
▁전당대회	-10.4799
▁예멘	-10.4799
▁교통사고	-10.4799
▁china	-10.4799
▁탄압	-10.4799
▁소련	-10.4799
▁포럼	-10.4799
▁구축	-10.48
▁보존	-10.48
▁레이건	-10.4801
▁케이트	-10.4802
▁화려	-10.4803
▁판정	-10.4803
▁기쁘다	-10.4805
알	-10.4805
▁감바리	-10.4805
▁제목	-10.4806
▁미디어	-10.4806
▁숲	-10.4807
▁일본과	-10.4809
▁거주	-10.4815
▁손에	-10.4817
▁늘어나	-10.4817
▁over	-10.4819
▁과도	-10.4827
▁공사	-10.4827
▁시체	-10.4832
사인	-10.4837
ma	-10.4839
▁차지하고	-10.4842
▁국적	-10.4845
▁요리	-10.4857
▁파손	-10.4869
▁진행되는	-10.487
▁시한	-10.4874
비치	-10.4875
들로부터	-10.4878
▁고소	-10.4879
▁연구원들	-10.4881
▁근거로	-10.4884
▁정책에	-10.4888
▁x	-10.4892
▁쓰고	-10.4894
업자	-10.4896
국인	-10.4901
▁헌	-10.4903
벨	-10.4903
해야만	-10.4903
▁위인	-10.4905
▁시작했	-10.4907
▁사막	-10.492
▁론	-10.4923
▁al	-10.4924
▁적절	-10.493
▁워	-10.4935
sa	-10.4936
▁개시	-10.4938
적이고	-10.4941
▁유럽에서	-10.4942
▁공약	-10.4945
▁그래	-10.495
▁방송사	-10.4951
▁선포했다	-10.4952
▁애도	-10.4953
학교	-10.4958
▁보일	-10.496
▁회원국들	-10.497
기술	-10.4971
▁토론회	-10.498
▁이루어지	-10.498
▁근육	-10.4982
▁탄핵	-10.4982
▁샌디에이고	-10.4984
▁횡령	-10.4984
▁롬니	-10.4984
▁메르켈	-10.4984
▁지하철	-10.4984
▁일어날	-10.4984
▁봉송	-10.4984
▁지붕	-10.4985
▁충돌이	-10.4985
▁nba	-10.4985
▁특징	-10.4985
▁관영	-10.4985
▁생물	-10.4985
▁영화배우	-10.4986
▁개정안	-10.4992
▁항구	-10.4993
▁경찰서	-10.4994
햄	-10.4996
연구소	-10.5
▁여성들이	-10.5002
▁기차	-10.5002
▁성직자	-10.5003
▁아난	-10.5005
▁치명적인	-10.5007
▁재판관	-10.5008
▁오하이오주	-10.5009
▁배출	-10.5009
▁묘사	-10.5011
▁조용	-10.5018
▁생산량	-10.5019
▁운영하고	-10.5027
▁보여주고	-10.5032
▁time	-10.5032
▁이름이	-10.5038
▁요금	-10.5051
▁인원	-10.5053
▁필요성	-10.5054
▁문제의	-10.5055
▁투르	-10.5055
허	-10.5057
▁발견한	-10.5058
▁도착한	-10.5058
▁검은	-10.5058
▁지정	-10.5058
▁맡고	-10.506
▁의존	-10.506
▁지점에서	-10.506
co	-10.5061
▁선원	-10.5062
▁브리	-10.5062
▁신사	-10.5065
▁사용하지	-10.5066
▁근처에서	-10.5067
▁수배	-10.5071
▁팀이	-10.5074
▁국가에서	-10.5075
▁일치	-10.508
▁영화에	-10.5088
▁확신한다	-10.5095
▁와인	-10.5098
▁레스토랑	-10.5099
스가	-10.5104
트라	-10.5114
▁최근에	-10.512
▁미치는	-10.5128
▁처해	-10.513
▁주전	-10.5133
▁사용해	-10.5134
▁md	-10.5134
삼	-10.5135
▁비난하는	-10.5144
▁예정인	-10.5145
▁일본에	-10.5148
▁얼	-10.5155
▁중단했다	-10.5156
▁맞는	-10.5157
▁데일리	-10.5163
▁대로	-10.5168
넬	-10.5169
▁fa	-10.5169
얀	-10.517
ts	-10.517
▁미시시피	-10.5171
침	-10.5172
릿	-10.5172
▁먹이	-10.5172
▁돕기	-10.5172
▁마흐디	-10.5172
▁매니저	-10.5172
▁재검토	-10.5172
▁캐릭터	-10.5172
▁협약	-10.5172
▁항공우주국	-10.5172
▁난민촌	-10.5173
▁가벼	-10.5173
▁앤드류	-10.5173
▁목격	-10.5173
립니다	-10.5173
▁빌딩	-10.5174
▁운명	-10.5174
▁당초	-10.5176
▁수사관	-10.5177
▁뇌물	-10.518
▁범행	-10.5181
▁조지아주	-10.5181
▁소형	-10.5181
▁적발	-10.5181
▁동료들	-10.5182
▁원래	-10.5183
▁이륙	-10.5183
▁행사에	-10.5184
충	-10.5186
▁말했	-10.5187
▁마친	-10.5187
▁진보	-10.5187
새	-10.5188
▁경호원	-10.5191
▁기온	-10.5191
▁녹	-10.5191
▁메일	-10.5191
비아	-10.5192
▁베르	-10.5194
▁전달했다	-10.5206
▁스타디움에서	-10.5206
▁운전사	-10.5209
▁텍사스주	-10.521
제도	-10.5216
▁정원	-10.5217
▁해안에서	-10.5219
라스	-10.5221
▁깊이	-10.5226
▁다르다	-10.5226
간에	-10.5229
▁나이트	-10.5231
▁주장한다	-10.5231
▁누르	-10.5231
▁어렵다	-10.5238
▁가해	-10.5238
▁포기하	-10.5239
갔다	-10.5241
▁달린	-10.5243
▁무리	-10.5248
ll	-10.5251
▁원숭이	-10.5253
금지	-10.5254
▁망	-10.526
▁있어야	-10.5273
▁계속될	-10.5285
▁신조	-10.5285
▁생각이	-10.5287
ve	-10.5299
▁셀	-10.5302
▁보냈	-10.5305
▁확정	-10.5309
▁레드	-10.531
▁내일	-10.5313
▁가족이	-10.5316
▁sh	-10.5319
▁하이	-10.5326
▁옆	-10.5327
대회	-10.5329
▁포로	-10.5333
▁중단할	-10.5348
▁하나인	-10.5348
▁무슬림	-10.5351
▁교도소에	-10.5355
놀	-10.5357
▁광범위	-10.5365
▁듣고	-10.5365
▁뭄바이	-10.5365
▁프랭크	-10.5365
▁확장	-10.5365
▁화이트	-10.5365
▁애완견	-10.5365
▁예비선거	-10.5365
▁어깨	-10.5365
▁옐친	-10.5365
검	-10.5365
▁롤링	-10.5365
▁득표율	-10.5365
▁침공	-10.5365
▁탄생	-10.5367
▁쿠퍼	-10.5367
▁부채	-10.5367
▁다국적군	-10.5368
▁귀환	-10.5369
▁방출	-10.5369
▁안전보장이사회	-10.537
▁졸리	-10.537
▁리처드슨	-10.5371
▁거부권	-10.5371
량이	-10.5372
▁래리	-10.5373
▁키우	-10.5374
▁매체	-10.5375
▁추세	-10.5376
▁지원할	-10.5377
▁붙잡	-10.538
▁착수	-10.5384
▁비율	-10.5384
꺼	-10.5385
▁운전자	-10.5386
▁부산	-10.5386
▁하미	-10.5386
▁구역	-10.5398
▁일련	-10.54
▁인력	-10.5403
▁옆에	-10.5408
▁등급	-10.541
▁무어	-10.5411
▁즐	-10.5414
▁공개됐다	-10.5415
▁테니스	-10.5415
▁놀	-10.5417
▁상상	-10.5418
포트	-10.5425
위원장	-10.5426
▁실종자	-10.5427
▁치러지	-10.5433
▁예정이었다	-10.5435
▁청사	-10.5439
▁흥분	-10.544
해진	-10.5442
▁던지	-10.5443
▁실시할	-10.5447
▁아르	-10.5447
마리	-10.5453
▁했습니다	-10.5461
▁상태에서	-10.5463
▁감소했다	-10.5466
▁하루에	-10.548
▁주식시장	-10.5481
▁않았던	-10.5482
▁합의한	-10.5484
▁이르	-10.5486
un	-10.5486
에게서	-10.5491
▁일어났	-10.5503
▁육	-10.5504
▁맨	-10.5507
기업	-10.5508
▁무고	-10.5512
▁동의했다	-10.5514
사의	-10.5515
▁견	-10.5519
▁동맹국	-10.5525
▁총회	-10.5529
▁받아들이	-10.553
▁거절했다	-10.5531
니는	-10.5538
▁적십자	-10.5545
▁지지한다	-10.5547
타르	-10.5547
▁유출	-10.5552
▁경호	-10.5552
욕	-10.5556
넷	-10.5556
▁승무원들	-10.5558
▁국제원자력기구	-10.5561
▁윔블던	-10.5561
▁퍼거슨	-10.5561
▁배터리	-10.5561
▁퇴임	-10.5561
▁침략	-10.5561
▁프리미어리그	-10.5561
▁노르웨이	-10.5561
▁샘플	-10.5561
▁낙태	-10.5561
▁제정	-10.5561
▁솔직	-10.5562
▁복역	-10.5562
▁영양	-10.5562
▁his	-10.5562
▁로딕	-10.5563
▁끝날	-10.5564
▁창문	-10.5564
▁지켜보	-10.5566
▁백신	-10.5567
▁드러냈다	-10.5567
▁이뤄진	-10.5568
▁추측	-10.5568
▁발포	-10.5571
▁발행	-10.5571
▁밝혀진	-10.5572
▁자문	-10.5573
▁수송	-10.5578
▁분량	-10.5578
▁모임	-10.5579
귀	-10.5579
이드	-10.5583
▁반박	-10.5583
▁즐기	-10.5589
▁탐	-10.559
뉴스	-10.5592
▁맞추	-10.5592
▁제출했다	-10.5592
▁동일한	-10.5593
ck	-10.5594
▁낮추	-10.5599
보호	-10.5601
마자	-10.5601
▁통신이	-10.5603
▁직장	-10.5606
해왔	-10.5608
소를	-10.5612
▁협상에	-10.5612
▁테러범	-10.5612
▁동물들	-10.5613
▁늘리	-10.5616
별	-10.5617
▁직원이	-10.5619
▁학교에	-10.5624
▁건물이	-10.5625
비용	-10.5626
▁정권이	-10.5626
▁없게	-10.5632
▁딸이	-10.5634
▁화물	-10.5636
▁인근에서	-10.5636
▁ma	-10.5641
▁촬영한	-10.5643
리에	-10.5645
▁승객들	-10.5649
▁테러에	-10.5658
▁아들이	-10.566
▁작업에	-10.5662
▁펼치	-10.5667
▁조건으로	-10.5669
▁국기	-10.5675
스코	-10.5679
측에	-10.5681
▁전복	-10.5685
▁up	-10.5689
▁문제와	-10.5693
▁일으키	-10.5701
▁대항	-10.5702
▁해서	-10.571
▁권고	-10.5713
▁하락한	-10.5713
▁잡아	-10.5716
▁대표들	-10.5718
▁교황은	-10.5719
▁승려들	-10.5724
드로	-10.5725
▁물품	-10.5727
줬다	-10.5727
▁지원하는	-10.5731
▁소식통이	-10.5738
▁게재	-10.5744
▁후보자	-10.5746
▁통계	-10.5748
▁환호	-10.5759
▁상원의원과	-10.5761
▁뮤지컬	-10.5761
▁연쇄	-10.5761
▁오토바이	-10.5761
▁일으킬	-10.5761
▁펠로시	-10.5761
▁피라미드	-10.5761
▁카트리나	-10.5761
▁느낄	-10.5761
▁정거장	-10.5761
푸	-10.5761
▁암컷	-10.5761
▁검증	-10.5761
▁상륙	-10.5761
▁응급	-10.5762
▁오마르	-10.5763
▁떠난	-10.5763
▁상대방	-10.5765
▁오른쪽	-10.5765
▁서양	-10.5765
▁통증	-10.5766
▁알렉스	-10.5766
차량	-10.5768
▁상호	-10.5768
▁음성	-10.5769
▁여겨지	-10.5769
▁여지	-10.577
▁빠지	-10.5771
▁최저치	-10.5774
▁플레이어	-10.5774
▁유산	-10.5775
▁공산주의	-10.5775
곤	-10.5779
▁래	-10.5783
▁알렸다	-10.5784
세이	-10.579
▁싸	-10.5791
▁유도	-10.5791
▁알지	-10.5791
▁잡스	-10.5796
▁쓸	-10.58
째	-10.5802
▁소득	-10.5804
입어	-10.5805
▁해병	-10.5806
▁포장	-10.5807
▁증세	-10.5808
▁소유하고	-10.581
ry	-10.5812
▁에어	-10.5813
▁앉아	-10.5817
▁쉽지	-10.5821
▁레바논군	-10.5824
▁생각하지	-10.5824
▁소매	-10.5836
▁보게	-10.5855
▁매달	-10.5859
▁마을에서	-10.5877
▁후보인	-10.588
포드	-10.5894
▁트	-10.5894
▁하면서	-10.5894
▁발표됐다	-10.5897
▁코커스	-10.5899
로스	-10.5899
▁무장대원	-10.5901
▁두번째	-10.5909
▁명인	-10.5912
▁자리에	-10.5913
▁비행사	-10.5914
▁함	-10.5916
기록	-10.5917
z	-10.5924
▁개인적	-10.5927
▁주위	-10.5928
age	-10.5929
▁지지자들이	-10.5929
▁심의	-10.5932
▁대학에서	-10.5946
▁요인	-10.5946
▁용	-10.5947
▁no	-10.5949
▁온도	-10.5951
▁빈곤	-10.5954
▁전반적	-10.5956
시킨다	-10.5958
스럽게	-10.5961
▁법원에서	-10.5962
▁결과로	-10.5962
정도	-10.5963
존	-10.5963
▁객실	-10.5965
▁펀드	-10.5965
▁불가리아	-10.5965
▁데이빗	-10.5965
▁보이콧	-10.5965
▁유혈사태	-10.5965
▁라파엘	-10.5965
▁헌법재판소	-10.5965
▁party	-10.5966
▁화합	-10.5966
▁녹음	-10.5966
▁조항	-10.5971
어로	-10.5972
▁서식지	-10.5972
▁돌파	-10.5974
▁처한	-10.5975
▁겨	-10.5976
▁버리	-10.5976
▁보급	-10.5977
▁부실	-10.598
▁bo	-10.598
폰	-10.5987
엄	-10.5989
헤	-10.5991
법원	-10.5991
데이	-10.5991
▁정상화	-10.5995
▁슬	-10.5995
▁실시했다	-10.5998
▁살해했다	-10.6001
▁다음주	-10.6002
▁기부	-10.6015
▁모건	-10.6022
▁해주	-10.6023
▁포함돼	-10.603
▁자택에서	-10.6031
▁외치	-10.6031
기지	-10.6034
▁참여할	-10.6035
▁군인들이	-10.604
▁전부	-10.6045
▁해상	-10.6048
▁달러화	-10.6049
▁후원	-10.6058
▁약세	-10.6071
군이	-10.6073
본부	-10.6081
▁화요일에	-10.6086
▁몰고	-10.61
▁바라는	-10.61
▁상승한	-10.6101
▁취해	-10.6106
니까	-10.6111
▁카불	-10.6113
▁제시했다	-10.6113
▁항의하	-10.6118
▁연안	-10.6119
▁프라이머리에서	-10.6121
내내	-10.6125
▁실질적	-10.6131
으려	-10.6133
▁몰아	-10.6135
▁방문하는	-10.6144
▁얻고	-10.6147
측이	-10.6154
ese	-10.6155
▁메이	-10.6155
▁농장	-10.6158
▁콜로라도	-10.6163
▁후보와	-10.6166
혜	-10.6166
▁소식에	-10.6166
▁뉴욕주	-10.6168
▁감지	-10.617
▁싱	-10.617
▁지대	-10.6171
픽	-10.6173
▁아름다	-10.6173
▁부딪	-10.6173
▁끔찍	-10.6173
▁아테네	-10.6173
▁플라스틱	-10.6173
▁히틀러	-10.6173
▁중남미	-10.6173
▁여섯	-10.6173
▁공룡	-10.6173
▁외무성	-10.6174
▁fda	-10.6175
▁창출	-10.6175
▁저희	-10.6176
▁남자들	-10.6176
원이	-10.6176
▁american	-10.6177
▁종료	-10.6178
▁테러조직	-10.6178
▁모금	-10.618
▁접전	-10.6183
▁본토	-10.6183
▁범인이	-10.6183
▁접수	-10.6183
▁국민의	-10.6184
▁멀리	-10.6184
▁차별	-10.6185
▁실린	-10.6185
▁고급	-10.6186
▁재임	-10.6187
▁탄소	-10.6188
▁인형	-10.6189
▁지분	-10.619
▁존경	-10.619
▁우즈	-10.6192
▁산타	-10.6195
국이	-10.6195
▁국가로	-10.6196
▁청구	-10.6196
▁남용	-10.6197
▁열렸다	-10.6201
▁세웠다	-10.621
▁플로리다주	-10.6212
정보	-10.6219
▁do	-10.6222
▁설	-10.6226
쪽으로	-10.6233
됐을	-10.6233
▁dis	-10.6235
▁유튜브	-10.6238
▁방향으로	-10.6239
오는	-10.6243
▁손해	-10.6251
▁남편이	-10.6251
대가	-10.6253
▁행정	-10.6254
네스	-10.627
▁포함됐다	-10.6278
▁대학생	-10.6292
▁플라	-10.6301
▁이용한	-10.6305
▁미니	-10.6312
▁단체인	-10.6318
▁맛	-10.6318
▁상하이	-10.6319
▁크레	-10.6322
▁불에	-10.6332
이란	-10.6338
▁르	-10.6339
▁취한	-10.6344
▁me	-10.6351
▁노력이	-10.6355
▁당국에	-10.636
다란	-10.6363
▁년만	-10.6374
▁민족	-10.6378
▁완	-10.6378
▁회의에	-10.638
▁있을지	-10.638
주에서	-10.6386
▁원문기사	-10.6386
▁opec	-10.6386
▁루아얄	-10.6386
▁마돈나	-10.6386
▁에넹	-10.6386
▁울포위츠	-10.6386
▁지지선언	-10.6386
▁징후	-10.6386
▁브리핑	-10.6386
▁관람	-10.6386
▁파나마	-10.6387
▁라이언	-10.6387
▁시라크	-10.6387
▁탈락	-10.6387
▁드러내	-10.6387
▁비틀즈	-10.6387
▁자선단체	-10.6388
▁특파원	-10.6388
▁점검	-10.6389
▁디스크	-10.6389
▁잠재적	-10.639
▁통과시켰다	-10.6392
▁서류	-10.6392
▁경관	-10.6395
▁이틀간	-10.6396
▁준수	-10.6397
▁전국적으로	-10.6398
▁로저	-10.6398
▁정계	-10.6399
▁재직	-10.6401
▁개편	-10.6401
▁도심	-10.6402
▁자동	-10.6406
▁승부	-10.6407
▁얼마전	-10.6408
▁조사한	-10.6411
▁경영진	-10.6415
▁군함	-10.6416
몰	-10.6416
▁경비	-10.6416
▁승인했다	-10.6417
▁노리	-10.6418
▁겸	-10.6418
혔다	-10.6419
▁표면	-10.6421
▁투표에	-10.6423
▁호소했다	-10.6423
▁않는다면	-10.6423
▁라이브	-10.6424
▁학생이	-10.6427
▁원화	-10.6427
▁로스	-10.6427
▁식사	-10.6428
▁so	-10.6432
▁광장	-10.6433
▁go	-10.6444
▁여러분	-10.6445
▁조지아	-10.6446
▁털	-10.6454
었는지	-10.6458
▁범	-10.646
▁일본인	-10.6462
▁전해지	-10.6466
▁소비자들	-10.6476
▁좋아하는	-10.6477
▁입법	-10.6478
▁여기에	-10.6478
▁본다	-10.6479
▁보조	-10.6479
▁신문사	-10.6487
▁국가들이	-10.6491
▁커지	-10.6492
▁전역에서	-10.6493
▁반영	-10.6502
▁사용하고	-10.6514
▁이민	-10.6515
▁북부에	-10.6515
대표	-10.6517
으면서	-10.652
▁중이	-10.6527
시대	-10.6527
▁베를린	-10.6528
리스트	-10.6531
▁바스라	-10.6531
▁잃었	-10.6543
▁업체들	-10.6544
분께	-10.6546
▁악화되	-10.6548
▁하자	-10.6549
▁일이라고	-10.6552
린다	-10.6571
검사	-10.6584
웅	-10.6599
▁경기침체	-10.6603
▁디자이너	-10.6603
▁먹는	-10.6603
▁싶지	-10.6603
▁우주왕복선	-10.6603
▁조승희	-10.6603
▁허커비	-10.6603
톨	-10.6603
▁징계	-10.6603
▁벌써	-10.6603
▁경기부양책	-10.6603
▁교섭	-10.6604
▁본격적	-10.6604
▁벽돌	-10.6604
▁center	-10.6604
▁저항세력	-10.6604
▁품목	-10.6604
▁에이커	-10.6604
▁살아남	-10.6604
▁몸에	-10.6604
▁경향	-10.6605
▁탄광	-10.6605
▁함유	-10.6605
▁떠날	-10.6605
▁막대한	-10.6606
▁사이클	-10.6607
베르토	-10.6608
▁상담	-10.6609
▁외곽	-10.6609
▁연계	-10.6609
▁도달	-10.661
▁소행성	-10.661
▁도살	-10.661
▁집권당	-10.6611
▁형식	-10.6612
▁야구	-10.6612
▁자신감	-10.6613
▁are	-10.6613
▁물체	-10.6617
▁중요성	-10.6618
▁내려졌다	-10.6619
참	-10.6623
▁없습니다	-10.6625
▁계속된	-10.6626
▁추구하	-10.6628
▁곰	-10.6629
▁서울시	-10.6631
▁지위	-10.6633
헌	-10.6634
▁나토군	-10.6638
필	-10.664
▁당국자들	-10.6642
▁서서	-10.6642
팔	-10.6646
않	-10.6646
덕	-10.6647
회담	-10.6648
▁대법원장	-10.6649
램	-10.6652
물이	-10.6652
▁재미있	-10.6655
▁지휘관	-10.6655
▁프	-10.666
지역에	-10.6662
▁복	-10.6668
▁나선	-10.6669
▁갖는	-10.667
▁최대의	-10.667
▁유발	-10.6672
총리	-10.6672
▁걸리	-10.668
▁해소	-10.668
어스	-10.6683
▁바위	-10.6686
▁공격했다	-10.6688
▁모르는	-10.669
▁이어지	-10.6691
▁화면	-10.6696
▁기아	-10.6699
▁사용자들	-10.6699
▁회장이	-10.6704
상의	-10.6704
어서	-10.6713
▁계기	-10.6714
▁di	-10.6716
▁은행들	-10.672
▁원인이	-10.6723
겼다	-10.6728
웨	-10.6733
스타인	-10.6734
팅	-10.6737
▁게리	-10.674
▁바르	-10.6741
▁건강에	-10.6747
▁기분	-10.6749
▁운동가들	-10.6752
▁최고치	-10.6755
▁종결	-10.676
▁건강이	-10.6762
▁모자	-10.6763
▁미국으로	-10.6766
id	-10.6767
▁맡	-10.6772
▁상자	-10.6776
▁용의자로	-10.6791
▁열고	-10.6806
▁들어간	-10.6807
▁경사	-10.681
▁알아	-10.6811
전에서	-10.6813
▁향상	-10.6814
▁상영	-10.6817
닌	-10.6818
▁직면	-10.6819
▁브라이언	-10.6819
▁소탕	-10.682
▁매춘	-10.6823
▁되었	-10.6824
장으로	-10.6825
▁foreign	-10.6826
▁노트북	-10.6826
▁뉴올리언스	-10.6826
▁베네딕	-10.6826
▁쇠고기	-10.6826
▁압바스	-10.6826
▁파바로티	-10.6826
▁포르노	-10.6826
▁무너지	-10.6826
▁윈도우	-10.6826
▁부사장	-10.6826
▁글로벌	-10.6826
▁농업	-10.6826
▁imf	-10.6826
▁우간다	-10.6826
▁생방송	-10.6827
▁범위	-10.6827
▁우울증	-10.6827
▁talks	-10.6827
▁거짓	-10.6828
▁다룬	-10.6828
▁타밀	-10.6828
▁계산	-10.6829
▁정착	-10.6829
▁매매	-10.683
▁오프라	-10.683
▁벗어	-10.683
▁핵개발	-10.6831
▁구름	-10.6831
▁지역사회	-10.6831
▁v	-10.6831
▁왕세자비	-10.6833
▁톰슨	-10.6834
▁의상	-10.6834
되자	-10.6835
▁경비대	-10.6835
▁발급	-10.6835
▁열심	-10.6835
▁휴대	-10.6835
혈	-10.6835
▁미첼	-10.6835
▁소동	-10.6836
▁발발	-10.6836
▁테러단체	-10.6836
▁국방성	-10.6837
▁에릭	-10.6839
십	-10.6841
▁연간	-10.6842
▁독일인	-10.6844
▁한국은행	-10.6848
▁만년	-10.6849
▁촉구하	-10.6852
▁제리	-10.6855
ac	-10.6856
국으로	-10.6858
▁보건부	-10.6858
달러	-10.6859
▁뿐이다	-10.6859
▁강세	-10.6859
▁강전에서	-10.6861
롭	-10.6862
▁포함하여	-10.6863
▁챔피언십	-10.6864
▁농민들	-10.6864
쓰	-10.6872
▁내려진	-10.6872
▁점거	-10.6885
▁러드	-10.6885
▁혼	-10.6886
사회	-10.6892
▁지식	-10.6898
▁확산되고	-10.6905
▁각자	-10.6906
진다	-10.6908
버스	-10.6918
▁스캔들	-10.6921
시위	-10.6921
▁마이	-10.6923
러스	-10.6929
▁고장	-10.6929
기자	-10.693
▁돌려	-10.6933
▁부족하다	-10.6935
과정	-10.6937
▁제출한	-10.6944
스런	-10.6947
▁부당	-10.6953
▁대통령직	-10.6956
▁지불하	-10.6958
▁테리	-10.6961
▁사진이	-10.6961
me	-10.6962
가격	-10.6965
▁불이	-10.6966
렉	-10.6971
환으로	-10.6971
▁어렵	-10.6974
▁대전	-10.6976
▁법안에	-10.6977
▁참가자들	-10.6977
▁ch	-10.6977
▁국제공항	-10.6979
▁십	-10.6987
▁출산	-10.6989
▁취하	-10.699
▁제공한	-10.6998
▁종이	-10.7013
▁강조하	-10.7013
로우	-10.7015
▁언론과	-10.7017
▁동성애	-10.7018
▁부분이	-10.7022
▁촉발	-10.7022
▁탑승객	-10.7024
▁되찾	-10.7025
▁남부에	-10.7025
▁필요로	-10.7026
▁대대적	-10.7027
▁경매에	-10.7029
▁다루	-10.7031
▁취했다	-10.7033
디아	-10.7034
▁뉴햄프셔	-10.7035
사와	-10.7045
갔	-10.7046
▁달러가	-10.7048
장에	-10.705
▁에베레스트	-10.7051
▁쓰레기	-10.7052
▁obama	-10.7053
▁관타나모	-10.7053
▁두려움	-10.7053
▁로드리게스	-10.7053
▁옮기	-10.7053
▁최첨단	-10.7053
▁평화유지군	-10.7053
▁빼앗	-10.7053
▁따뜻	-10.7053
▁온실가스	-10.7053
▁아마디네자드	-10.7053
▁남아프리카	-10.7053
▁인터폴	-10.7053
▁이자율	-10.7053
▁야생동물	-10.7053
▁무덤	-10.7054
▁mbc	-10.7054
▁술집	-10.7055
▁금액	-10.7055
▁붙여	-10.7055
▁파월	-10.7055
▁파리에서	-10.7056
▁풍부	-10.7056
▁고유가	-10.7056
▁실업률	-10.7057
▁관측	-10.7057
▁예약	-10.7057
▁단행	-10.7058
▁개막	-10.7058
▁완성	-10.7059
▁파키스탄군	-10.706
▁포터	-10.7064
▁기증	-10.7065
▁아마디	-10.7066
▁문구	-10.7067
▁배제	-10.7069
▁선임	-10.7069
▁군사력	-10.7072
▁사설	-10.7073
▁쪽	-10.7075
▁임대	-10.7077
▁선수로	-10.7077
▁서안	-10.7078
▁my	-10.7079
▁벌어졌다	-10.7083
▁선거법	-10.7085
▁리비	-10.7086
▁내정	-10.7087
▁주연	-10.7091
치는	-10.7091
op	-10.7092
셀	-10.7094
▁보인	-10.7098
끼	-10.7098
▁학교에서	-10.7099
▁반전	-10.7099
폐	-10.71
▁도시인	-10.71
▁발견되었다	-10.7101
▁결승전에서	-10.7102
▁코치	-10.7102
▁센	-10.7104
▁여부에	-10.7106
ent	-10.7108
▁멀	-10.7108
▁나타내는	-10.7109
▁클	-10.7112
▁반대로	-10.7114
est	-10.7116
▁연구에서	-10.7116
▁보도에	-10.7121
▁행위에	-10.7123
▁직접적	-10.713
▁진지	-10.713
▁해적들	-10.7131
▁너무나	-10.7136
▁작업이	-10.7139
▁유전	-10.7141
▁회전	-10.7148
▁se	-10.715
▁목격했다	-10.7153
▁제작사	-10.7164
▁미터	-10.7167
▁넘기	-10.717
▁요원들	-10.7172
▁저자	-10.7174
업계	-10.7178
▁관객들	-10.7179
▁증상	-10.7181
▁무시	-10.7191
▁궤도	-10.7198
국장	-10.7198
▁인터넷에	-10.7203
▁sp	-10.7204
▁부지	-10.7223
▁정리	-10.7223
리안	-10.7224
▁남성들	-10.7225
ha	-10.7225
▁반지	-10.724
념	-10.7252
▁맞고	-10.7261
▁착수했다	-10.7263
퇴	-10.7267
▁건너	-10.7267
▁햄	-10.727
스티	-10.727
▁때문이라	-10.7272
했었	-10.7277
▁정보부	-10.7279
▁출입	-10.7282
▁새롭	-10.7285
랭	-10.7285
▁나눴다	-10.7285
▁망원경	-10.7285
▁브래드	-10.7285
▁심장마비	-10.7285
▁아라비아	-10.7285
▁이브라힘	-10.7285
▁자르다리	-10.7285
▁찾지	-10.7285
▁토크쇼	-10.7285
▁허드슨	-10.7285
▁확률	-10.7285
▁대서양	-10.7285
▁도요타	-10.7285
▁플루토늄	-10.7285
▁적합한	-10.7285
▁해수면	-10.7285
▁줄기세포	-10.7285
▁맥캔	-10.7286
▁빅토리아	-10.7286
▁터널	-10.7286
▁활발	-10.7286
▁곳곳	-10.7286
▁남자아이	-10.7286
▁금융위기	-10.7286
▁남학생	-10.7286
▁교외	-10.7287
▁cdc	-10.7287
▁연례	-10.7287
▁가짜	-10.7287
▁물고기	-10.7287
▁추격	-10.7288
▁실현	-10.7288
▁체류	-10.7289
▁신규	-10.7289
▁비서실장	-10.7289
▁채취	-10.7291
▁밀려	-10.7292
▁day	-10.7292
▁nk	-10.7293
▁고위급	-10.7295
▁무슨	-10.7297
▁상금	-10.7297
▁증	-10.7297
속도로	-10.7297
▁향한	-10.7298
▁많아	-10.7302
▁낮아	-10.7305
▁저질렀다	-10.7307
▁위원	-10.7308
▁남측	-10.7309
▁사라졌다	-10.7309
▁빠졌다	-10.731
▁사체	-10.7311
▁상업	-10.7314
▁경쟁력	-10.7314
▁맡았다	-10.7315
▁등에	-10.7321
칭	-10.7324
뉴	-10.7325
▁변호	-10.733
▁미래에	-10.7331
▁차질	-10.7333
▁신도들	-10.7337
▁세로	-10.7338
▁합의에	-10.7341
짐	-10.7342
규모	-10.7343
칸	-10.7343
벽	-10.7344
시스템	-10.7347
am	-10.7348
시오	-10.7351
▁있었습니다	-10.7351
▁위하여	-10.7352
▁개인적으로	-10.7354
▁사면	-10.7356
▁화가	-10.7356
ty	-10.7357
▁턱	-10.7359
▁반복	-10.7361
▁수행할	-10.7366
▁발휘	-10.7369
▁부검	-10.7371
▁다르	-10.7371
사업	-10.7379
▁기본적	-10.738
▁시인	-10.7382
▁시인했다	-10.7384
▁공무원	-10.7386
▁탈레반이	-10.7387
▁고려하고	-10.7388
▁탈레반측	-10.7389
▁논	-10.7394
▁착용	-10.7399
▁성공한	-10.7401
▁은행에	-10.7401
▁포함된	-10.7409
▁힘들다	-10.7414
▁러	-10.7414
▁가족들과	-10.7417
▁장관과	-10.7417
▁위험성	-10.7419
ive	-10.7422
▁분야에서	-10.7426
▁출연했다	-10.7428
▁브로	-10.7432
평	-10.7438
▁입지	-10.7439
▁연대	-10.7443
▁불어	-10.7447
▁로브	-10.746
▁방콕	-10.7461
▁해당하	-10.7461
겼	-10.7464
▁달한다	-10.7473
▁출생	-10.7484
소리	-10.7484
▁명백	-10.7488
▁남아있는	-10.7488
▁조사할	-10.7494
▁패스	-10.7495
옥	-10.7508
원들이	-10.7509
▁사실에	-10.7512
▁state	-10.7513
▁블루	-10.7515
▁애리조나	-10.7515
행사	-10.7519
콤	-10.7523
▁희망한다	-10.7523
▁visit	-10.7523
▁갤런	-10.7523
▁그렇다	-10.7523
▁메드베데프	-10.7523
▁서브프라임	-10.7523
▁유죄판결	-10.7523
▁자유무역협정	-10.7523
▁최우선	-10.7523
▁펼친	-10.7523
▁무승부	-10.7523
▁삭감	-10.7523
▁수류탄	-10.7523
▁again	-10.7523
▁출구조사	-10.7524
▁국립공원	-10.7524
▁베리	-10.7524
▁긴밀	-10.7524
▁연패	-10.7525
▁단독	-10.7525
▁외환	-10.7526
▁중앙은행	-10.7526
▁카를로스	-10.7526
▁들어갈	-10.7527
▁갈등	-10.7527
▁연출	-10.7528
널리	-10.7529
▁정치인들	-10.753
▁여러번	-10.753
▁유통	-10.7532
▁포스트	-10.7532
▁군이	-10.7532
▁뉴욕시	-10.7532
리그	-10.7534
▁부품	-10.7534
▁양쪽	-10.7536
▁경로	-10.7539
▁해저	-10.7539
▁제공했다	-10.754
▁우세	-10.7542
▁양보	-10.7547
▁스파이	-10.7547
▁완료	-10.7549
▁해체	-10.755
▁루니	-10.7551
▁참석하지	-10.7552
▁체포됐	-10.7553
▁상세	-10.7557
▁도디	-10.7559
▁이득	-10.7559
▁가난한	-10.7563
▁목록	-10.7567
장인	-10.7572
▁웨인	-10.7573
▁대리인	-10.7575
▁업적	-10.7576
업자들	-10.7576
겠습니다	-10.7577
빙	-10.7584
콜	-10.7589
됩니다	-10.759
▁벌여	-10.7592
▁딘	-10.7592
폴	-10.7593
▁석방됐다	-10.7595
▁윤	-10.7597
▁ai	-10.7598
▁상당수	-10.7598
▁차례의	-10.7599
▁중심지	-10.7599
▁일어나는	-10.7608
▁점수	-10.7611
▁정기적	-10.7617
▁기분이	-10.7618
▁one	-10.7618
공사	-10.762
▁위원장이	-10.7624
▁법정에서	-10.7632
▁지구에	-10.7637
에르	-10.7641
리고	-10.7645
▁압수	-10.7651
▁결정적인	-10.7651
▁이름으로	-10.7656
▁인민	-10.7661
▁관여	-10.7661
버리	-10.7662
관련	-10.7663
▁타임	-10.7664
결과	-10.7666
▁유지하	-10.7666
▁방문해	-10.7668
▁기소된	-10.7671
▁제시한	-10.7679
▁크다	-10.7679
▁날아	-10.768
▁였다	-10.7683
▁강진이	-10.7684
▁윈	-10.769
▁가방	-10.769
▁매력	-10.7693
▁표준	-10.7694
▁흔	-10.7696
ter	-10.7703
▁게릴라	-10.7705
▁주에	-10.7706
▁검문소	-10.7711
객	-10.7715
▁예정이었	-10.7729
▁받아들여	-10.7739
▁수면	-10.7739
▁유인	-10.7746
▁의견이	-10.7747
럽	-10.7752
▁방송에	-10.7762
▁바뀌	-10.7766
▁국가비상사태	-10.7766
▁ibm	-10.7767
▁seoul	-10.7767
▁고이즈미	-10.7767
▁높게	-10.7767
▁선거관리위원회	-10.7767
▁성추행	-10.7767
▁하이브리드	-10.7767
▁활성화	-10.7767
▁좌석	-10.7767
▁스크린	-10.7767
▁윈프리	-10.7767
▁최루탄	-10.7768
▁에드워드	-10.7768
▁묻는	-10.7768
▁부활	-10.7768
▁intern	-10.7768
▁바꿀	-10.7768
▁권총	-10.7768
▁증강	-10.7769
▁돌아갈	-10.7769
▁이뤄질	-10.7769
▁mdc	-10.7769
▁독감	-10.777
▁연구결과	-10.777
▁맞이	-10.7771
▁뛰	-10.7771
▁데리고	-10.7772
▁ex	-10.7774
▁심판	-10.7776
▁준비하고	-10.7776
▁건물에	-10.7778
▁개체수	-10.7778
▁던진	-10.7778
▁받아왔다	-10.7778
▁구류	-10.778
▁출장	-10.778
▁수색작업	-10.778
▁당부했다	-10.7781
▁종교적	-10.7782
▁피난	-10.7783
▁통보	-10.7784
쪽	-10.7785
at	-10.7786
ice	-10.7786
▁인터	-10.7788
▁등장	-10.779
▁house	-10.7792
▁상관	-10.7792
▁셰	-10.7793
▁도난	-10.7793
▁신화	-10.7794
▁발견됐	-10.7795
▁원장	-10.7795
▁안내	-10.7797
▁ha	-10.7798
▁카리	-10.78
▁도구	-10.7801
▁간주	-10.7804
▁아미	-10.7805
▁정기	-10.7807
▁살았	-10.7808
▁맡았	-10.781
▁드레스	-10.7813
▁남아있다	-10.7816
▁판결이	-10.7819
▁권고했다	-10.7821
▁얻게	-10.7822
▁기상청	-10.7824
▁명백한	-10.7827
윈	-10.7828
▁생각해	-10.783
닉	-10.7833
롱	-10.7836
짓	-10.7838
값	-10.7838
▁공주	-10.784
▁가중	-10.784
서비스	-10.7843
감독	-10.7845
▁피하기	-10.7846
▁메리	-10.7848
▁거리에서	-10.7857
수술	-10.7858
원인	-10.7858
버렸다	-10.7858
▁cd	-10.786
▁만족	-10.7866
▁도착할	-10.7869
▁양자	-10.7871
▁당해	-10.7877
▁신장	-10.788
▁관객	-10.7881
▁열었다	-10.7882
학생	-10.7884
▁이라크내	-10.7884
▁자라	-10.7889
▁궁	-10.7894
▁공격한	-10.7896
식이	-10.7897
▁국가에	-10.7905
택	-10.7907
▁결심	-10.791
▁재정적	-10.7912
▁con	-10.7913
나무	-10.7917
▁발견되지	-10.7917
▁파키스탄에서	-10.7929
▁하에	-10.7932
▁테러리스트들	-10.7932
▁칭	-10.7943
▁변호인	-10.7944
▁폴리	-10.7947
▁아기들	-10.7951
▁군과	-10.7961
▁진전이	-10.7973
▁동영상에서	-10.7973
▁조언	-10.7973
▁서쪽	-10.7976
화된	-10.798
▁이씨	-10.7981
▁소년이	-10.7981
▁tr	-10.7985
▁am	-10.7991
▁성당	-10.7995
▁아프간에	-10.7997
▁이후에	-10.8005
▁모른다고	-10.8009
넨	-10.8011
확실한	-10.8011
룰	-10.8014
▁사용된	-10.8016
▁데이비스	-10.8017
라드	-10.8017
▁troop	-10.8017
▁똑같	-10.8017
▁먹고	-10.8017
▁무렵	-10.8017
▁믿을	-10.8017
▁스탈린	-10.8017
▁앞섰다	-10.8017
▁유람선	-10.8017
▁호나우두	-10.8017
▁국제우주정거장	-10.8017
▁시나리오	-10.8017
▁섹시	-10.8017
▁주유소	-10.8017
▁티벳	-10.8018
▁켈리	-10.8018
▁아는	-10.8018
▁아스날	-10.8018
▁교착	-10.8018
▁국민투표	-10.8018
▁동참	-10.8018
▁고안	-10.8019
▁bda	-10.8019
ig	-10.8019
▁앨런	-10.8019
▁설계	-10.8019
▁존스턴	-10.802
▁연승	-10.802
▁송금	-10.802
▁창설	-10.8021
▁불안정	-10.8021
▁매케인이	-10.8021
▁복원	-10.8021
▁역임	-10.8022
▁가끔	-10.8022
▁통행	-10.8024
▁연방정부	-10.8024
▁신분	-10.8024
▁혼자	-10.8028
▁부처	-10.8028
▁암시	-10.8029
됐는지	-10.8029
▁웨	-10.8029
▁윌슨	-10.803
▁서브	-10.8031
▁총통	-10.8032
▁상병	-10.8032
▁졸업	-10.8033
▁합의문	-10.8033
▁수컷	-10.8034
▁전형적	-10.8035
▁위생	-10.8035
▁후임	-10.8037
▁영화에서	-10.8039
▁인권단체	-10.804
▁편의	-10.8041
▁au	-10.8041
▁여파	-10.8041
둘	-10.8042
▁ro	-10.8044
▁퀸	-10.8051
▁꽃	-10.8051
ap	-10.8052
▁유물	-10.8054
▁유럽과	-10.8055
▁발매	-10.8058
▁산하	-10.8063
▁경주	-10.8065
▁공개하지	-10.8065
▁축	-10.8066
▁막아	-10.8066
▁말이	-10.8069
▁아프	-10.8074
▁조선	-10.8074
▁영국과	-10.8075
▁뿐이라	-10.8077
▁외상	-10.8078
▁사라지	-10.8081
▁돌아와	-10.8081
접	-10.8089
▁김치	-10.8096
곡	-10.8096
▁토대	-10.8096
man	-10.8097
벤	-10.8099
▁거부한	-10.8103
▁내지	-10.8106
ml	-10.811
end	-10.811
▁행동에	-10.8115
▁옹호	-10.8121
▁약화	-10.8125
▁사안	-10.8131
▁지역인	-10.8131
▁민간인들	-10.8132
▁이슈	-10.8133
▁판매량	-10.8137
▁all	-10.8137
▁두려워	-10.8138
▁그랜드	-10.8138
카르	-10.814
▁준다	-10.8141
▁점이	-10.8142
브라	-10.8147
▁회사에	-10.8147
▁참가한	-10.8159
교육	-10.8161
▁이적	-10.8162
시장에서	-10.8171
▁주최	-10.8172
▁병력이	-10.8175
▁별도	-10.8181
데스	-10.8184
▁차지하는	-10.8185
▁섭취	-10.8188
▁테러범들	-10.8193
▁지방에서	-10.8195
▁출신으로	-10.8196
▁사무	-10.8198
▁몰려	-10.8208
▁판다	-10.8209
자르	-10.821
▁선고했다	-10.8212
▁모아	-10.8213
▁가리	-10.8215
▁전사	-10.8216
▁미라	-10.8216
▁서식하	-10.8224
스케	-10.8237
▁개성	-10.8239
▁의제	-10.824
▁인정하지	-10.824
▁현상이	-10.8244
대사	-10.8249
▁남겨	-10.825
▁사과했다	-10.8254
▁제작자	-10.8259
▁행동이	-10.826
▁담고	-10.8261
▁간에	-10.8264
▁밴	-10.8265
▁용납	-10.8266
▁가즈프롬	-10.8274
▁내무장관	-10.8274
▁럼스펠드	-10.8274
▁마이스페이스	-10.8274
▁믿는다	-10.8274
▁아닙니다	-10.8274
▁아웅산수치	-10.8274
▁인명피해	-10.8274
▁창기라이	-10.8274
닛	-10.8274
▁후지모리	-10.8274
▁깨끗	-10.8274
▁라호르	-10.8274
▁자전거	-10.8274
▁코카인	-10.8274
▁take	-10.8274
▁언덕	-10.8274
▁요즘	-10.8274
▁가져올	-10.8274
▁행렬	-10.8274
▁알제리	-10.8274
▁의약품	-10.8274
▁시티그룹	-10.8274
▁머레이	-10.8275
▁산맥	-10.8275
▁more	-10.8276
▁굿	-10.8276
▁치매	-10.8277
▁클라크	-10.8277
▁납치한	-10.8278
▁로켓포	-10.828
▁부결	-10.8281
▁의심되는	-10.8281
▁파커	-10.8282
▁광부	-10.8283
▁휴일	-10.8285
▁보증	-10.8285
▁피랍된	-10.8287
▁fir	-10.8289
▁시골	-10.8289
▁외국인들	-10.8292
▁약탈	-10.8295
▁걸렸다	-10.8296
▁침대	-10.8299
▁던졌다	-10.83
▁재활용	-10.83
▁지나가	-10.8303
▁화장	-10.8304
▁돌아왔다	-10.8304
▁변화에	-10.8304
▁호텔에	-10.8305
▁미성년자	-10.8306
분야	-10.8307
▁공개한	-10.831
▁안으로	-10.8314
라데	-10.8316
▁골드	-10.8316
▁클린턴과	-10.8317
▁젊은이들	-10.8317
▁하비	-10.8321
▁출전하지	-10.8321
▁공정한	-10.8323
▁전격	-10.8324
ot	-10.8324
▁불과하다	-10.8326
▁덜	-10.8327
▁연행	-10.8327
▁평화상	-10.8336
▁전용	-10.8338
황	-10.8339
▁해안에	-10.834
▁빌리	-10.8344
▁nation	-10.8347
▁북부에서	-10.8356
▁방법에	-10.8358
▁나치	-10.836
▁분석했다	-10.8365
조약	-10.8369
▁부상자들	-10.8369
▁주권	-10.8376
▁시작됐	-10.8377
▁수감된	-10.8383
▁학생들에게	-10.8385
▁본드	-10.8386
▁유해	-10.839
▁세운	-10.8395
▁파크	-10.8398
▁has	-10.8399
▁이스라엘에	-10.8399
▁위협하	-10.8401
▁수락	-10.8402
▁프랑스에서	-10.8404
▁교도소에서	-10.8411
지원	-10.8412
▁명성	-10.842
▁것들	-10.8421
이션	-10.8421
▁시간에	-10.8423
▁가르	-10.8429
이라면	-10.8436
담당	-10.8437
▁상사	-10.8443
키로	-10.8445
▁출두	-10.8446
▁제치	-10.8451
▁수여	-10.846
▁이슬라마바드	-10.8463
국의	-10.8467
▁방송에서	-10.8469
▁확산되	-10.8471
▁벌어지	-10.8474
더스	-10.848
▁선택했다	-10.848
▁war	-10.8481
▁이들에게	-10.8484
▁멤버	-10.8489
▁모두에게	-10.8489
land	-10.85
률이	-10.8504
▁칼리	-10.8504
▁난민들	-10.8505
▁th	-10.8506
▁베어	-10.8507
▁석방된	-10.8514
▁에티오피아	-10.8517
병원	-10.8519
▁전쟁이	-10.8521
▁중점	-10.8525
ary	-10.8527
▁네바다	-10.8528
▁잇따	-10.8533
냥	-10.8533
렐	-10.8534
▁york	-10.8537
▁맨해튼	-10.8537
▁바티칸	-10.8537
▁박격포	-10.8537
▁스타벅스	-10.8537
▁저렴	-10.8537
▁최고경영자	-10.8537
넌	-10.8537
▁러닝메이트	-10.8537
▁음주운전	-10.8537
▁associat	-10.8537
▁북극곰	-10.8537
▁라모스	-10.8537
▁퇴진	-10.8537
▁남아프리카공화국	-10.8537
▁국무총리	-10.8537
▁아빠	-10.8537
▁미셸	-10.8538
▁돌아올	-10.8538
▁왜곡	-10.8538
▁유괴	-10.8538
혼	-10.8538
▁급습	-10.8539
▁결합	-10.8539
▁진료	-10.854
▁환율	-10.8541
▁추모	-10.8541
▁이루어진	-10.8542
▁실무	-10.8542
▁파편	-10.8542
▁매입	-10.8542
▁재배치	-10.8543
▁포경선	-10.8543
▁출	-10.8544
▁시민권	-10.8546
▁줄이기	-10.8547
▁던져	-10.8548
▁부리	-10.855
▁사이버	-10.8551
▁구조작업	-10.8551
▁부속	-10.8554
▁배포	-10.8555
▁지원금	-10.8556
▁소유주	-10.8557
▁상위	-10.8557
▁사회당	-10.8558
▁고조되	-10.8558
▁분경	-10.8562
▁찾았다	-10.8563
▁전체가	-10.8563
▁해방	-10.8564
돼있다	-10.8565
▁쉬운	-10.8566
▁넣었다	-10.8566
▁투표율	-10.8566
▁눈물	-10.8567
▁열리	-10.8568
▁않았습니다	-10.8569
▁실패한	-10.8572
▁맞았다	-10.8574
안토니오	-10.8577
▁호주에서	-10.858
▁급증	-10.8581
▁전파	-10.8582
roh	-10.8584
▁열기	-10.8586
▁미리	-10.8586
▁인치	-10.8587
▁치를	-10.8587
▁매수	-10.8591
▁불가능하다	-10.8592
▁기원	-10.8593
li	-10.8594
났다	-10.8595
▁by	-10.8605
느	-10.8608
궁	-10.8615
▁써	-10.8615
▁클린턴에	-10.8616
균	-10.8622
동맹	-10.8627
콘	-10.8629
홀	-10.863
▁롤	-10.8633
신문	-10.864
▁느	-10.8645
▁약속한	-10.8647
▁인공	-10.8648
노조	-10.8651
▁대원들	-10.8652
▁표시했다	-10.8652
▁전시회	-10.8656
하러	-10.8662
▁재고	-10.8663
▁부위	-10.8672
▁보유한	-10.8674
자료	-10.8676
내용	-10.8678
▁활동에	-10.8683
군의	-10.8683
돼있	-10.8689
보드	-10.869
▁갔	-10.8695
▁서한	-10.8697
용으로	-10.8698
▁일시적	-10.8698
▁초에	-10.8701
▁피랍	-10.8706
▁기울	-10.8707
▁중상	-10.8707
▁과격	-10.8712
▁군중들	-10.8713
▁출신인	-10.8715
▁사진들	-10.8729
▁응답	-10.873
▁촉진	-10.8737
▁계획이라	-10.8745
ist	-10.8747
룬	-10.8749
▁아시아에서	-10.8749
▁코스	-10.8755
▁만났	-10.8758
점으로	-10.876
▁일단	-10.876
▁du	-10.8767
▁소유한	-10.877
▁의원들이	-10.877
▁기각	-10.8773
버트	-10.8778
▁sc	-10.8779
▁물러나	-10.8782
▁벗	-10.8791
▁풍	-10.8797
▁한명	-10.8801
징	-10.8802
▁오스카	-10.8804
▁휩쓸	-10.8805
▁금메달	-10.8807
▁굉장	-10.8807
▁브루니	-10.8807
▁억만장자	-10.8807
껏	-10.8807
▁그린피스	-10.8807
▁흘러	-10.8807
▁애완동물	-10.8807
▁카지노	-10.8807
▁돌아다니	-10.8807
▁좌파	-10.8807
▁넬슨	-10.8807
▁브레이크	-10.8808
▁면접	-10.8808
▁동굴	-10.8808
▁포획	-10.8808
▁하원의장	-10.8808
▁재배	-10.8808
▁보조금	-10.8809
▁자발적	-10.8809
▁예선	-10.8809
▁장벽	-10.8809
▁자동차업계	-10.881
▁처형	-10.881
▁연말	-10.881
▁텐트	-10.881
어질	-10.881
▁배심원단	-10.8811
▁생명체	-10.8811
▁대테러	-10.8811
▁유골	-10.8812
▁승점	-10.8812
▁발령	-10.8812
▁금속	-10.8812
▁외쳤다	-10.8812
▁교내	-10.8812
▁반환	-10.8813
▁밀러	-10.8813
▁펄	-10.8815
▁회계	-10.8816
▁느낀다	-10.882
▁인도분	-10.882
▁반등	-10.8823
▁미셀	-10.8825
▁아민	-10.8826
▁남미	-10.8829
▁진행중	-10.8829
▁무산	-10.8832
▁준장	-10.8833
▁제보	-10.8833
▁소화	-10.8834
▁체포되었다	-10.8835
▁화제	-10.8835
▁구단	-10.8838
▁케이시	-10.8839
해달라	-10.884
tion	-10.8842
▁받아들이지	-10.8844
▁국회에서	-10.8846
▁버지니아주	-10.8846
시티	-10.885
▁먼지	-10.885
▁당일	-10.8851
▁진행될	-10.8856
▁캔	-10.8858
▁여단	-10.8859
▁한달	-10.8861
▁로드	-10.8862
▁오바마에	-10.8863
▁장성	-10.8864
▁알라	-10.8873
▁세가	-10.8873
▁컵	-10.8875
▁거래됐다	-10.8877
▁비치	-10.8881
▁성분	-10.8887
▁확인되	-10.8891
▁휘	-10.8894
▁과제	-10.8897
▁배가	-10.8898
▁포트	-10.8898
멜	-10.8901
▁단장	-10.8902
척	-10.8906
▁국경지역	-10.8908
칼	-10.891
▁피어	-10.891
▁대안	-10.8911
▁위안	-10.8916
▁정부군과	-10.8929
인데	-10.8931
▁홍	-10.8934
▁수사에	-10.8937
tv	-10.8944
▁간부	-10.8947
▁재해	-10.895
▁바지	-10.895
▁폭로	-10.8951
▁걸려	-10.8953
▁찾아내	-10.8955
▁취하고	-10.8958
▁성명서	-10.8959
▁시청자들	-10.8959
▁시일	-10.8963
▁유지할	-10.8967
▁목적이	-10.897
스탄	-10.897
▁문제점	-10.8973
▁법적으로	-10.8973
▁취소했다	-10.8974
▁발이	-10.8976
▁자녀들	-10.8978
▁쳐	-10.8981
▁세트에서	-10.899
회에서	-10.8992
▁리오	-10.8998
▁차지한	-10.9
▁떨어졌	-10.9005
▁민주적	-10.9015
▁무시하	-10.9016
▁그들에게	-10.9021
mb	-10.9027
마르	-10.9028
▁할지	-10.9029
▁안나	-10.9032
위원	-10.9033
▁당황	-10.9036
▁즐기는	-10.9041
▁장교	-10.9051
▁개발한	-10.9052
▁얻었	-10.9061
▁못하다	-10.9064
▁좌절	-10.9065
▁알려	-10.9066
핑	-10.9074
▁위치해	-10.9075
▁뉴저지	-10.9075
하겠	-10.9077
▁강에	-10.9082
▁병사들이	-10.9083
▁투명	-10.9085
▁apec	-10.9085
▁human	-10.9085
▁규칙	-10.9085
▁밝혀냈다	-10.9085
▁슬픔	-10.9085
▁원자바오	-10.9085
▁크로아티아	-10.9085
▁호날두	-10.9085
▁침묵	-10.9085
▁바하마	-10.9085
▁스튜디오	-10.9085
▁피츠버그	-10.9085
▁fifa	-10.9085
▁감바	-10.9086
▁낭비	-10.9086
▁참배	-10.9087
▁불황	-10.9087
▁요르단강	-10.9087
▁설정	-10.9088
▁절감	-10.9088
▁소총	-10.9088
축구연맹	-10.9088
▁도핑	-10.9088
▁추천	-10.9088
▁구호품	-10.9088
▁돌아온	-10.9088
▁정밀	-10.9088
▁마찰	-10.9089
▁치른	-10.909
▁aig	-10.909
▁금융시장	-10.909
▁다행히	-10.9091
▁시카고에서	-10.9091
▁일어나지	-10.9092
▁네바다주	-10.9095
▁기념식	-10.9095
▁위축	-10.9095
▁다가오	-10.9096
▁중단됐다	-10.9097
▁단식	-10.91
▁지나치	-10.9102
▁헐	-10.9102
▁김씨	-10.9103
▁해석	-10.9104
▁its	-10.9108
▁첫날	-10.9109
▁pro	-10.9109
▁거친	-10.9109
▁폴슨	-10.9109
▁사라진	-10.911
▁끝났다	-10.911
▁느끼는	-10.911
▁라울	-10.9113
성에	-10.9114
▁조씨	-10.9116
▁이르기	-10.9117
▁풀어	-10.9117
▁news	-10.9118
▁출연해	-10.9118
▁않습니다	-10.9121
▁번지	-10.9123
▁나체	-10.9123
▁경비원	-10.9125
▁대비해	-10.9125
▁비극	-10.9126
▁유명하다	-10.9128
장비	-10.9129
▁근처에	-10.9129
▁방문에	-10.9129
▁인정받	-10.913
▁카르	-10.9131
▁업무를	-10.9132
▁개설	-10.9133
▁언급한	-10.9137
▁대선에	-10.9144
▁해왔다	-10.9144
라면	-10.9147
▁이라크인	-10.9147
▁프레	-10.9148
▁강간	-10.9149
▁지지자들에게	-10.915
▁절도	-10.9151
▁가족들에게	-10.9153
스크	-10.9159
안보	-10.9161
ance	-10.9164
▁처분	-10.9164
때까지	-10.9176
▁입어	-10.9176
▁총리직	-10.9178
▁회원들	-10.9178
▁장기적	-10.9179
안전	-10.9181
▁쓰는	-10.9181
투표	-10.9189
▁확인하기	-10.9191
맥	-10.9191
▁독재자	-10.9192
앤	-10.9196
▁강타한	-10.9197
자동차	-10.9198
▁중심가	-10.9202
타운	-10.9204
▁사살했다	-10.9205
▁멜	-10.9206
▁강화할	-10.9206
▁위협에	-10.9208
▁이른다	-10.9211
되었는데	-10.9212
▁유기	-10.9213
련	-10.9215
▁플	-10.9215
▁선박이	-10.9216
▁내리는	-10.9217
▁배심원	-10.922
▁탄도	-10.9221
▁것이기	-10.9222
▁활동이	-10.9226
▁계속할	-10.9228
업체들	-10.9233
학과	-10.9234
▁폭력사태로	-10.9236
▁탐험	-10.9237
▁입수한	-10.9237
▁날이	-10.9238
사고	-10.9243
▁남아있	-10.9247
▁모리	-10.9248
타임	-10.9248
▁공무원들	-10.9248
▁결함	-10.9249
▁신원이	-10.9252
▁들어와	-10.9267
▁웨이	-10.9271
세포	-10.9284
▁fr	-10.9291
텐	-10.9292
▁민주당이	-10.9295
바르	-10.9305
▁자카르타	-10.9305
▁프로그램이	-10.9306
▁장소에서	-10.9307
혔	-10.9315
▁맞은	-10.9316
▁년형	-10.9317
▁추락한	-10.932
▁전쟁에서	-10.9328
사이트	-10.933
▁압	-10.9332
▁우승자	-10.9334
▁입원했다	-10.9346
▁가즈니	-10.9349
벨트	-10.9355
▁잃어버	-10.9366
▁알바니아	-10.9369
훈	-10.937
▁처방	-10.937
▁high	-10.9371
▁기준금리	-10.9371
▁디트로이트	-10.9371
▁머리카락	-10.9371
▁산타클로스	-10.9371
▁애틀랜타	-10.9371
▁엘리베이터	-10.9371
▁식민지	-10.9371
▁유수프	-10.9371
▁크레이그	-10.9371
▁say	-10.9371
▁바바라	-10.9371
▁휴스턴	-10.9371
▁멸종위기	-10.9371
▁히드로	-10.9371
▁마사지	-10.9371
▁스콧	-10.9371
▁놀랄	-10.9371
▁포셋	-10.9372
▁모험	-10.9372
▁적응	-10.9372
▁대선주자	-10.9372
▁논문	-10.9373
호가	-10.9373
▁군사작전	-10.9373
▁레이저	-10.9374
▁마침	-10.9375
▁새겨	-10.9375
▁권위	-10.9376
▁창조	-10.9376
▁계속하고	-10.9377
▁모집	-10.9377
▁탐사선	-10.9379
▁매출	-10.938
bush	-10.938
▁선원들	-10.938
▁휴식	-10.9381
▁복수	-10.9381
▁역대	-10.9381
▁입력	-10.9382
▁편안	-10.9384
▁주주들	-10.9384
▁환수	-10.9385
▁구경	-10.9387
▁받아들였다	-10.9387
▁참여했다	-10.9388
▁대령	-10.9389
▁밀어	-10.9389
▁국가인	-10.939
▁모았다	-10.9391
▁예선전	-10.9392
▁작용	-10.9393
▁헬	-10.9405
▁주소	-10.9406
▁예정되어	-10.9407
▁남성과	-10.9411
▁원주민	-10.9411
▁경찰청	-10.9412
▁폭격기	-10.9412
▁태우고	-10.9413
▁여아	-10.9414
▁녹화	-10.9414
▁남쪽으로	-10.9414
▁생존자들	-10.9415
▁그곳에서	-10.9417
▁탈레반과	-10.9417
▁개최된	-10.9418
▁시계	-10.9424
▁통해서	-10.9425
▁여야	-10.9426
▁차원에서	-10.9429
▁착용하	-10.9433
▁인도주의적	-10.9436
▁발달	-10.9437
▁have	-10.9437
▁그곳에	-10.9437
▁선적	-10.9442
▁데비	-10.9443
▁대회에	-10.9446
부를	-10.9447
슬리	-10.9448
스카	-10.9448
▁클로	-10.9453
▁바닥에	-10.9454
▁연구가	-10.9457
▁레이더	-10.9458
im	-10.9459
▁특별히	-10.9464
치고	-10.9467
▁근무하	-10.9467
▁구호단체	-10.9468
연구	-10.947
▁중반	-10.9472
디스	-10.9476
기때문에	-10.9476
▁수년	-10.9477
캐	-10.9489
▁결승전	-10.9489
▁집회에	-10.949
▁제이	-10.949
▁이송됐다	-10.9496
세계	-10.9497
베르	-10.9498
▁군중	-10.95
▁중계	-10.9501
원으로	-10.9504
▁러시아와	-10.9505
쟁	-10.9507
▁움직임이	-10.9513
▁있으	-10.9521
ah	-10.9522
▁남쪽	-10.9534
▁최고위	-10.9534
▁받으	-10.9534
▁들었	-10.9542
▁내게	-10.9551
능	-10.9551
▁강화하고	-10.9559
▁조치로	-10.9559
▁조국	-10.9559
▁예술가	-10.956
▁축출	-10.9561
▁어린이들이	-10.9567
▁돌입	-10.957
▁피살	-10.9582
▁변호사들	-10.9583
tic	-10.9589
▁상원에서	-10.9592
▁종식	-10.9592
▁한다면	-10.9593
카드	-10.9594
룸	-10.9597
▁제작된	-10.9598
▁교전이	-10.9607
럴	-10.9613
▁취하지	-10.9619
▁소속의	-10.9624
▁요청한	-10.9629
▁묵	-10.9632
무라	-10.9635
▁주당	-10.9635
▁재활	-10.9636
▁열렸	-10.9637
▁적자	-10.964
▁남기	-10.9641
의원	-10.9647
▁이슬람교	-10.9648
▁장악하	-10.9648
▁엘리	-10.965
▁모으	-10.9652
▁넘겨	-10.9653
▁조절	-10.9657
사이	-10.9658
▁빼	-10.966
▁줬다	-10.9661
▁세탁	-10.9663
▁세속주의	-10.9663
▁military	-10.9665
▁people	-10.9665
▁듣지	-10.9665
▁땅에	-10.9665
▁떨어질	-10.9665
▁마케팅	-10.9665
▁베어스턴스	-10.9665
▁베탕쿠르	-10.9665
▁브리트니	-10.9665
▁비즈니스	-10.9665
▁시애틀	-10.9665
▁아칸소	-10.9665
▁에르도간	-10.9665
▁에스토니아	-10.9665
▁테러지원국	-10.9665
▁텔레비전	-10.9665
▁고등법원	-10.9665
▁맥도날드	-10.9665
▁소탕작전	-10.9665
▁bank	-10.9666
▁슈퍼볼	-10.9666
▁숨겨	-10.9666
▁워렌	-10.9666
▁고릴라	-10.9666
▁영광	-10.9666
▁기획	-10.9666
▁남녀	-10.9667
▁금년	-10.9667
▁만여명	-10.9667
▁호송	-10.9667
▁집필	-10.9667
▁반체제	-10.9668
▁종합	-10.9668
▁영감	-10.9668
▁가죽	-10.9669
▁소유권	-10.9671
▁서약	-10.9672
▁분야에	-10.9674
만으로	-10.9674
▁나와즈	-10.9677
▁대폭	-10.9677
▁줄이는	-10.9678
▁식수	-10.9679
▁다이애나비	-10.9681
▁여유	-10.9681
▁동성	-10.9683
▁번역	-10.9685
▁가져다	-10.9685
▁갈라	-10.9686
▁알렌	-10.9689
▁공안	-10.969
▁제공하기	-10.969
▁겪었다	-10.9692
▁버전	-10.9693
▁하산	-10.9695
▁효율적	-10.9695
▁적극	-10.9695
▁인도네시아에서	-10.9697
▁앞선	-10.9697
▁잡았다	-10.9697
▁살이	-10.9697
▁주말에	-10.9699
▁복지	-10.97
▁방문객들	-10.9701
▁있겠	-10.9702
▁자정	-10.9703
▁교육부	-10.9704
▁좋아한다	-10.9704
▁슛	-10.9705
▁참사	-10.9707
▁내용에	-10.9715
▁이어졌다	-10.9716
▁편집	-10.9717
시에서	-10.9717
▁해명	-10.9719
▁붕괴된	-10.9726
▁괴한	-10.9728
▁증언했다	-10.973
tu	-10.9733
▁하더라	-10.9733
▁줄리	-10.9734
▁제외하고	-10.974
▁싶어한다	-10.9745
▁자치	-10.9745
ish	-10.9747
▁대우	-10.9749
▁주차	-10.9749
같이	-10.9751
▁기적	-10.9758
▁세관	-10.9759
▁지역이	-10.976
스테	-10.9761
▁프라	-10.9765
▁명령했다	-10.9767
▁당의	-10.9768
▁확신했다	-10.9772
▁의자	-10.9775
▁심사	-10.9777
▁칼라	-10.9777
▁청년	-10.9777
▁앙	-10.9777
▁보호하고	-10.9777
▁제일	-10.9784
▁유지하기	-10.9785
킹	-10.9785
▁추락했다	-10.9787
홍	-10.9789
구조	-10.9799
▁파손됐다	-10.9799
▁회수	-10.9801
▁lo	-10.9802
▁일대	-10.9802
▁틀	-10.9804
ant	-10.9805
▁자랑	-10.9809
▁vi	-10.981
▁비만	-10.9811
▁기울이	-10.9813
▁te	-10.9815
코프	-10.9818
▁보좌관들	-10.9821
▁오리	-10.9822
▁기술이	-10.9826
▁국회의원들	-10.9827
▁있었기	-10.9827
▁충	-10.9828
▁월스트리트	-10.9834
▁다수의	-10.9835
▁펼쳐	-10.9836
▁제공하고	-10.9838
▁관광지	-10.9838
▁파키스탄에	-10.9847
▁선출된	-10.9848
▁안전에	-10.9853
당했다	-10.9858
▁논의했다	-10.9861
베리	-10.9863
워드	-10.9866
받은	-10.9867
▁원하지	-10.987
▁밝히기	-10.9872
▁전하고	-10.9875
▁부르는	-10.9878
기금	-10.9879
▁분쟁이	-10.9884
워진	-10.9884
▁명단에	-10.9889
▁형태로	-10.989
▁sk	-10.9891
▁ho	-10.9891
▁지수가	-10.9905
▁경제학자들	-10.9906
럼	-10.9912
▁내고	-10.9912
▁사회에	-10.9913
▁이민자들	-10.9914
▁일으키는	-10.9915
hi	-10.9923
city	-10.9924
▁멈추	-10.9925
▁조직원	-10.9932
▁인접	-10.9935
▁금연	-10.9943
ba	-10.9943
▁재선	-10.9944
fa	-10.9949
▁손자	-10.995
널	-10.9952
탁	-10.9953
▁참가하	-10.9955
렘	-10.996
▁음료	-10.9962
▁피고인	-10.9966
있었다	-10.9967
▁득표	-10.9967
▁po	-10.9967
▁지도자들과	-10.9967
딜	-10.9968
눌	-10.9968
▁구호물품	-10.9968
▁끊임없	-10.9968
▁뉴욕타임스	-10.9968
▁뮌헨	-10.9968
▁부적절	-10.9968
▁썼다	-10.9968
▁애니메이션	-10.9968
▁유니세프	-10.9968
▁침팬지	-10.9968
▁칸다하르	-10.9968
▁타협	-10.9968
▁펭귄	-10.9968
▁포괄적	-10.9968
▁항생제	-10.9968
▁헬리콥터	-10.9968
▁흰색	-10.9968
렁	-10.9968
▁유조선	-10.9968
▁맥케인	-10.9968
▁착취	-10.9968
▁크로커	-10.9968
▁오렌지	-10.9968
▁되돌아	-10.9968
▁첩보	-10.9968
▁대한민국	-10.9968
▁press	-10.9968
▁모로코	-10.9968
▁브루스	-10.9968
▁혈액	-10.9968
▁양키스	-10.9969
two	-10.9969
▁몸값	-10.9969
▁운반	-10.9969
▁수만명	-10.997
▁lg	-10.997
▁저택	-10.997
▁폭등	-10.997
▁개발에	-10.9971
▁패리스	-10.9971
▁버튼	-10.9971
▁하얀	-10.9972
▁현지경찰	-10.9972
▁풍선	-10.9972
라인	-10.9974
▁보수당	-10.9976
▁유적지	-10.9976
▁개념	-10.9977
▁장거리	-10.9977
▁추문	-10.9977
▁들어온	-10.9977
▁모래	-10.9978
▁가택	-10.9979
▁영원	-10.9979
▁미만	-10.9981
▁지구에서	-10.9981
▁포위	-10.9982
te	-10.9983
▁mm	-10.9984
▁코피	-10.9984
▁명칭	-10.9986
▁연방준비제도이사회	-10.9987
▁부유	-10.9989
▁타이어	-10.9991
▁모르겠다	-10.9992
▁가자지구에서	-10.9993
▁적십자사	-10.9993
▁묘지	-10.9994
▁미치지	-10.9998
▁사용하기	-10.9999
▁마을에	-10.9999
▁입학	-10.9999
▁관점에서	-11
▁분실	-11.0003
▁기권	-11.0004
▁장기간	-11.0006
▁여기서	-11.0008
▁인명	-11.0008
▁주장했지만	-11.0009
▁트레	-11.0012
▁실어	-11.0013
▁중령	-11.0016
▁양성	-11.0016
▁재판에	-11.0017
▁약품	-11.0018
▁주류	-11.0021
▁기리	-11.0024
▁차원	-11.0033
해준	-11.0034
▁지낸	-11.0035
차이	-11.0035
▁원치	-11.0037
▁판결에	-11.0046
▁성지	-11.005
▁usa	-11.0053
▁나아가	-11.0054
▁행사에서	-11.0057
▁재판이	-11.0059
▁시작될	-11.0062
▁중심에	-11.0063
▁모스	-11.0063
▁지원하기	-11.0063
▁탈북자	-11.0065
레나	-11.007
농	-11.0071
▁보낸다	-11.0075
▁기자들이	-11.008
나갈	-11.0081
스에서	-11.0086
▁동맹국들	-11.0089
생활	-11.0096
▁확인된	-11.0097
납	-11.0097
▁몽	-11.0099
자리	-11.01
▁결정이	-11.01
▁제트	-11.0102
ff	-11.0103
▁복장	-11.0105
▁위장	-11.0106
김	-11.0106
▁자금이	-11.0109
▁중심부	-11.011
▁물어	-11.0115
▁생산하는	-11.0119
▁통신사	-11.012
▁죽었다	-11.0124
▁or	-11.0127
회견에서	-11.0128
▁납	-11.0133
▁정치적으로	-11.0134
▁부문에서	-11.014
우드	-11.0141
▁렌	-11.0147
▁평양에서	-11.0149
▁투자자	-11.0149
▁검토하	-11.0149
▁사용한다	-11.015
▁내리고	-11.0154
▁클라	-11.0155
▁라인	-11.0155
▁흥미	-11.0157
▁하도록	-11.0158
베스	-11.016
▁있거	-11.0162
▁파이	-11.0163
▁독재	-11.0164
▁물었다	-11.0166
▁말에	-11.0166
▁사람과	-11.0167
▁친척	-11.0169
▁명시	-11.0191
ld	-11.0193
po	-11.0198
▁처음에	-11.02
▁시사	-11.0201
▁이해할	-11.0202
▁바닥	-11.0203
▁요청할	-11.0205
▁공정	-11.0206
▁지속되	-11.0207
▁전설	-11.0208
▁ga	-11.0209
느냐	-11.0212
▁대통령으로	-11.0218
▁클레	-11.022
▁당했	-11.0227
리오	-11.0227
▁농민	-11.0228
▁죽이	-11.0233
▁쏟아	-11.0241
▁기술자	-11.0241
▁사육	-11.0253
▁필립	-11.0258
▁추구	-11.0259
▁전략적	-11.0262
이기도	-11.0262
▁가자지구에	-11.0266
▁강행	-11.0267
▁파파라치	-11.0271
잡	-11.0272
▁오클라호마	-11.0272
▁보호하는	-11.0275
▁피닉스	-11.0276
왈	-11.0276
ho	-11.0277
▁아랍에미리트	-11.028
겔	-11.028
밍	-11.028
▁wfp	-11.028
▁걷는	-11.028
▁골든글로브	-11.028
▁마라도나	-11.028
▁버냉키	-11.028
▁불렀다	-11.028
▁상관없	-11.028
▁야스쿠니	-11.028
▁오케스트라	-11.028
▁일으켜	-11.028
▁좋게	-11.028
▁클루니	-11.028
▁트라볼타	-11.028
▁티셔츠	-11.028
▁평화협상	-11.028
▁덕분에	-11.028
▁되풀이	-11.028
▁캔자스	-11.028
▁다운로드	-11.028
▁secretary	-11.028
▁니케이	-11.028
▁셰이크	-11.028
▁봉	-11.028
▁lpga	-11.028
▁잔혹	-11.028
▁election	-11.0281
▁진흙	-11.0281
▁페이스북	-11.0281
▁여자아이	-11.0281
▁부양책	-11.0281
▁국방위원장	-11.0281
▁칭찬	-11.0281
▁무소속	-11.0281
▁트로피	-11.0281
▁오늘밤	-11.0282
▁연극	-11.0282
▁워너	-11.0282
▁불평	-11.0283
▁광부들	-11.0283
▁대략	-11.0284
▁어두운	-11.0285
▁조짐	-11.0285
▁모터	-11.0285
▁타결	-11.0287
▁소비자들이	-11.0287
▁현행	-11.0288
▁극단주의자들	-11.0289
▁평소	-11.029
▁유행	-11.029
▁거둔	-11.029
▁머리에	-11.0291
▁대기업	-11.0292
▁정교	-11.0292
▁설문	-11.0293
▁불교	-11.0293
▁엘바	-11.0293
보고	-11.0293
▁세인트	-11.0294
▁풀려났다	-11.0296
▁쏘	-11.0296
▁연임	-11.0298
▁파문	-11.0298
▁공조	-11.0299
▁동전	-11.0299
▁기후변화	-11.0301
▁가축	-11.0304
▁격리	-11.0304
▁줄여	-11.0305
▁참석해	-11.0306
▁week	-11.0306
치료	-11.0306
▁투표할	-11.0307
▁참여하지	-11.0308
▁정오	-11.0308
▁유용	-11.0311
▁예상보다	-11.0311
▁비유	-11.0312
▁호화	-11.0313
▁이룩	-11.0313
▁비가	-11.0316
▁우리베	-11.0318
▁전염	-11.0319
▁아이티	-11.0322
ver	-11.0323
▁시판	-11.0323
▁채권	-11.0324
▁억제	-11.0327
▁경제의	-11.0329
▁성공회	-11.0329
▁반미	-11.0332
▁시달리고	-11.0333
▁친환경	-11.0337
▁실력	-11.0341
▁과시	-11.0347
후보	-11.0347
▁비교해	-11.0347
▁개조	-11.0355
▁자크	-11.0358
▁파손되	-11.0359
▁사랑하는	-11.0373
▁닐	-11.0374
▁선정됐다	-11.0381
▁과정에	-11.0381
▁프레드	-11.0384
▁보내기	-11.0386
▁안되	-11.0386
▁명에서	-11.0387
▁도주	-11.0389
▁끄	-11.0391
▁적당	-11.0392
▁끝나는	-11.0392
▁건수	-11.0399
▁투기	-11.0401
▁정신과	-11.0405
▁들어가는	-11.0408
▁주교	-11.0409
▁프랑스와	-11.0413
▁헤어	-11.0415
▁장악	-11.0421
▁설치된	-11.0424
▁신도	-11.0427
군은	-11.0429
▁열정	-11.0436
▁가기	-11.0437
법안	-11.0437
▁장착	-11.044
▁의원들에게	-11.0441
▁떼	-11.0442
▁관리자	-11.0444
pe	-11.0448
▁특이	-11.0452
▁청소년들	-11.0452
▁선언한	-11.0462
▁선장	-11.047
▁아내와	-11.0476
min	-11.0477
▁국민이	-11.0493
부분	-11.0498
아나	-11.05
▁단계에	-11.0501
▁국무장관이	-11.0501
▁리버	-11.0502
시켜야	-11.0505
▁학생들과	-11.0505
▁힐튼이	-11.0506
하에	-11.0508
여부	-11.0508
▁나타난	-11.0509
▁거부하	-11.0511
▁어머니와	-11.0512
었으	-11.0514
선거	-11.0516
어진	-11.0517
▁중단하고	-11.0518
▁의장이	-11.0518
▁발의	-11.0523
▁유대	-11.0524
▁수요일에	-11.0529
▁개최되	-11.0534
ut	-11.0535
▁년전	-11.0536
레이크	-11.0539
▁지연되	-11.0543
▁높아	-11.0547
▁없애	-11.055
▁우주인	-11.0552
▁시까지	-11.0552
▁통일	-11.0552
▁가족에게	-11.0554
▁이뤄	-11.0555
▁급락	-11.0558
▁세부	-11.0561
요원	-11.0568
▁지방의	-11.057
▁디스	-11.0574
▁아바	-11.0579
▁단기	-11.0581
▁지르	-11.0585
▁실업	-11.0586
▁갖기	-11.0587
퀴	-11.0591
▁루이지애나	-11.0592
▁안된다	-11.0594
꾼	-11.0595
촌	-11.0596
점에서	-11.0596
▁살아가	-11.0597
▁물러	-11.0598
▁부통령이	-11.0601
팩	-11.0603
▁court	-11.0603
▁washington	-11.0603
▁광우병	-11.0603
▁뉴캐슬	-11.0603
▁느꼈다	-11.0603
▁당나귀	-11.0603
▁동유럽	-11.0603
▁매머드	-11.0603
▁무너져	-11.0603
▁베이루트	-11.0603
▁싶은	-11.0603
▁국가주석	-11.0603
▁몸무게	-11.0603
마누엘	-11.0603
▁무너진	-11.0603
▁중산층	-11.0603
▁글래스고	-11.0603
▁예언자	-11.0603
▁영부인	-11.0603
▁지중해	-11.0603
▁린제이	-11.0603
▁세비야	-11.0603
▁효력	-11.0603
▁수십억	-11.0603
▁맞붙	-11.0604
▁정해지지	-11.0604
▁바꿔	-11.0604
▁출범	-11.0604
▁왕복선	-11.0604
▁요새	-11.0604
▁높아졌다	-11.0604
▁농담	-11.0604
▁닉슨	-11.0604
▁공군기지	-11.0604
▁레논	-11.0604
▁가속화	-11.0605
▁예배	-11.0605
▁허블	-11.0605
▁스카이	-11.0605
▁참여하는	-11.0606
▁학위	-11.0607
▁출국	-11.0608
▁피닉스호	-11.0609
▁식물	-11.0609
▁추출	-11.0609
▁병역	-11.0609
▁종양	-11.061
▁아이돌	-11.061
▁위협했다	-11.0611
▁제패	-11.0611
▁천문학자들	-11.0611
▁기습	-11.0611
▁감량	-11.0612
▁기름	-11.0612
▁폐기물	-11.0612
▁제프리	-11.0613
▁우연	-11.0613
▁상반기	-11.0613
▁코너	-11.0614
▁우방	-11.0616
▁air	-11.0616
▁소란	-11.0616
▁신병	-11.0616
▁부른	-11.0617
▁공학	-11.0619
문화	-11.0621
▁감원	-11.0621
▁알려주	-11.0621
▁성경	-11.0621
▁줄이고	-11.0622
▁페르	-11.0623
▁서울에	-11.0624
▁강연	-11.0624
▁도청	-11.0624
▁시경	-11.0631
▁보도한	-11.0631
▁정상회의	-11.0631
▁공세	-11.0633
▁가결	-11.0633
사진	-11.0634
▁그라운드	-11.0635
▁한쪽	-11.0637
▁초래	-11.0637
▁패한	-11.064
▁나란	-11.0641
▁시위자	-11.0643
▁전송	-11.0644
▁전례	-11.0652
▁연방수사국	-11.0653
ine	-11.0656
▁국회에	-11.0656
▁라이프	-11.0657
▁life	-11.0659
베키	-11.0661
▁파일	-11.0662
▁면적	-11.0663
려진	-11.0667
▁킨	-11.0668
▁서명했다	-11.0669
ting	-11.0669
▁꾸	-11.0669
바리	-11.0669
논	-11.0676
▁리서치	-11.0677
▁발리	-11.0681
▁만여	-11.0684
달라	-11.0687
▁조사하기	-11.0689
받고	-11.0689
▁구상	-11.0696
▁이어질	-11.0698
▁수용할	-11.0704
▁무장대원들	-11.0705
▁돌리	-11.0707
까요	-11.0713
▁확보했다	-11.0715
▁걸었다	-11.0717
▁과장	-11.0723
▁he	-11.0727
▁아시	-11.0734
▁인기가	-11.0735
▁전범	-11.0735
▁모스크바에서	-11.0736
투어	-11.0737
▁경영자	-11.0739
▁인정하	-11.074
▁출전한	-11.0741
▁문자	-11.0742
▁시점에서	-11.0745
▁정보국	-11.0758
떼	-11.076
▁생성	-11.0761
▁탈출했다	-11.0763
▁참가했다	-11.0763
개혁	-11.0765
▁대답했다	-11.0771
▁총격으로	-11.0774
▁여사와	-11.0784
▁올리고	-11.0788
총장	-11.0789
▁증인	-11.079
▁주장이	-11.0791
▁느낌	-11.0797
▁당국과	-11.0802
▁목요일에	-11.0805
▁싸우	-11.0805
▁오픈에서	-11.0807
▁총선에	-11.0809
▁인도에서	-11.0815
▁노력에	-11.082
나라	-11.082
작업	-11.0823
▁경우에	-11.0823
▁새해	-11.0826
았던	-11.0827
▁prim	-11.0829
▁사임했다	-11.0829
▁만명에	-11.0831
▁요구에	-11.0832
한국	-11.0833
▁시스템이	-11.0833
▁ban	-11.0837
▁동영상에	-11.0839
▁관리인	-11.0839
▁자신에	-11.084
▁혼란에	-11.084
▁독일에서	-11.0843
연대	-11.0845
▁안드레	-11.085
▁전체에	-11.0852
▁런던에	-11.0853
▁협상단	-11.0856
▁주인이	-11.0857
첼	-11.0863
웠	-11.0863
▁판결했다	-11.0868
▁pi	-11.0869
▁꺼	-11.0869
▁적대	-11.087
▁thi	-11.0872
▁공판	-11.0872
▁기간에	-11.0874
▁뉴델리	-11.0876
▁수명	-11.0876
▁참석하기	-11.0879
▁엄	-11.088
▁짜	-11.0882
▁지지도	-11.0885
▁중에서	-11.0885
▁산책	-11.0885
개의	-11.0889
▁시설에	-11.0892
▁나타났	-11.0897
▁남편과	-11.0899
▁산악	-11.09
전쟁	-11.0904
▁비난한	-11.0905
▁뉴욕에	-11.0908
일라	-11.0909
▁제안한	-11.091
▁언	-11.0911
▁때로	-11.0917
▁확고	-11.0924
▁승객들이	-11.0928
▁구제금융	-11.0928
▁플래	-11.0931
▁소방관	-11.0933
융	-11.0934
▁벌어졌	-11.0935
▁도널드	-11.0936
▁마흐무드	-11.0936
▁상파울루	-11.0936
▁세계보건기구	-11.0936
▁스튜어트	-11.0936
▁우주정거장	-11.0936
▁잃지	-11.0936
▁커뮤니티	-11.0936
▁제니퍼	-11.0936
▁카자흐스탄	-11.0936
▁그루지아	-11.0936
▁대주교	-11.0936
▁안락사	-11.0936
▁피아노	-11.0936
▁부작용	-11.0936
▁교과서	-11.0936
▁호르몬	-11.0936
▁퇴장	-11.0936
▁취득	-11.0937
▁불쾌	-11.0937
▁흐름	-11.0937
▁쇼핑몰	-11.0937
▁침투	-11.0937
▁신용카드	-11.0937
▁둘째	-11.0937
▁양육권	-11.0938
▁풍경	-11.0938
▁학년	-11.0938
▁조셉	-11.0938
▁절약	-11.0938
▁몰래	-11.0939
▁할아버지	-11.0939
book	-11.0939
▁밤새	-11.0939
▁연방법원	-11.094
▁복권	-11.094
▁may	-11.094
▁인디아나	-11.094
▁침수	-11.0941
▁토양	-11.0941
▁상원의원에	-11.0942
▁지닌	-11.0943
▁임박	-11.0943
▁정보기관	-11.0944
▁토론토	-11.0944
▁구단주	-11.0948
▁책정	-11.0948
▁약혼	-11.0948
▁확실하지	-11.0949
▁이례적	-11.095
▁교량	-11.0952
▁문신	-11.0952
▁입구	-11.0954
▁버진	-11.0955
▁재발	-11.0955
ight	-11.0956
▁일축했다	-11.0956
▁군복	-11.0956
▁차림	-11.0957
▁뒤집	-11.0958
▁요트	-11.0959
▁man	-11.096
데르	-11.096
▁회부	-11.0961
▁있었는지	-11.0963
▁지하드	-11.0963
▁인체	-11.0963
▁조속	-11.0964
▁방치	-11.0964
▁inter	-11.0965
바로	-11.0969
▁돈이	-11.0969
▁팜	-11.0969
▁군데	-11.0971
▁감시단	-11.0972
▁연이	-11.0973
▁불화	-11.0974
said	-11.0978
▁넣어	-11.0978
▁사업가	-11.098
제품	-11.0983
▁발부	-11.0983
▁채우	-11.0988
▁거주지	-11.099
▁에디	-11.099
▁취급	-11.0991
▁지키기	-11.0994
▁광대	-11.0996
▁우드	-11.1003
▁가서	-11.1003
▁낙	-11.1005
▁비평	-11.1008
mp	-11.1008
▁액	-11.1011
▁주가가	-11.1013
▁자선	-11.1014
▁현안	-11.1016
받아	-11.1017
▁끈	-11.1019
르게	-11.1026
▁향했다	-11.1031
▁하트	-11.1033
▁노스	-11.1034
▁해외에서	-11.1039
▁알았다	-11.1039
▁포기했다	-11.1043
pr	-11.1045
▁부장관	-11.1049
▁이베이	-11.1049
롤	-11.1052
▁들리	-11.1055
▁경제학자	-11.1057
▁공격수	-11.1057
▁벌어지고	-11.1058
파르	-11.1059
▁시작해	-11.1061
지구	-11.1062
▁말하면서	-11.1066
▁조사단	-11.1072
▁미소	-11.1076
▁표현했다	-11.1077
▁연기했다	-11.1078
커스	-11.1084
▁관계자들과	-11.1089
답	-11.1093
▁환경에	-11.1093
솔	-11.11
ring	-11.1103
특	-11.1106
힘	-11.1107
시즌	-11.1108
tri	-11.1114
회의에서	-11.1115
▁취소됐다	-11.1119
▁과학적	-11.112
학회	-11.1131
▁우리들	-11.1134
머리	-11.1146
ft	-11.1153
▁ad	-11.1154
두고	-11.1156
▁균	-11.1158
▁재무	-11.116
▁반대한다	-11.1165
▁북부지역	-11.1168
부의	-11.1174
유지	-11.1175
전선	-11.1175
▁가져	-11.1183
리어	-11.1186
▁금지하고	-11.1186
▁판사들	-11.119
▁내장	-11.1191
▁자회담에	-11.1196
국들	-11.1197
▁지니	-11.1201
▁났다	-11.1202
▁인자	-11.1202
▁벽에	-11.1204
▁모술	-11.1205
▁나가는	-11.1207
▁시작되는	-11.1209
▁제공한다	-11.1213
▁부장	-11.1213
구역	-11.1223
▁고수	-11.1225
▁고무	-11.1226
▁만료	-11.1229
체제	-11.1232
▁보호할	-11.1234
기위해	-11.1238
▁콩	-11.124
▁선고받	-11.124
▁도시에	-11.1241
▁오해	-11.1241
▁드는	-11.1243
▁가고	-11.1248
▁지냈	-11.1249
▁나섰	-11.1251
▁동일	-11.1254
렌스	-11.1254
▁말로	-11.126
▁배급	-11.126
디는	-11.1261
▁펜실베니아	-11.1262
▁켄터키	-11.1266
▁란	-11.1266
일정	-11.127
효	-11.1273
▁아프가니스탄에	-11.1274
▁메릴랜드	-11.1276
▁국왕이	-11.1277
쇠	-11.1279
▁진행됐다	-11.128
▁모니터	-11.128
냉	-11.1281
▁재확인	-11.1281
▁냄새	-11.1281
▁매코맥	-11.1281
▁맥코맥	-11.1281
▁메사추세츠	-11.1281
▁미드필더	-11.1281
▁박테리아	-11.1281
▁뱅크	-11.1281
▁벤자민	-11.1281
▁블룸버그	-11.1281
▁슈워제네거	-11.1281
▁스피처	-11.1281
▁악영향	-11.1281
▁알자와히리	-11.1281
▁암스트롱	-11.1281
▁오징어	-11.1281
▁이르렀다	-11.1281
▁캠벨	-11.1281
▁케르비엘	-11.1281
▁황우석	-11.1281
▁afp	-11.1281
▁그루지야	-11.1281
▁이스탄불	-11.1281
▁친선경기	-11.1281
▁동계올림픽	-11.1281
▁모바일	-11.1281
▁흥행	-11.1281
▁닥터	-11.1281
▁아스널	-11.1281
▁자서전	-11.1281
▁도덕적	-11.1281
▁무하메드	-11.1281
▁속옷	-11.1281
▁침착	-11.1281
▁침범	-11.1282
▁계곡	-11.1282
▁종신형	-11.1282
▁아마존	-11.1282
▁kim	-11.1282
▁두뇌	-11.1282
▁생겨	-11.1282
▁지뢰	-11.1282
▁태양열	-11.1282
▁녹색	-11.1283
▁아담	-11.1283
▁취약	-11.1283
▁대피령	-11.1283
▁요격	-11.1283
▁블록	-11.1283
▁환경보호	-11.1283
▁wto	-11.1283
부가	-11.1283
ard	-11.1284
▁선데이	-11.1284
▁불안감	-11.1285
▁근교	-11.1285
▁국가안보	-11.1285
▁몸집	-11.1286
▁아끼	-11.1286
▁어디서	-11.1286
▁품질	-11.1286
▁총알	-11.1287
▁수비수	-11.1287
▁언제든	-11.1287
▁장려	-11.1287
▁피셔	-11.1287
▁외교관계	-11.1288
▁범죄에	-11.1288
▁성행위	-11.1288
▁교토	-11.1288
ger	-11.1289
▁여년	-11.1289
▁수백만명	-11.1289
▁항복	-11.1289
▁홈페이지에	-11.129
▁뚫	-11.1291
▁원격	-11.1291
▁조종	-11.1292
▁결의안에	-11.1293
▁계열사	-11.1293
▁배제하지	-11.1293
▁사법부	-11.1293
▁용서	-11.1293
▁후퇴	-11.1294
▁같았다	-11.1294
▁정체	-11.1295
▁정통	-11.1295
▁닷	-11.1296
▁지속될	-11.1298
몬드	-11.1299
▁솔	-11.13
▁활기	-11.1302
▁결장	-11.1303
▁시범	-11.1303
▁염	-11.1303
▁산악지역	-11.1304
▁댄	-11.1305
▁구형	-11.1307
께	-11.1307
▁감면	-11.1309
▁만찬	-11.131
▁지속된	-11.131
▁운하	-11.1312
nt	-11.1313
▁비행기에	-11.1315
▁붐	-11.1316
▁크리스티나	-11.1316
▁빵	-11.1316
▁혼다	-11.1318
▁것일	-11.1319
▁비방	-11.1319
▁신문에	-11.132
▁미시간	-11.1322
▁시장과	-11.1322
▁내정자	-11.1328
소한	-11.1329
▁확실하다	-11.133
▁페리	-11.1331
▁군부대	-11.1332
▁가난	-11.1334
▁단서	-11.1335
▁시위대와	-11.1337
▁고려해	-11.1341
▁산소	-11.1342
▁장악한	-11.1343
▁청소	-11.1344
▁상아	-11.1347
▁가정에	-11.135
▁성전	-11.1352
▁캐리	-11.1354
▁부진	-11.1355
▁시작되었다	-11.1356
▁전년	-11.136
▁포기하지	-11.1368
▁확인해	-11.1369
지오	-11.137
종일	-11.137
아누	-11.1371
▁일째	-11.1372
▁엠	-11.1373
ea	-11.1374
▁숨기	-11.1374
son	-11.1379
▁사회주의	-11.1385
▁이브	-11.14
조정	-11.1402
▁통로	-11.1402
▁기반으로	-11.1403
▁반군과	-11.1409
▁제공해	-11.141
▁환영했다	-11.1412
을때	-11.1412
▁말했지만	-11.1415
▁밝혀내	-11.1418
비오	-11.142
▁돌보	-11.1424
▁미친	-11.1425
ber	-11.1433
▁수비	-11.1436
▁여자들	-11.1438
▁car	-11.1438
▁포함된다	-11.1444
va	-11.1446
▁물리치	-11.1449
▁헤이	-11.1452
▁발견되	-11.1454
버릴	-11.1455
굴	-11.1456
찌	-11.1458
▁공원에서	-11.1458
ke	-11.146
웬	-11.146
▁하려	-11.1461
빛	-11.1461
▁증진	-11.1476
▁카라	-11.1486
▁사이트에	-11.1487
▁저가	-11.1489
동물	-11.1496
▁에스	-11.1498
▁경찰서에	-11.1501
▁제작자들	-11.1506
▁나라들	-11.1506
▁그레	-11.151
able	-11.1516
미국	-11.1522
▁급진	-11.1524
▁로라	-11.1531
▁기다려	-11.1537
▁구하기	-11.1541
▁ge	-11.1541
▁미치	-11.155
▁부근에	-11.1551
▁쌍	-11.1553
▁고고학자들	-11.1553
▁염려	-11.1554
▁감옥	-11.1554
▁얻는	-11.1555
▁영국에	-11.1556
▁폰	-11.1556
▁정책이	-11.1561
▁면에서	-11.1561
▁신의	-11.1572
ga	-11.1577
▁본국	-11.1578
▁원자력	-11.1582
▁건물에서	-11.1583
지대	-11.1585
ster	-11.1585
야만	-11.1586
▁일상적	-11.1593
▁주거	-11.1596
▁사무실에서	-11.1599
▁기소했다	-11.16
▁기한	-11.1602
▁승자	-11.1609
스틴	-11.1614
▁측면	-11.1615
ze	-11.1615
▁위스콘신	-11.1621
▁전달한	-11.163
▁사원에서	-11.1631
▁매사추세츠	-11.1631
픈	-11.1632
▁후보들이	-11.1634
쾌	-11.1635
튜	-11.1636
▁인정한	-11.1637
▁치솟	-11.1637
틱	-11.1638
▁캐롤	-11.1638
긋	-11.1638
▁bmw	-11.1638
▁research	-11.1638
▁구스마오	-11.1638
▁김계관	-11.1638
▁로스앤젤레스	-11.1638
▁모하마드	-11.1638
▁브리티시	-11.1638
▁사형집행	-11.1638
▁애틀란타	-11.1638
▁자메이카	-11.1638
▁캠퍼스	-11.1638
▁캥거루	-11.1638
▁크누트	-11.1638
▁탈라바니	-11.1638
▁퍼트레이어스	-11.1638
▁펼칠	-11.1638
▁프로듀서	-11.1638
▁피추시킨	-11.1638
▁깃발	-11.1638
▁바쿠바	-11.1638
▁수하르토	-11.1638
▁김선일	-11.1638
▁비영리	-11.1638
▁북동쪽	-11.1638
▁중서부	-11.1638
▁미망인	-11.1639
▁러셀	-11.1639
▁경기도	-11.1639
▁연휴	-11.1639
▁탔다	-11.1639
▁노왁	-11.1639
▁공략	-11.1639
▁구조조정	-11.1639
▁전염병	-11.164
▁면밀	-11.164
▁펠리	-11.164
▁여배우	-11.164
▁격추	-11.164
▁유효	-11.164
▁무엇인지	-11.164
▁평범	-11.164
▁그때	-11.164
▁아닐	-11.164
▁간섭	-11.1641
▁감추	-11.1641
▁you	-11.1641
▁쿠르드족	-11.1641
▁사마라	-11.1641
▁밀림	-11.1641
▁페리노	-11.1641
▁막고	-11.1641
▁뜨거	-11.1641
▁보상금	-11.1642
▁eta	-11.1642
▁제이미	-11.1642
▁공백	-11.1642
▁교황청	-11.1642
▁탄약	-11.1642
▁해킹	-11.1642
▁주치의	-11.1643
▁재벌	-11.1643
▁발목	-11.1644
▁제라드	-11.1644
▁머피	-11.1644
▁손님	-11.1646
▁조치에	-11.1646
▁지침	-11.1647
▁타입	-11.1647
▁곡물	-11.1648
▁도망	-11.1648
lee	-11.1648
▁구타	-11.1649
▁세균	-11.1649
▁볼튼	-11.165
▁제인	-11.1651
▁중단하라	-11.1651
▁난동	-11.1652
▁북서쪽	-11.1652
놨다	-11.1652
건물	-11.1653
ny	-11.1653
▁순찰대	-11.1654
▁대피소	-11.1655
▁off	-11.1657
▁종파	-11.1657
▁아카데미상	-11.1659
▁제트기	-11.166
해진다	-11.1662
▁가르치	-11.1663
직원	-11.1664
▁안심	-11.1666
▁인계	-11.1667
▁대도시	-11.1667
▁속한	-11.1672
▁남았다	-11.1672
▁범죄자들	-11.1673
▁만든다	-11.1673
부문	-11.1673
▁공개되지	-11.1673
▁수행하	-11.1678
▁기내	-11.1679
▁지문	-11.1687
▁자리잡고	-11.169
▁메달	-11.1691
▁미술	-11.1694
▁그럼	-11.1696
▁갖는다	-11.1699
▁생겼다	-11.17
▁바퀴	-11.1701
▁릭	-11.1701
▁듀	-11.1702
▁지질	-11.1702
▁링	-11.1703
▁관료	-11.1704
하르	-11.1705
▁일방적	-11.1708
▁연관된	-11.1708
▁확인하는	-11.1709
디어	-11.1709
▁q	-11.1709
▁흐르	-11.1711
▁지났	-11.1719
▁배로	-11.1719
▁양상	-11.1719
▁내년에	-11.172
▁감옥에	-11.1724
▁전반적으로	-11.1725
▁환영한다	-11.1726
▁팬들에게	-11.1726
▁칩	-11.1726
▁반대했다	-11.1727
ef	-11.1729
▁도시로	-11.1732
▁당원	-11.1732
ors	-11.174
▁카페인	-11.1745
▁사제	-11.1752
▁아이들과	-11.1754
▁보여주기	-11.1759
▁묘	-11.176
▁모의	-11.1762
▁춤	-11.1763
▁추진하고	-11.1766
우주	-11.1767
▁미국에서는	-11.1768
▁든다	-11.1769
▁중국인	-11.177
▁칼로	-11.1772
▁떨어지는	-11.1774
중이다	-11.1779
▁둔화	-11.1782
▁영국으로	-11.1784
▁포착	-11.1793
ick	-11.1804
▁페이스	-11.1805
오르	-11.181
▁핀	-11.1812
▁피해지역	-11.1814
시키지	-11.1816
펜	-11.1829
▁다음과	-11.183
셰	-11.183
▁걸려있	-11.183
핀	-11.1831
▁거치	-11.1834
▁목격한	-11.1834
▁경제와	-11.1837
▁브라	-11.1838
▁강진	-11.1843
▁시도한	-11.1846
월드	-11.1847
리노	-11.1847
▁국민에게	-11.1853
▁무장괴한	-11.1855
▁기어	-11.1858
▁이라크전에	-11.1862
▁제품에	-11.1863
▁취임한	-11.1866
▁시리아와	-11.1867
▁강사	-11.1869
▁통상	-11.1869
▁흔적	-11.1876
▁폐쇄했다	-11.188
▁대변	-11.1882
▁목소리로	-11.1882
▁부상당	-11.1883
▁장소로	-11.1897
ai	-11.1899
▁국회의	-11.19
▁광장에	-11.1911
▁선거전	-11.1917
득	-11.1928
국민	-11.1934
▁국가들과	-11.1936
▁납치범들	-11.194
▁ab	-11.1943
직에서	-11.1947
▁기숙사	-11.1949
▁아이들에게	-11.1954
▁곤	-11.1962
▁부탁	-11.1963
▁관중	-11.197
▁봤	-11.1976
▁비극적	-11.1984
▁시작되	-11.1988
▁암호	-11.1991
▁도쿄에서	-11.1995
줘	-11.1996
▁소식통들	-11.1996
▁자회담에서	-11.1996
▁스탠	-11.1997
▁당연	-11.1999
▁델타	-11.2002
▁고속	-11.2002
잡이	-11.2003
▁덧붙	-11.2003
▁올리는	-11.2003
▁부자	-11.2004
▁교회에서	-11.2008
▁머무	-11.2008
▁화염	-11.2009
믹	-11.2009
▁consumer	-11.2009
▁group	-11.2009
▁service	-11.2009
▁놀랐다	-11.2009
▁만장일치	-11.2009
▁브로드웨이	-11.2009
▁색깔	-11.2009
▁에탄올	-11.2009
▁여동생	-11.2009
▁웨스트버지니아	-11.2009
▁클리블랜드	-11.2009
▁꿈이	-11.2009
▁뉴멕시코	-11.2009
▁댈러스	-11.2009
▁승용차	-11.2009
▁오키나와	-11.2009
▁저작권	-11.2009
▁흡수	-11.2009
▁세실리아	-11.2009
▁냉동	-11.2009
▁이벤트	-11.2009
▁도메인	-11.2009
▁셔츠	-11.2009
▁빈민가	-11.2009
▁하리리	-11.2009
▁습관	-11.2009
▁방사능	-11.2009
▁앙겔	-11.2009
▁수하물	-11.2009
▁압승	-11.2009
▁유혹	-11.2009
▁빨간색	-11.2009
▁염두	-11.201
▁디스커버리호	-11.201
▁메뉴	-11.201
▁결백	-11.201
▁코스피	-11.2011
▁호킹	-11.2011
▁영입	-11.2011
▁완공	-11.2011
▁부회장	-11.2011
▁유혈	-11.2011
▁외교정책	-11.2011
▁멈	-11.2011
▁맹세	-11.2011
▁자치구	-11.2012
▁홈런	-11.2012
▁control	-11.2012
▁악재	-11.2012
▁글렌	-11.2012
▁화석	-11.2012
▁건립	-11.2012
▁제재조치	-11.2013
▁다짐	-11.2013
▁에이미	-11.2013
▁스위	-11.2014
▁행방	-11.2014
▁소령	-11.2015
▁허위	-11.2015
▁안겨	-11.2015
▁존드로	-11.2016
▁개헌	-11.2017
▁피플	-11.2017
▁야심	-11.2017
▁독점	-11.2018
▁시도했다	-11.2018
혐의로	-11.202
▁경위	-11.202
▁왔습니다	-11.2021
▁기초	-11.2021
▁외출	-11.2022
▁담겨있다	-11.2022
▁소감	-11.2023
▁자매	-11.2023
▁필리스	-11.2024
▁퇴직	-11.2024
▁표결	-11.2025
▁오락	-11.2026
▁공방	-11.2027
▁비준	-11.2027
▁되었습니다	-11.2028
▁지표	-11.2028
▁실내	-11.2029
▁유포	-11.2029
▁납치됐다	-11.2029
▁걸프	-11.203
▁늘어났다	-11.203
▁국정	-11.203
▁터미널	-11.2032
cc	-11.2032
▁안건	-11.2032
▁대담	-11.2033
▁올릴	-11.2033
▁리더	-11.2034
▁자회사	-11.2034
▁필립스	-11.2035
▁것이냐	-11.2036
▁달아	-11.2039
▁분출	-11.2039
▁정한	-11.204
▁도왔다	-11.2042
▁상원의원직	-11.2043
▁판매되	-11.2043
▁상정	-11.2043
▁구제안	-11.2045
▁놓았다	-11.2045
▁하버드	-11.2045
▁하는데	-11.2046
▁back	-11.2047
▁납치했다	-11.2048
▁장착된	-11.2049
▁운동가	-11.2049
▁리타	-11.2051
버린	-11.2053
▁매트	-11.2055
▁유아	-11.2056
▁박수	-11.2056
▁맹	-11.2057
▁만나기	-11.2057
▁조카	-11.2057
▁mi	-11.2059
▁iss	-11.2059
▁방사	-11.2065
티스	-11.2066
▁보았다	-11.2066
▁당장	-11.2066
▁정비	-11.2067
▁위법	-11.207
▁여개	-11.2072
▁아버지와	-11.2072
▁정당이	-11.2072
▁상태였다	-11.2074
▁fe	-11.2074
▁했을	-11.2075
▁자행	-11.2076
▁템	-11.2079
▁딜러	-11.208
▁지미	-11.2088
▁수잔	-11.2089
▁상의	-11.209
▁민주당과	-11.2091
▁윤리	-11.2093
▁에이	-11.2094
▁부인과	-11.2094
▁암살된	-11.2101
▁지목했다	-11.2102
공장	-11.2106
▁고백	-11.211
▁만들었	-11.2116
공항	-11.2117
▁블로그	-11.212
▁감독상	-11.212
▁용인	-11.2121
▁적대적	-11.2124
▁집안	-11.213
▁악의	-11.2131
▁우주에서	-11.2146
▁제약	-11.2148
▁오를	-11.2151
▁반도	-11.2151
▁치고	-11.2152
▁pf	-11.2154
▁웹사이트에서	-11.2155
▁맡아	-11.2155
▁워터	-11.2164
▁여진이	-11.2167
▁임명된	-11.2174
▁불안한	-11.2183
▁여행객들	-11.2185
▁인적	-11.2186
▁가려	-11.2188
▁이탈	-11.2192
▁파악하	-11.2196
▁개최지	-11.2196
▁얼음이	-11.2196
▁내주	-11.2199
최	-11.22
▁들어있는	-11.2204
섭	-11.2211
제로	-11.2211
멘	-11.2212
▁모르고	-11.2214
▁주지사와	-11.2214
탑	-11.2216
▁다음으로	-11.2221
▁미트	-11.2223
하우스	-11.2224
▁공격할	-11.223
장과	-11.2233
▁임신한	-11.2238
▁개발도상국	-11.2242
▁의혹에	-11.2243
▁괜찮	-11.2244
▁후보에게	-11.2247
▁북한에서	-11.2247
▁후보자들	-11.2256
▁실직	-11.2257
▁극적	-11.2265
▁물리	-11.2266
▁중국인들	-11.2267
▁미군측	-11.2268
시스	-11.2286
▁갑작스	-11.2287
▁가격에	-11.229
▁차가	-11.2292
▁서있	-11.2294
▁사업에	-11.2297
bi	-11.2297
▁전설적	-11.2298
▁진행할	-11.23
▁br	-11.2303
▁나라에서	-11.2305
▁정보가	-11.2306
▁많지	-11.2306
▁녹아	-11.2314
전략	-11.2316
▁없기	-11.2319
과정에서	-11.2321
세스	-11.2323
▁세라	-11.2325
▁선보	-11.2327
▁밀수	-11.2329
▁일으켰	-11.2336
▁재미	-11.2338
▁조사했다	-11.2341
▁상업적	-11.2344
자들과	-11.235
▁모욕	-11.2351
▁펼쳤	-11.2359
▁업	-11.236
프레	-11.2361
▁박탈	-11.2362
프리	-11.2363
▁불가피	-11.2364
▁이끌었	-11.2368
▁케이	-11.2369
▁미화	-11.2373
▁데뷔	-11.2382
▁정부에서	-11.2384
▁결의	-11.2386
ext	-11.2386
▁흉	-11.2391
렬	-11.2391
▁연령	-11.2392
삭	-11.2393
▁끌려	-11.2393
▁내셔널	-11.2393
▁market	-11.2393
▁securit	-11.2393
▁ufo	-11.2393
▁과테말라	-11.2393
▁기쁨	-11.2393
▁꿈을	-11.2393
▁넘어섰다	-11.2393
▁높였다	-11.2393
▁두개골	-11.2393
▁따돌리	-11.2393
▁리얼리티	-11.2393
▁마호메트	-11.2393
▁엔터테인먼트	-11.2393
▁올바른	-11.2393
▁정동영	-11.2393
▁조코비치	-11.2393
▁초등학교	-11.2393
▁촛불	-11.2393
▁토마토	-11.2393
▁퍼레이드	-11.2393
▁bbk	-11.2393
▁united	-11.2393
▁당분간	-11.2393
▁싱가폴	-11.2393
▁좌익	-11.2393
▁제네바	-11.2393
▁최우수	-11.2393
▁콜레라	-11.2393
▁뉴욕증시	-11.2393
▁수족관	-11.2393
▁call	-11.2393
▁링컨	-11.2393
▁다뤄	-11.2393
▁가볍	-11.2393
▁대지진	-11.2394
▁겁니다	-11.2394
▁신용위기	-11.2394
▁결렬	-11.2394
▁힌두교	-11.2394
▁투데이	-11.2394
▁비평가들	-11.2394
▁혼합	-11.2394
▁타이완	-11.2394
▁빠질	-11.2395
▁홀랜드	-11.2395
▁후계자	-11.2395
▁코미디언	-11.2395
▁과잉	-11.2395
▁face	-11.2395
▁비공개	-11.2395
▁워커	-11.2395
▁영구	-11.2395
▁보석금	-11.2396
▁호주오픈	-11.2396
▁설교	-11.2396
▁삼림	-11.2396
▁노리에가	-11.2396
▁신념	-11.2396
▁광경	-11.2397
▁검진	-11.2397
▁격분	-11.2397
▁suv	-11.2397
▁이정인	-11.2397
▁초대형	-11.2397
▁국영방송	-11.2397
▁영역	-11.2398
▁태양계	-11.2398
▁포스터	-11.2398
▁권유	-11.2399
▁벌금형	-11.2399
▁계단	-11.24
▁유예	-11.24
▁천억원	-11.24
▁데니스	-11.2401
▁보수파	-11.2401
▁신고했다	-11.2404
다소	-11.2404
▁재생	-11.2405
▁공통	-11.2406
▁시사회	-11.2408
▁여성에게	-11.2408
▁전대통령	-11.241
▁닭	-11.2411
▁호흡기	-11.2411
▁보류	-11.2411
▁더이상	-11.2411
▁얼리	-11.2412
▁사우스	-11.2412
▁zan	-11.2412
▁맡게	-11.2412
해졌	-11.2414
▁빨간	-11.2415
▁번영	-11.2416
▁노동력	-11.2417
▁시술	-11.2418
▁장난	-11.242
▁발견돼	-11.2422
▁야간	-11.2423
▁최상	-11.2423
▁불가피하다	-11.2423
▁정상적으로	-11.2424
▁이루어	-11.2424
▁투표권	-11.2425
▁단백질	-11.2425
▁중장	-11.2426
▁자유당	-11.2427
▁확인한	-11.2432
▁후보작	-11.2433
▁입장권	-11.2435
▁체인	-11.2435
▁우파	-11.2437
▁down	-11.244
▁논의하고	-11.2447
▁러시아에서	-11.245
▁강화했다	-11.245
▁사이즈	-11.245
▁결승에서	-11.2454
▁후임자	-11.2455
▁봐	-11.2455
▁잡혀있	-11.2462
▁계층	-11.2463
▁심정	-11.2463
▁마련했다	-11.2464
▁맞이하	-11.2466
▁내로	-11.2474
tor	-11.2476
과학	-11.2482
▁was	-11.2484
▁기관들	-11.2486
▁관해서	-11.249
▁흔들리	-11.2493
▁경찰들	-11.2497
▁친구들과	-11.2503
단이	-11.2505
▁진행하는	-11.2506
▁계획한	-11.2509
▁붙이	-11.2509
▁리사	-11.2513
▁제기한	-11.2513
▁백악관에	-11.2517
▁무엇이	-11.252
▁감자	-11.2521
▁코커스에서	-11.2522
▁움직임에	-11.2522
▁나르	-11.2524
율이	-11.2525
▁하나이다	-11.2529
▁폭발했다	-11.253
하자는	-11.2532
▁일정이	-11.2532
▁su	-11.2534
▁방한	-11.2541
해져	-11.2544
▁톱	-11.2544
▁중유	-11.2547
▁재판소	-11.255
▁mar	-11.255
▁식으로	-11.255
▁내리기	-11.2551
▁홀에서	-11.2552
▁수의사	-11.2554
임에	-11.2555
▁여러분들	-11.2556
▁나갔다	-11.2556
▁컨	-11.2558
▁개국이	-11.256
▁하겠다	-11.2563
▁칠	-11.2565
▁미수	-11.2571
▁수반과	-11.2571
▁hd	-11.2573
▁금지하는	-11.2576
▁주자	-11.2581
▁공격하는	-11.2583
to	-11.2586
▁알리기	-11.2587
▁방문이	-11.2592
▁fire	-11.2594
▁여행사	-11.2595
졌습니다	-11.2597
ii	-11.26
응	-11.2601
▁거래가	-11.2601
▁앤더슨	-11.2601
▁주민이	-11.2602
▁기자들과	-11.2606
피크	-11.2606
컴	-11.2612
묘	-11.2614
하일	-11.2616
촉	-11.2616
돈	-11.2618
떨어진	-11.2618
▁제조사	-11.262
테러	-11.2621
▁방문했	-11.2621
▁일년	-11.2622
io	-11.2623
주택	-11.2626
▁초과	-11.2639
▁요한	-11.2639
▁파르	-11.2647
▁개헌안	-11.2647
▁에바	-11.265
▁임원	-11.2652
▁주사	-11.2667
▁관심사	-11.2675
▁오지	-11.2676
▁주문했다	-11.2678
▁부부의	-11.2682
▁전인	-11.2683
병력	-11.2684
▁대리	-11.2687
▁갇혀	-11.2689
▁시작하기	-11.269
▁끝내	-11.2693
▁각료	-11.2701
져야	-11.2702
▁파키스탄이	-11.2704
▁편집자	-11.2708
▁오고	-11.271
▁덕	-11.2712
수단	-11.2714
▁선택한	-11.2717
▁마련하기	-11.2718
모어	-11.2721
▁개막식	-11.2722
데일	-11.2723
▁복합	-11.2724
▁덴버	-11.2725
퍼스	-11.2725
▁줄기	-11.2726
푸르	-11.2738
▁석방했다	-11.2739
▁노동부	-11.2739
▁치명적	-11.2743
▁법정에	-11.2747
▁방문객	-11.275
▁올렸	-11.276
텍	-11.2762
▁바탕	-11.2764
▁조달	-11.2772
▁호흡	-11.2775
▁전미	-11.2776
▁대원	-11.2777
▁통신과	-11.2777
▁차량은	-11.2778
▁구조대원	-11.278
티드	-11.2783
▁홈페이지	-11.2783
롬	-11.2784
▁america	-11.2785
▁중동평화	-11.2788
▁천억	-11.2788
흘	-11.2789
▁콜린	-11.279
▁health	-11.2793
▁nfl	-11.2793
▁pakistan	-11.2793
▁갤럭시	-11.2793
▁곤돌라	-11.2793
▁국회의사당	-11.2793
▁농작물	-11.2793
▁닌텐도	-11.2793
▁돕고	-11.2793
▁동남아시아	-11.2793
▁로맨틱	-11.2793
▁얀코비치	-11.2793
▁엉덩이	-11.2793
▁엔데버호	-11.2793
▁조선중앙통신	-11.2793
▁집무실	-11.2793
▁짝짓기	-11.2793
▁카라카스	-11.2793
▁터무니	-11.2793
▁내비쳤다	-11.2793
▁루마니아	-11.2793
▁열렬한	-11.2793
▁페널티킥	-11.2793
▁페르난도	-11.2793
겹	-11.2793
▁ftse	-11.2793
▁로페즈	-11.2793
▁카리스마	-11.2793
▁테이블	-11.2793
▁뮤직	-11.2793
▁유태인	-11.2793
▁wild	-11.2793
▁원내대표	-11.2793
▁규명	-11.2793
▁보스니아	-11.2793
▁대중교통	-11.2794
▁make	-11.2794
▁소수민족	-11.2794
▁동점골	-11.2794
▁의료보험	-11.2794
▁결승골	-11.2794
▁office	-11.2794
▁부정선거	-11.2794
▁꾸준	-11.2794
▁검출	-11.2794
▁삼엄	-11.2794
▁티켓	-11.2794
▁열쇠	-11.2795
▁영예	-11.2795
▁관광산업	-11.2795
▁울머	-11.2795
▁프린스	-11.2795
▁연합뉴스	-11.2795
▁기둥	-11.2796
▁검찰총장	-11.2796
▁세번째	-11.2797
▁사찰	-11.2797
▁응원	-11.2797
▁깜	-11.2797
▁표적이	-11.2797
▁관행	-11.2798
▁소방관들	-11.2799
▁온천	-11.2799
▁저격	-11.28
▁연구조사	-11.28
▁도착했을	-11.28
▁심장병	-11.2801
▁면허	-11.2801
▁동행	-11.2801
▁매사추세츠주	-11.2801
▁지칭	-11.2801
▁지폐	-11.2801
▁바이오	-11.2801
군과	-11.2802
former	-11.2802
▁루스	-11.2802
라니	-11.2803
▁억압	-11.2803
▁바스크	-11.2803
▁낙관적	-11.2803
▁외각	-11.2803
▁숨지게	-11.2803
▁세레나	-11.2804
▁대학살	-11.2804
▁헌신	-11.2804
▁책임감	-11.2804
▁하는지	-11.2805
▁발작	-11.2805
▁폭풍우	-11.2806
디오	-11.2806
▁agenc	-11.2807
▁비자금	-11.2808
▁남겼다	-11.2808
▁무너졌다	-11.2809
▁신비	-11.281
▁공부	-11.2811
어졌다	-11.2811
▁풍자	-11.2812
▁하락했	-11.2812
▁과실	-11.2812
▁버크	-11.2813
▁삼았다	-11.2813
▁조업	-11.2814
▁악화될	-11.2817
▁대승	-11.2821
▁국면	-11.2822
▁get	-11.2822
▁국민당	-11.2822
▁호우	-11.2824
▁소아과	-11.2825
▁초래할	-11.283
▁행운	-11.283
▁현직	-11.2831
세요	-11.2834
▁하원에서	-11.2835
▁어선	-11.2835
▁투수	-11.2835
▁누드	-11.2836
▁단체에	-11.2837
▁필수	-11.2839
▁샘	-11.2841
▁지명자	-11.2841
▁많았다	-11.2842
▁감행했다	-11.2842
▁넘어서	-11.2843
▁si	-11.2844
▁유입	-11.2846
▁석상	-11.2846
▁등장하	-11.2846
▁당원들	-11.2847
▁년째	-11.2849
▁제프	-11.285
ls	-11.285
▁ke	-11.2853
▁람	-11.2853
▁빗	-11.2854
▁달에	-11.2855
▁덩어리	-11.2855
▁경선이	-11.286
▁도로에	-11.2864
준다	-11.2864
▁범죄자	-11.2867
▁모닝	-11.2868
▁페이	-11.287
▁번식	-11.2871
▁줄어	-11.2873
▁이룬	-11.2877
▁대처하기	-11.2877
▁움직	-11.2879
▁찬사	-11.288
▁걸스	-11.288
▁물질이	-11.2883
▁지도자로	-11.2885
▁이끌었다	-11.2886
▁괴	-11.2886
▁위기로	-11.2887
▁입원한	-11.2888
▁무혐의	-11.2891
▁전당	-11.2893
트릭	-11.2898
▁포기할	-11.2899
▁감기	-11.2901
▁방콕에서	-11.2901
론자들	-11.2902
▁어려워	-11.2907
▁측에	-11.2907
▁구입한	-11.2911
▁잡기	-11.2912
▁유명인사	-11.2914
코르	-11.2916
▁그날	-11.2917
▁지정된	-11.2917
헤르	-11.2918
▁줄어들었다	-11.2918
▁와서	-11.2919
시기	-11.292
▁안다	-11.2922
ner	-11.2927
▁돌입했다	-11.293
ical	-11.2931
▁팔려	-11.2931
▁발생하기	-11.2932
▁길에	-11.2932
▁베를린에서	-11.2935
▁사무소	-11.2939
▁비전	-11.2939
노프	-11.294
▁험	-11.2942
▁파괴됐다	-11.2944
▁행한	-11.2949
▁클리	-11.2953
▁거라고	-11.2954
▁분기에	-11.2958
▁문화적	-11.2961
▁퍼지	-11.2967
▁첸	-11.2967
▁수감됐다	-11.2969
▁활동하	-11.297
게이트	-11.297
라이트	-11.2971
▁지구로	-11.2971
▁말하지	-11.2973
▁어디	-11.2973
▁협정에	-11.2974
▁관광객이	-11.2977
방법	-11.2977
▁탑	-11.2979
▁국경지역에	-11.2981
▁해변에서	-11.2983
▁의견에	-11.2989
▁어디에	-11.2992
ong	-11.2995
▁위치에	-11.3
▁가한	-11.3001
▁발사했다	-11.3003
▁발표하지	-11.3003
▁겐	-11.3008
관계자	-11.301
▁편이	-11.3012
▁정직	-11.3015
▁심화	-11.3017
bc	-11.3018
▁ps	-11.3019
첨	-11.3025
휴	-11.3027
첸	-11.3028
몽	-11.3028
뜨	-11.3029
억	-11.3031
덤	-11.3031
컨	-11.3033
환경	-11.3037
▁정치범	-11.3038
▁star	-11.3039
▁후안	-11.304
▁이어진	-11.3046
스텐	-11.3046
생산	-11.3047
▁사진에	-11.3048
사람	-11.3049
▁시작하는	-11.305
▁비리	-11.305
▁피신	-11.3052
▁될지	-11.3052
▁방송과	-11.3053
▁발생한다	-11.3057
▁사태로	-11.3058
노동	-11.3059
▁이동했다	-11.3059
수준	-11.306
▁동원해	-11.3068
▁시도하	-11.3068
▁정치에	-11.3071
코스	-11.3075
▁제기되	-11.3075
▁강전	-11.3079
연구원	-11.308
▁측에서	-11.3082
빌리	-11.3083
▁유지하는	-11.309
▁제어	-11.3093
▁민주당원들	-11.3096
ns	-11.3096
▁가담	-11.3096
▁공장에서	-11.3098
▁수성	-11.3098
▁공개할	-11.31
▁섬에	-11.31
▁ka	-11.3101
▁예상되는	-11.3103
▁획득했다	-11.3107
▁고려할	-11.3109
▁이상으로	-11.311
▁버렸다	-11.3112
▁자연적	-11.3114
▁살해하겠다	-11.3116
▁기념하기	-11.3116
▁의뢰	-11.3124
세르	-11.3125
▁복용한	-11.3127
way	-11.3129
▁위반한	-11.313
▁뒤에서	-11.3131
▁통근	-11.3131
시키는데	-11.3132
▁최대한	-11.3135
▁침	-11.3138
▁게임에서	-11.3143
▁양곤	-11.3143
▁가하고	-11.3149
▁감염자	-11.315
▁사정	-11.315
▁승리하는	-11.315
▁직면한	-11.3152
▁열려	-11.3152
▁보여준	-11.3159
▁정부로부터	-11.3159
▁무기한	-11.3161
ell	-11.3162
▁맞았	-11.3163
▁증가하	-11.3164
▁미사	-11.3165
▁도움으로	-11.3169
tt	-11.317
▁괴한들	-11.3181
로프	-11.3182
▁루이	-11.3184
▁은행이	-11.3185
것을	-11.3187
전문가	-11.3193
▁공습이	-11.3196
▁나눠	-11.3203
▁경제성장	-11.3204
틸	-11.3206
어져	-11.3209
▁저지르	-11.321
덩	-11.321
▁baghdad	-11.321
▁general	-11.321
▁protest	-11.321
▁wwf	-11.321
▁금융제재	-11.321
▁레젭	-11.321
▁마닐라	-11.321
▁무책임	-11.321
▁무크타다	-11.321
▁버시바우	-11.321
▁베테랑	-11.321
▁브뤼셀	-11.321
▁사카쉬빌리	-11.321
▁아웅산수지	-11.321
▁이데올로기	-11.321
▁집행유예	-11.321
▁추수감사절	-11.321
▁치렀	-11.321
▁카톨릭	-11.321
▁콘크리트	-11.321
▁콜레스테롤	-11.321
▁타블로이드	-11.321
▁폴라로이드	-11.321
▁프리메라리가	-11.321
▁횟수	-11.321
룽	-11.321
윗	-11.321
▁peace	-11.321
▁로널드	-11.321
▁임산부	-11.321
▁재정경제부	-11.321
▁컨퍼런스	-11.321
▁기번스	-11.321
▁오마바	-11.321
▁의구심	-11.321
▁휴양지	-11.321
▁힉스	-11.321
▁횡단	-11.321
▁태어나	-11.321
▁하반기	-11.321
▁economic	-11.321
▁이소연	-11.321
▁주니어	-11.321
▁벨몬트	-11.321
▁아지즈	-11.321
▁평론가들	-11.321
▁issue	-11.321
▁크리켓	-11.321
▁월드시리즈	-11.321
▁페인트	-11.321
▁농촌	-11.321
▁범람	-11.3211
▁가자시티	-11.3211
▁근접	-11.3211
▁와중에	-11.3211
▁나중에	-11.3211
▁번호판	-11.3211
▁소요사태	-11.3211
▁여객선	-11.3211
▁패널	-11.3211
▁동북아	-11.3212
▁호르타	-11.3212
▁배럭	-11.3212
▁평창	-11.3212
▁평결	-11.3212
▁싸울	-11.3212
▁연애	-11.3213
▁총격사건	-11.3214
▁오스틴	-11.3214
▁want	-11.3214
▁동남	-11.3215
▁피델	-11.3215
▁단절	-11.3215
▁정글	-11.3216
▁포격	-11.3216
▁평방	-11.3216
▁union	-11.3216
▁결별	-11.3216
스테이트	-11.3216
▁극심	-11.3217
▁황제	-11.3218
▁chin	-11.3218
돌프	-11.3219
▁본래	-11.3219
▁히트	-11.3219
▁면제	-11.322
▁페퍼	-11.322
▁참전	-11.3221
▁울프	-11.3222
▁스탠리	-11.3222
▁관세	-11.3223
▁철거	-11.3223
▁되면서	-11.3224
▁반격	-11.3224
▁뉴저지주	-11.3225
▁발사된	-11.3225
▁dc	-11.3225
▁천연	-11.3225
느라	-11.3227
▁건조	-11.3227
▁터진	-11.3228
▁구분	-11.3229
▁돌아갔다	-11.323
▁데이트	-11.3231
줘야	-11.3232
▁앙리	-11.3232
▁경찰청장	-11.3233
▁지도력	-11.3234
▁스노	-11.3235
▁안개	-11.3236
▁분양	-11.3237
▁이란에서	-11.3238
▁도와	-11.3238
▁외모	-11.3238
▁상실	-11.3239
▁분명하다	-11.3239
▁두목	-11.3241
▁미군에	-11.3241
▁반란	-11.3241
▁여정	-11.3241
▁참가자	-11.3242
▁가즈니주	-11.3242
▁연예인	-11.3243
▁z	-11.3245
▁선박에	-11.3245
▁문학	-11.3246
▁접근할	-11.3246
▁한국정부	-11.3248
▁만톤	-11.3248
▁애쓰고	-11.3248
▁상징적인	-11.3249
▁도박	-11.3252
▁허리	-11.3254
▁작용할	-11.3254
▁우주비행사들	-11.3254
▁영화로	-11.3256
▁질서	-11.3257
▁작곡가	-11.3258
▁핵문제	-11.3258
iz	-11.3259
▁보수적인	-11.3263
▁열리기	-11.3264
▁열린다	-11.3265
▁까	-11.3268
▁여객기에	-11.3272
▁큐	-11.3273
▁야당의	-11.3276
▁흉기	-11.3277
▁중년	-11.3278
▁미쳤다	-11.3279
▁과일	-11.3279
▁good	-11.328
▁당선된	-11.328
▁심각하다	-11.3285
▁만족한다	-11.3289
▁높이고	-11.3292
▁보아	-11.3298
▁용의	-11.3299
▁의뢰인	-11.3299
▁제안에	-11.33
▁이용자들	-11.3301
레즈	-11.3301
▁거물	-11.3302
자들에	-11.3306
▁개혁안	-11.3307
▁압도	-11.3309
▁끝내고	-11.331
▁별로	-11.3311
되게	-11.3312
작업을	-11.3314
▁work	-11.3314
▁아랍어	-11.3315
▁불과했다	-11.3316
▁독자	-11.3318
▁부수	-11.3321
▁선호	-11.3321
▁증가시키	-11.3322
▁경쟁에서	-11.3324
코트	-11.3324
▁지사	-11.3325
위기	-11.3329
▁저널	-11.3331
▁차지할	-11.3336
▁경의	-11.3344
▁교도	-11.3345
▁도시들	-11.3346
▁충고	-11.3348
aw	-11.335
▁바스라에서	-11.3351
▁수습	-11.3354
▁관여하	-11.3354
죄로	-11.3356
아웃	-11.3357
▁이견	-11.3359
▁방위	-11.3359
▁앤드	-11.336
▁시대에	-11.3361
into	-11.3361
▁태국에서	-11.3364
▁열리고	-11.3365
▁반군에	-11.3372
간다	-11.3376
▁en	-11.3377
▁전임	-11.3379
▁해치	-11.3383
▁로한이	-11.3383
▁배정	-11.3386
▁공격하기	-11.3388
▁결정될	-11.339
▁당하	-11.3394
▁지원한	-11.3398
▁죽을	-11.3398
▁관대	-11.34
▁장관들	-11.3401
pp	-11.3403
장소	-11.3406
▁표기	-11.341
▁펼치고	-11.341
▁군의	-11.341
▁마르코	-11.3414
▁앤더슨은	-11.3414
▁들어가기	-11.3419
▁가두	-11.3421
▁고정	-11.3423
▁마이크로	-11.3425
헤드	-11.3428
▁소방	-11.3432
▁파괴된	-11.3433
▁공직	-11.3436
▁선보였	-11.3438
▁고집	-11.3439
▁이목	-11.3439
▁합의안	-11.3443
▁충돌했다	-11.3444
▁지지율로	-11.3445
▁결승	-11.3451
니에	-11.3451
▁법무	-11.3452
시에	-11.3455
▁플로	-11.3457
▁남지	-11.3458
▁red	-11.3458
▁fi	-11.346
잉	-11.346
마른	-11.3462
어지고	-11.3464
▁판매하는	-11.3465
▁노력으로	-11.3466
교회	-11.3466
즐	-11.3468
오픈	-11.3469
▁정상에	-11.3475
▁글로	-11.3476
▁클럽에서	-11.3479
보고서	-11.3479
▁실려	-11.348
여행	-11.3481
be	-11.3484
▁brit	-11.3493
대책	-11.3494
do	-11.3495
머스	-11.3498
킨스	-11.3499
▁직면해	-11.3503
더미	-11.3504
문서	-11.3515
▁게임에	-11.3518
주재	-11.352
▁명명	-11.3521
▁수퍼대의원	-11.3527
수사	-11.3529
▁ta	-11.3532
▁미국내	-11.354
처리	-11.3545
▁램	-11.3547
▁참모	-11.3551
▁고전	-11.3554
▁만대	-11.3557
▁교착상태	-11.3562
▁차고	-11.3564
▁윤리적	-11.3564
▁관료들	-11.3569
▁강화하기	-11.3569
▁한반도에서	-11.3571
ng	-11.3572
▁놓여	-11.3572
▁이라크인들	-11.3579
발전	-11.3584
▁간다	-11.3584
모토	-11.3585
ship	-11.3591
▁쇼에	-11.3592
▁나갔	-11.3595
▁전선	-11.3596
▁토로	-11.3599
▁학자들	-11.36
▁겪었	-11.3604
▁내기	-11.3605
▁이외	-11.3618
▁물리적	-11.363
▁린다	-11.3631
▁버몬트	-11.3634
▁오만	-11.3635
롭게	-11.364
쁜	-11.364
▁england	-11.3645
▁oecd	-11.3645
▁가톨릭	-11.3645
▁그린스펀	-11.3645
▁급상승	-11.3645
▁낙하산	-11.3645
▁농산물	-11.3645
▁대량살상무기	-11.3645
▁디얄라	-11.3645
▁라왈핀디	-11.3645
▁라우터바흐	-11.3645
▁보건복지부	-11.3645
▁부정부패	-11.3645
▁선거캠페인	-11.3645
▁슈나이더	-11.3645
▁언색호	-11.3645
▁오차범위	-11.3645
▁지구온난화	-11.3645
▁쫓겨	-11.3645
▁카메론	-11.3645
▁테헤란	-11.3645
▁합참의장	-11.3645
돋	-11.3645
▁롱고리아	-11.3645
▁change	-11.3645
▁백화점	-11.3645
▁올랜도	-11.3645
▁유시프	-11.3645
▁퇴역	-11.3645
▁chief	-11.3645
▁클레이코트	-11.3645
▁뒤덮	-11.3645
▁administration	-11.3645
▁death	-11.3645
▁정부청사	-11.3645
▁리더십	-11.3645
파인	-11.3645
▁졸릭	-11.3645
▁떠오르	-11.3645
▁사냥꾼	-11.3645
▁작전에	-11.3645
▁검열	-11.3645
▁싱글	-11.3645
▁살해됐다	-11.3646
▁밀접	-11.3646
▁검시관	-11.3646
▁호킨스	-11.3646
▁불쾌감	-11.3646
▁안젤리	-11.3646
▁무엇인가	-11.3646
▁토끼	-11.3647
▁동맹관계	-11.3647
▁반도체	-11.3647
▁그린랜드	-11.3647
▁일본인들	-11.3647
▁친밀	-11.3647
▁재능	-11.3648
▁최후	-11.3648
▁평생	-11.3648
▁기념품	-11.3648
▁평등	-11.3648
▁보도자료	-11.3648
▁연습	-11.3648
▁난폭	-11.3649
▁아바타	-11.3649
런스	-11.3649
▁증산	-11.3649
▁교역	-11.3649
▁jp	-11.3649
▁활력	-11.365
▁친절	-11.365
▁자유로운	-11.365
▁증오	-11.365
▁싶어하	-11.365
▁팔렸다	-11.3651
▁pre	-11.3652
▁금지령	-11.3652
▁샤론	-11.3652
▁테네시주	-11.3653
▁rights	-11.3653
▁회색	-11.3653
▁선거자금	-11.3654
▁한국전쟁	-11.3654
▁감동	-11.3654
▁추모식	-11.3654
▁잔디	-11.3654
▁변동	-11.3654
▁수년간	-11.3655
▁지나친	-11.3655
▁예금	-11.3655
▁베스트	-11.3656
▁완수	-11.3656
▁미시간주	-11.3656
▁섞	-11.3657
▁라틴	-11.3657
▁없음	-11.3658
▁상표	-11.3658
▁악성	-11.3658
▁베이비	-11.3659
▁사격	-11.3659
길에	-11.3659
▁시몬	-11.366
▁십만	-11.366
▁단호	-11.3661
▁온실	-11.3661
▁액수	-11.3662
▁샤프	-11.3663
▁im	-11.3664
▁태아	-11.3664
▁스파이스	-11.3664
▁태어났다	-11.3664
▁질식	-11.3665
▁노벨상	-11.3665
▁신설	-11.3665
▁참수	-11.3665
▁끌어들이	-11.3672
▁인플루엔자	-11.3673
▁유타	-11.3673
▁피터슨	-11.3674
▁설립자	-11.3674
▁루디	-11.3674
▁ak	-11.3675
▁휩싸였다	-11.3676
▁제조회사	-11.3676
▁이끈	-11.3679
▁본즈	-11.3679
회장	-11.368
▁발사한	-11.368
▁반감	-11.3684
▁가할	-11.3684
▁모였다	-11.3684
▁비율이	-11.3685
▁파업이	-11.3686
▁하라	-11.3686
▁살리	-11.3687
라기	-11.3687
▁피우	-11.3688
▁비행선	-11.3688
▁kt	-11.3689
▁놀이	-11.369
▁독일과	-11.3691
▁자루	-11.3692
것이	-11.3693
▁보호소	-11.3693
벨리	-11.3695
▁양당	-11.3695
▁졸	-11.3695
▁하마스와	-11.3697
▁주정부	-11.3697
▁작품상	-11.3698
▁못하면	-11.3698
▁인파	-11.3699
▁의사당	-11.37
▁경유	-11.37
▁중국정부	-11.3702
▁죄수	-11.3704
▁이민법	-11.3704
▁만들어내	-11.3707
▁꼬	-11.3709
▁들어서	-11.3709
▁주둔군	-11.3709
게임	-11.371
▁금지된	-11.371
▁기여	-11.3711
▁신성	-11.3711
▁토로했다	-11.3712
물질	-11.3713
▁leader	-11.3716
ian	-11.3717
▁that	-11.372
▁이건	-11.372
▁후임으로	-11.3721
▁취해야	-11.3722
▁성사	-11.3722
▁서쪽으로	-11.3724
▁한가지	-11.3725
▁맺었다	-11.3725
주기	-11.3726
▁외계인	-11.3726
▁캄	-11.3729
▁쉐	-11.3729
▁내리지	-11.3732
▁피로	-11.3733
▁월말	-11.3734
▁인물이	-11.3735
▁실종됐다고	-11.3738
▁활	-11.3738
▁켄	-11.3739
▁돌아가는	-11.3741
▁되려	-11.3741
▁일반인들	-11.3746
▁외교관들	-11.3746
▁report	-11.3754
▁서부지역	-11.3756
rs	-11.3762
▁철수시키	-11.3765
▁해준다	-11.3765
▁말했었다	-11.3766
▁근거지	-11.3768
▁생각된다	-11.3769
▁전통적으로	-11.377
▁게이	-11.3772
▁의미하는	-11.3777
▁팔레스타인과	-11.378
▁항해	-11.3785
▁노동자들이	-11.3786
▁요구해	-11.3788
▁살상	-11.379
▁공급받	-11.379
▁맞지	-11.3793
▁맡기	-11.38
▁빙	-11.3801
▁진정시키	-11.3801
▁투자가들	-11.3803
▁치료제	-11.3804
▁작년에	-11.3807
▁되어야	-11.381
▁정국	-11.3811
마드	-11.3812
▁건물들	-11.3813
▁시민단체	-11.3814
▁시작한다	-11.3815
▁실시됐다	-11.3816
▁결승전에	-11.3819
▁중재자	-11.3823
마저	-11.3824
▁연인	-11.3828
▁시선	-11.3828
▁제품들	-11.3828
▁로즈	-11.3831
▁이라크로	-11.3832
▁식당에서	-11.3832
▁검찰에	-11.3834
▁수행했다	-11.3835
▁분명한	-11.384
▁벌어들	-11.3843
▁설립한	-11.3843
▁살아있는	-11.3845
▁멘	-11.3853
▁퇴원	-11.3856
▁몬	-11.3859
▁바비	-11.3861
▁마련된	-11.3863
▁박물관에	-11.3864
▁대학생들	-11.3871
▁행위로	-11.3881
▁시스템에	-11.389
ail	-11.3904
▁바그다드에	-11.3913
사이드	-11.3916
▁arm	-11.3917
head	-11.3919
쉽	-11.392
▁주도하고	-11.392
괴	-11.3921
톱	-11.3922
▁ag	-11.3923
보좌관	-11.3923
▁브레	-11.3924
이면	-11.3924
혁명	-11.3925
▁파기	-11.3927
번호	-11.393
▁작고	-11.3935
▁적지	-11.3938
▁지배하	-11.3939
▁장례식에	-11.3942
증권	-11.3943
지점	-11.395
▁내용이다	-11.395
▁구조됐다	-11.395
▁지점에	-11.3964
글리	-11.3965
범죄	-11.3969
ther	-11.3969
법에	-11.3978
▁운전자들	-11.3979
▁성공할	-11.3979
▁진출에	-11.398
▁여진	-11.3981
▁도달했다	-11.3987
▁연기됐다	-11.3987
▁랜드	-11.3988
▁간부들	-11.3988
라트	-11.3989
▁배에	-11.3992
▁치르는	-11.3993
▁하스	-11.3993
▁오르는	-11.3993
▁다쳤	-11.3996
예프	-11.3996
화물	-11.3997
▁영화화	-11.4
중국	-11.4001
▁결정한	-11.4001
▁압도적	-11.4004
성과	-11.4006
▁쓰이	-11.4008
▁나아	-11.401
ain	-11.4012
▁선포한	-11.4018
▁카라치	-11.4022
▁내야	-11.4024
▁인정하고	-11.4027
▁영화들	-11.403
▁최근까지	-11.403
별로	-11.4031
▁점에서	-11.4033
▁조직원들	-11.4034
▁일요일에	-11.4035
▁우려하는	-11.4038
▁도착해	-11.4038
▁선박들	-11.4041
▁시민이	-11.4044
▁막는	-11.4045
▁격려	-11.4048
정권	-11.4049
▁매케인에	-11.4051
▁닉	-11.4052
▁유럽에	-11.4055
부장	-11.4059
▁매케인과	-11.4061
▁중태라	-11.4067
▁동부에	-11.4068
▁설치한	-11.4076
▁우주비행	-11.4083
님	-11.4084
▁국정원	-11.4087
▁국세청	-11.4089
▁줄었다	-11.4089
▁경호원들	-11.4091
▁휩싸	-11.4092
마라	-11.4094
▁타운	-11.4094
롯	-11.4095
탔	-11.4098
▁냉전	-11.4099
헴	-11.4099
▁australia	-11.4099
▁defense	-11.4099
▁nymex	-11.4099
▁police	-11.4099
▁society	-11.4099
▁국제사면위원회	-11.4099
▁돈세탁	-11.4099
▁몬타나	-11.4099
▁몰디브	-11.4099
▁베스트셀러	-11.4099
▁손해배상	-11.4099
▁아라파트	-11.4099
▁아이슬란드	-11.4099
▁애널리스트	-11.4099
▁앨라배마	-11.4099
▁우비넨	-11.4099
▁자이언트	-11.4099
▁전화통화	-11.4099
▁콘텐트	-11.4099
▁페르난데스	-11.4099
▁푸에르토리코	-11.4099
▁해리왕자	-11.4099
▁가석방	-11.4099
▁갱신	-11.4099
▁무중력	-11.4099
▁저녁식사	-11.4099
▁폭넓	-11.4099
▁발레리	-11.4099
▁자이툰	-11.4099
▁프리킥	-11.4099
▁financ	-11.4099
▁후쿠다	-11.4099
▁살모넬라균	-11.4099
▁라시드	-11.4099
▁놀랍	-11.4099
▁남서쪽	-11.4099
▁퇴치	-11.4099
▁브라더스	-11.4099
▁딜리	-11.4099
▁프레슬리	-11.4099
▁강아지	-11.41
▁대통합민주신당	-11.41
▁선제골	-11.41
▁풀려	-11.41
▁six	-11.41
▁아이팟	-11.41
▁자살폭탄	-11.41
▁free	-11.41
▁gps	-11.41
▁공동성명	-11.41
▁화폐	-11.41
▁왕궁	-11.41
▁포옹	-11.41
▁탑재	-11.4101
▁침실	-11.4101
▁개들	-11.4101
▁메이저	-11.4101
▁줄어든	-11.4101
▁간첩	-11.4101
▁자본주의	-11.4101
▁우편	-11.4102
▁프라임	-11.4102
▁물러난	-11.4102
▁투항	-11.4102
▁미술관	-11.4102
▁지저스	-11.4102
▁웃음	-11.4102
▁보건당국	-11.4102
▁이루어질	-11.4103
므	-11.4103
▁단축	-11.4103
▁방북	-11.4103
▁세르	-11.4103
▁헌터	-11.4104
▁감각	-11.4104
▁불경기	-11.4104
▁발송	-11.4104
▁live	-11.4104
▁맞춘	-11.4104
▁프로그램과	-11.4104
▁터너	-11.4104
▁다룰	-11.4105
▁해산물	-11.4105
▁무패	-11.4105
▁정교회	-11.4105
▁내다봤	-11.4106
▁마스터스	-11.4106
▁서열	-11.4106
▁데이브	-11.4106
▁시께	-11.4107
▁교정	-11.4107
▁주머니	-11.4107
▁살짜리	-11.4107
▁악명	-11.4108
▁교차	-11.4108
▁대기권	-11.4108
▁왕위	-11.4108
▁공표	-11.4108
▁섬유	-11.4108
▁테러공격	-11.4109
▁변형	-11.4109
▁복부	-11.411
▁디에고	-11.411
▁출간	-11.411
▁프로디	-11.411
gle	-11.411
▁누설	-11.4111
▁나이키	-11.4111
▁즐거	-11.4111
▁포도	-11.4112
▁피고인들	-11.4112
▁순회	-11.4112
▁총살	-11.4113
▁콜린스	-11.4113
▁호위	-11.4114
▁연정	-11.4115
▁무장세력들	-11.4116
▁감안	-11.4116
▁서버	-11.4116
▁조각상	-11.4116
▁파워	-11.4116
이상	-11.4117
▁판명	-11.4117
▁나온다	-11.4118
▁보리스	-11.4119
▁요인이	-11.4119
▁린치	-11.4119
▁솜	-11.412
▁생선	-11.4121
▁비정부	-11.4122
▁콜로라도주	-11.4122
▁골든	-11.4123
▁호박	-11.4124
▁결성	-11.4127
▁역전	-11.4128
▁딴	-11.4129
▁시합	-11.4129
▁풀어주	-11.4129
▁폐허	-11.4129
▁양호	-11.4129
▁좋았다	-11.413
▁국토안보부	-11.413
▁툴	-11.413
▁병이	-11.4131
▁sg	-11.4131
▁실바	-11.4132
▁전문의	-11.4133
▁하위	-11.4133
▁상임	-11.4135
▁워싱턴에	-11.4136
▁종전	-11.4136
▁산업이	-11.4137
▁주식시장이	-11.4137
▁제작진	-11.4138
▁근본주의	-11.4139
▁사고에	-11.414
▁담당하	-11.414
▁내려오	-11.4142
ame	-11.4142
▁단일	-11.4143
▁허용하는	-11.4146
▁연어	-11.4147
▁연예	-11.415
▁주입	-11.415
슬러	-11.4151
▁돌아간	-11.4155
▁비중	-11.4157
▁억류된	-11.4157
▁연결하	-11.4157
▁보험사	-11.4159
민들	-11.4159
▁정부기관	-11.416
▁하사	-11.4162
▁찍었다	-11.4162
대사관	-11.4163
▁끝나지	-11.4163
▁기대된다	-11.4163
▁이행하	-11.4165
▁본부장	-11.4166
▁쓰지	-11.4168
▁겁	-11.417
단계	-11.417
▁성능	-11.4175
▁친구인	-11.4175
▁그럴	-11.4176
up	-11.4177
▁불거	-11.4178
▁이유에	-11.4182
센터에서	-11.4182
▁남부지역에서	-11.4184
▁의류	-11.4186
▁노력했다	-11.4187
▁가사	-11.4187
▁발표하면서	-11.4189
▁밝혀지	-11.4189
▁만행	-11.4189
▁재료	-11.4189
▁적군	-11.4193
▁주목할	-11.4196
▁기르	-11.4196
조건	-11.4198
▁확인하지	-11.4202
ern	-11.4202
▁전술	-11.4204
여금	-11.4205
▁행동으로	-11.4205
▁동해	-11.4205
▁알바	-11.4206
▁자란	-11.4207
▁기간이	-11.4211
▁계속됐다	-11.4211
▁배상	-11.4212
▁대신해	-11.4212
▁생각할	-11.4213
▁하퍼	-11.4213
▁무서	-11.4213
lin	-11.4213
▁이스트	-11.4216
▁움직이는	-11.4216
di	-11.4219
▁갇혀있	-11.4219
▁ko	-11.422
▁타이거	-11.422
▁일부분	-11.4228
▁우주로	-11.4229
▁파고	-11.4229
▁일삼	-11.423
▁소행	-11.4232
▁숨지	-11.4233
▁젠	-11.4238
▁간호사	-11.4238
▁외곽에서	-11.4241
cent	-11.4247
ence	-11.425
▁희생자들이	-11.4251
▁지원했다	-11.4251
ure	-11.4256
▁설립된	-11.4262
▁해결에	-11.4264
▁제한하	-11.4264
▁esta	-11.4266
▁년대에	-11.4273
▁여성으로	-11.4274
▁프로젝트에	-11.4276
▁토론회에서	-11.4278
▁이용자	-11.4278
▁방송이	-11.4284
▁증거로	-11.4286
▁노출되	-11.4289
▁로이	-11.4296
▁일종	-11.4302
▁팔리	-11.4304
팀이	-11.4306
리코	-11.4306
▁고리	-11.4308
▁교통부	-11.4309
▁수행한	-11.4311
▁결함이	-11.4313
▁낙찰	-11.4317
▁전경	-11.4317
▁베이징에	-11.432
▁위반했다	-11.432
험	-11.4321
▁일이었다	-11.4341
▁장소에	-11.4342
▁폭락했다	-11.4347
▁파키스탄과	-11.4349
▁중단시키	-11.435
▁목록에	-11.4355
▁작가들	-11.4356
▁아프리카에서	-11.4359
▁반군들	-11.4361
▁통과한	-11.4364
물리학	-11.4366
▁신체적	-11.4366
▁이혼했다	-11.4368
▁가정에서	-11.4368
대통령	-11.4368
▁che	-11.4369
▁선정했다	-11.4376
재단	-11.4377
▁다스	-11.4382
▁보도된	-11.4382
▁뒤지	-11.4385
▁수행하는	-11.4386
▁효과적	-11.4387
▁당이	-11.4387
▁일자	-11.4391
딕	-11.4393
둥	-11.4393
▁여인	-11.4396
배우	-11.4399
사실	-11.4399
sh	-11.44
분쟁	-11.4401
책임자	-11.4402
▁지아	-11.4402
투쟁	-11.4402
방안	-11.4412
관광	-11.4412
모양	-11.4414
▁돼있다	-11.4416
▁내부에	-11.442
하기위해	-11.4421
체계	-11.4423
▁올림픽에	-11.4424
▁앉아있	-11.4426
략	-11.4426
▁부분에	-11.4429
▁그곳	-11.443
통제	-11.4433
▁san	-11.4436
▁블리	-11.4439
▁의원들과	-11.4441
실적	-11.4452
▁너	-11.4452
▁캘리포니아에서	-11.4452
▁요청하	-11.4455
▁집회에서	-11.4455
됐기	-11.4461
▁실험에	-11.4461
▁빚어	-11.4461
▁정말로	-11.4466
▁세웠	-11.447
▁통과하	-11.4471
▁sun	-11.4472
리트	-11.4477
바니	-11.448
▁일본군	-11.4481
▁유대인들	-11.4488
▁일조	-11.4495
que	-11.4495
▁울리	-11.4497
▁pe	-11.4499
대상	-11.4515
▁젊은이들이	-11.4515
▁친구와	-11.4516
▁중단된	-11.4518
▁떠났	-11.452
▁실종됐다	-11.4521
▁일정에	-11.4522
▁소방대원	-11.4525
▁느껴	-11.4532
▁can	-11.4532
▁발표했	-11.4532
▁생활에	-11.4533
스러워	-11.4534
▁창고	-11.4538
out	-11.4543
▁모여들	-11.4545
리언	-11.4545
케르	-11.4546
▁후송	-11.455
▁중력	-11.455
▁집이	-11.4551
▁랜	-11.4554
▁촉구하고	-11.4557
▁인도와	-11.4561
▁연맹	-11.4564
▁year	-11.4565
럭	-11.4566
▁공항으로	-11.4566
티아	-11.4566
평가	-11.4566
▁자들	-11.4566
끔	-11.4566
블리	-11.4567
▁손님들	-11.4567
▁테네시	-11.4567
븐	-11.4567
▁들어있	-11.457
흥	-11.4571
셋	-11.4574
▁선거일	-11.4575
▁페트로	-11.4575
벡	-11.4575
쿤	-11.4575
▁beijing	-11.4575
▁ecb	-11.4575
▁russia	-11.4575
▁school	-11.4575
▁science	-11.4575
▁system	-11.4575
▁가라앉	-11.4575
▁국가보안법	-11.4575
▁그랜드슬램	-11.4575
▁김경준	-11.4575
▁라스무센	-11.4575
▁믿음	-11.4575
▁믿지	-11.4575
▁버클리	-11.4575
▁불필요	-11.4575
▁비아그라	-11.4575
▁빈라덴	-11.4575
▁생태계	-11.4575
▁소렌스탐	-11.4575
▁스콜세지	-11.4575
▁스탤론	-11.4575
▁식이요법	-11.4575
▁신용경색	-11.4575
▁실업수당	-11.4575
▁얼어붙	-11.4575
▁와지리스탄	-11.4575
▁유네스코	-11.4575
▁잃게	-11.4575
▁제너럴	-11.4575
▁질렀다	-11.4575
▁투탕카멘	-11.4575
▁펌프	-11.4575
▁포틀랜드	-11.4575
넥	-11.4575
▁아메드	-11.4575
▁가금류	-11.4575
▁자부심	-11.4575
▁팔루자	-11.4575
▁고마움	-11.4575
▁로드맵	-11.4575
▁쟁점	-11.4575
▁차세대	-11.4575
▁헝가리	-11.4575
▁white	-11.4575
▁밀리밴드	-11.4575
▁핑크	-11.4575
▁파이프라인	-11.4576
▁익사	-11.4576
▁journal	-11.4576
▁외딴	-11.4576
▁거세지	-11.4576
▁home	-11.4576
▁블레이크	-11.4576
▁납북	-11.4576
▁삭스	-11.4576
▁commission	-11.4576
▁푸켓	-11.4576
▁몬테	-11.4576
▁이틀째	-11.4577
▁참패	-11.4577
▁완승	-11.4577
▁지방선거	-11.4577
▁인디언	-11.4577
▁음란물	-11.4577
▁기부금	-11.4578
▁적합하	-11.4578
▁점유율	-11.4578
▁보험금	-11.4578
▁철강	-11.4578
▁청색	-11.4578
▁faa	-11.4579
▁기차역	-11.4579
▁rul	-11.4579
▁정황	-11.4579
▁나이로비	-11.4579
▁우익	-11.4579
▁로얄	-11.458
▁러브	-11.458
▁봅	-11.458
▁사람으로	-11.458
▁않으려	-11.4581
▁사촌	-11.4581
▁함정	-11.4581
▁위안화	-11.4581
▁빈번	-11.4581
▁forces	-11.4582
▁교실	-11.4582
▁석탄	-11.4582
▁그래함	-11.4582
▁경제성장률	-11.4582
▁절단	-11.4582
▁말라위	-11.4582
▁동등	-11.4583
▁투병	-11.4583
▁첫째	-11.4583
▁wti	-11.4583
▁유머	-11.4583
▁붙였다	-11.4584
▁전인대	-11.4585
▁사탕	-11.4585
▁위헌	-11.4585
▁방위군	-11.4585
▁공범	-11.4586
▁선언문	-11.4587
▁통역	-11.4587
▁노엘	-11.4587
▁국토	-11.4588
▁지난밤	-11.459
▁앞서있다	-11.459
▁파타당	-11.459
▁육상	-11.4591
▁능력이	-11.4591
▁마샤	-11.4592
▁엔화	-11.4592
▁월마트	-11.4592
▁급파	-11.4592
▁테마	-11.4593
▁영아	-11.4594
▁대통령궁	-11.4594
▁탈당	-11.4594
능력	-11.4594
▁주장했	-11.4595
▁시청률	-11.4595
▁우주복	-11.4597
▁기념일	-11.4597
▁드문	-11.4598
▁육성	-11.4598
▁정당화	-11.4598
▁신종	-11.4599
▁들어보	-11.4599
▁투하	-11.46
▁선동	-11.4601
▁쿠즈	-11.4601
▁지어	-11.4604
▁대열	-11.4605
▁공공장소에서	-11.4606
▁루즈	-11.4607
▁어미	-11.4609
▁국가와	-11.4611
▁감독과	-11.4611
▁치아	-11.4613
▁발명	-11.4615
▁주립	-11.4615
▁취업	-11.4615
▁팔아	-11.4615
▁받았습니다	-11.4616
▁조그	-11.4616
▁진상	-11.4616
▁들어왔다	-11.4618
적이지	-11.4618
▁전념	-11.4618
▁잔인	-11.4622
▁주차장에서	-11.4624
▁금연법	-11.4624
▁동상	-11.4626
▁움	-11.4628
바인	-11.4629
▁cl	-11.463
▁가이드	-11.4631
▁경상	-11.4631
▁들소	-11.4636
▁합법적인	-11.4637
▁아카	-11.4638
▁크라우	-11.4639
▁교황이	-11.4639
▁영해	-11.464
링턴	-11.464
▁샬	-11.464
▁시사했다	-11.4642
▁남부지역	-11.4643
▁수영장	-11.4643
▁사우	-11.4644
▁서울시장	-11.4644
▁몰린	-11.4646
▁이사장	-11.4648
▁사건에서	-11.4649
▁법에	-11.465
▁발표에	-11.465
▁들어주	-11.4653
▁문어	-11.4653
▁사단	-11.4653
▁투표소	-11.4657
▁총리로	-11.466
르트	-11.4661
▁출판사	-11.4663
▁비티	-11.4663
▁처했다	-11.4668
▁견디	-11.467
▁라파	-11.4674
▁실질적으로	-11.4676
▁이행할	-11.4676
▁조화	-11.4678
▁아크	-11.4679
▁한국계	-11.468
▁우주센터	-11.4681
▁결혼했다	-11.4685
▁혼인	-11.4686
▁운영되	-11.4686
▁해결하는	-11.4687
▁영화관	-11.4689
▁주심	-11.469
▁관여한	-11.469
허가	-11.4693
▁음와	-11.4697
▁생물학적	-11.4697
▁분리주의자들	-11.4698
▁만회	-11.4704
ted	-11.4705
▁이슬라마바드에서	-11.4713
▁스텔	-11.4713
레시	-11.4714
▁알려졌	-11.4714
▁경찰관이	-11.4716
▁인종차별	-11.472
▁손상된	-11.4722
▁토레	-11.4723
▁착용한	-11.4726
▁랩	-11.473
▁투자가	-11.4734
▁제시할	-11.4735
▁고고학자	-11.4736
▁등정	-11.4738
▁이끌어내	-11.4739
▁신자	-11.474
▁바람에	-11.4742
▁전사들	-11.4745
▁공화당원들	-11.4746
▁모델로	-11.4746
▁적게	-11.4746
▁조사팀	-11.4747
▁친척들	-11.475
인당	-11.4753
ition	-11.4756
▁그루	-11.4757
▁대응할	-11.4759
▁기념하	-11.476
▁검	-11.476
▁사고기	-11.476
▁fc	-11.4761
해줬다	-11.4766
▁완화하기	-11.4767
▁서명한	-11.477
▁다치	-11.477
▁충돌해	-11.4771
리드	-11.4772
▁심리학	-11.4774
▁수용소에	-11.4775
▁잉	-11.4776
▁start	-11.4776
▁등록된	-11.4777
어드	-11.4786
▁중위	-11.4792
▁공해	-11.4792
▁결심했다	-11.4795
▁자식	-11.4795
▁확보에	-11.4796
▁레인	-11.4797
▁엔지니어	-11.48
란다	-11.4802
▁박스	-11.4803
▁벨리	-11.4808
▁결정하기	-11.481
▁하우스	-11.481
▁하와	-11.4813
▁주도하	-11.4814
tive	-11.4815
▁결의안이	-11.4823
▁밀리	-11.4825
▁참가국들	-11.4829
▁소유자	-11.483
났	-11.4831
▁항의했다	-11.4834
▁결정된	-11.4837
▁나사	-11.4838
▁메가	-11.4843
윤	-11.4844
▁유전적	-11.4844
러운	-11.4845
▁전비	-11.4847
내려	-11.4847
▁특파원이	-11.4849
▁ya	-11.485
▁우려해	-11.485
▁tra	-11.4852
▁국제적으로	-11.4853
▁바라보	-11.4859
▁개월이	-11.4868
▁한국측	-11.4868
나마	-11.4871
켜	-11.4873
▁회복하고	-11.4876
▁제조업	-11.4881
▁참가국	-11.4882
▁노인들	-11.4883
▁아파트에서	-11.4885
▁중단됐	-11.4888
▁맞을	-11.4889
▁대면	-11.489
▁엑스	-11.4892
▁이었다	-11.4892
▁cur	-11.4893
휘	-11.4894
▁홍콩에서	-11.4894
풀	-11.4895
▁일반인	-11.4896
끄	-11.4897
팬	-11.4898
털	-11.4899
핵	-11.49
춤	-11.4901
금융	-11.4902
▁과정이	-11.4903
▁고등	-11.4912
fc	-11.4916
요금	-11.4918
▁민영	-11.4922
ney	-11.4924
▁마련해	-11.4926
▁레바논에서	-11.4926
▁충족	-11.493
▁sin	-11.493
▁연구자들	-11.4934
▁있을까	-11.4936
▁격돌한	-11.4936
▁직원과	-11.4936
▁미얀마에서	-11.4939
▁벌여왔	-11.4943
▁시점에	-11.4945
▁무장세력과	-11.4949
▁방안에	-11.4951
상품	-11.4953
지스	-11.4953
▁방문하고	-11.4956
공원	-11.4958
▁부상당했다	-11.4959
▁지원에	-11.4961
ncy	-11.4963
▁서기	-11.4964
▁합법적	-11.4968
▁철학	-11.497
▁요구한다	-11.497
▁교회에	-11.4974
있으며	-11.4977
▁거론	-11.4977
▁의문이	-11.4978
번에	-11.498
▁해법	-11.498
▁타지	-11.4982
▁파견했다	-11.4985
ann	-11.4992
▁잡혀	-11.4995
▁걸리는	-11.4996
▁째	-11.4997
▁차지했	-11.5002
▁트럭이	-11.501
▁외계	-11.5011
▁날에	-11.5011
웠던	-11.5015
▁공산	-11.5017
▁수준에	-11.5018
▁돌아왔	-11.5019
▁이뤄졌	-11.5021
▁들어갔	-11.5022
▁가혹	-11.5023
▁치열	-11.5023
▁찾았	-11.5025
▁기록됐다	-11.5026
day	-11.5028
▁몰리	-11.503
▁중앙정보	-11.503
▁불행	-11.5035
▁나타냈	-11.5038
스럽다	-11.5041
▁미끄러	-11.5044
▁경찰관들	-11.5045
▁나이로	-11.5046
▁더미	-11.5049
▁심리학자	-11.5055
▁관리들과	-11.5055
▁해역	-11.5057
용품	-11.506
▁밀집	-11.506
▁대조	-11.506
▁정찰	-11.5061
▁사나	-11.5062
▁농부들	-11.5064
▁인터넷에서	-11.5064
▁미네소타	-11.5065
획	-11.5069
▁메모리	-11.5069
파크	-11.507
랙	-11.5075
▁총기난사	-11.5075
▁얼룩	-11.5075
돔	-11.5075
펀	-11.5075
셜	-11.5075
▁앵커	-11.5075
랫	-11.5075
▁black	-11.5075
▁candidate	-11.5075
▁claim	-11.5075
▁hsbc	-11.5075
▁rctv	-11.5075
▁summit	-11.5075
▁uae	-11.5075
▁www	-11.5075
▁갖췄다	-11.5075
▁갤러리	-11.5075
▁네그로폰테	-11.5075
▁뉴욕상업거래소	-11.5075
▁뚜렷	-11.5075
▁맞교환	-11.5075
▁매릴랜드	-11.5075
▁매카트니	-11.5075
▁신천옹	-11.5075
▁싫어하	-11.5075
▁쌓인	-11.5075
▁쓰러져	-11.5075
▁아흐마디네자드	-11.5075
▁즈보나레바	-11.5075
▁초콜릿	-11.5075
▁코네티컷	-11.5075
▁푸에르타	-11.5075
▁해안경비대	-11.5075
▁햇볕	-11.5075
▁현수막	-11.5075
▁흑자	-11.5075
밭	-11.5075
팍	-11.5075
푼	-11.5075
▁알자지라	-11.5075
▁자민당	-11.5075
▁만델라	-11.5075
▁획기적	-11.5075
▁딜런	-11.5075
▁아폴로	-11.5075
▁오페라	-11.5075
▁홈구장	-11.5075
▁로날드	-11.5075
▁피해여성	-11.5075
▁몰아넣	-11.5075
▁포츠머스	-11.5075
▁남동쪽	-11.5075
▁마리화나	-11.5075
▁무자비	-11.5075
▁추종자들	-11.5075
▁텔레콤	-11.5075
▁프리츨	-11.5075
▁함부르크	-11.5076
▁about	-11.5076
▁아이다호	-11.5076
▁나이트클럽	-11.5076
▁이뤄져야	-11.5076
▁해들리	-11.5076
▁강원도	-11.5076
▁마스리	-11.5076
▁휴이트	-11.5076
▁발자국	-11.5076
▁흘리	-11.5076
▁게놈	-11.5076
▁룰라	-11.5076
▁연못	-11.5076
▁설문조사	-11.5076
▁poll	-11.5076
▁독특	-11.5076
▁오스만	-11.5076
▁혜성	-11.5076
▁봉착	-11.5076
▁에어웨이	-11.5076
▁가르시아	-11.5076
▁gnp	-11.5076
▁불러일으키	-11.5076
▁삼성그룹	-11.5077
▁틀림	-11.5077
▁투옥	-11.5077
▁도미니카	-11.5077
▁창업자	-11.5077
▁무하마	-11.5077
▁잡혔다	-11.5077
▁아르빌	-11.5077
▁잠비아	-11.5077
▁순결	-11.5077
▁신분증	-11.5077
▁우호적	-11.5078
▁척추	-11.5078
▁크로스	-11.5078
▁사무국장	-11.5078
▁매도프	-11.5078
▁엄중	-11.5078
▁지방법원	-11.5078
▁라싸	-11.5078
▁거슬러	-11.5079
▁돌풍	-11.5079
▁post	-11.5079
▁증권거래소	-11.5079
▁선고받았다	-11.508
▁참의원	-11.508
▁야외	-11.508
▁파이프	-11.508
▁정확하게	-11.5081
▁묻혀	-11.5081
▁인질극	-11.5081
▁기원전	-11.5081
▁선진국	-11.5081
▁늘어난	-11.5082
▁훔쳐	-11.5082
▁은폐	-11.5083
▁버려진	-11.5083
▁잠재력	-11.5083
▁인텔	-11.5084
▁재앙	-11.5084
▁법령	-11.5084
▁독립국가	-11.5084
▁투여	-11.5084
▁해리슨	-11.5085
▁북경	-11.5085
▁탈세	-11.5085
▁있느냐	-11.5086
▁조사결과	-11.5086
▁초드리	-11.5086
▁사이먼	-11.5087
▁부착	-11.5087
▁걸음	-11.5088
▁인수위원회	-11.5088
▁기술자들	-11.5088
▁인천	-11.509
▁남긴	-11.5092
▁사절	-11.5094
▁순수	-11.5095
▁부양	-11.5095
▁팔레스타인인	-11.5096
▁판결문	-11.5096
▁승진	-11.5097
▁살리기	-11.5097
▁케이스	-11.5097
▁달렸다	-11.5098
▁구두	-11.5099
▁편집장	-11.5099
▁번개	-11.5099
▁힐러리경	-11.51
▁배역	-11.5101
▁치우	-11.5101
▁박차	-11.5101
▁가져왔다	-11.5103
▁줄리아	-11.5103
▁아이오와주	-11.5103
▁분배	-11.5104
클라	-11.5105
▁금융계	-11.5105
아주	-11.5105
▁장애물	-11.5105
▁지지했다	-11.5107
▁그래픽	-11.5109
▁센트럴	-11.5109
▁정박	-11.5109
▁장점	-11.5109
▁서구	-11.511
▁채무	-11.511
▁따내	-11.511
▁임상	-11.5111
▁리터	-11.5112
▁목성	-11.5113
▁기종	-11.5114
▁내달	-11.5116
▁참석하는	-11.5116
▁차에	-11.5118
▁선제	-11.5118
▁장관급	-11.5119
▁합법적으로	-11.5119
▁버드	-11.5119
▁치료법	-11.512
▁동거	-11.5121
단체인	-11.5121
▁서울대	-11.5122
▁동력	-11.5123
자산	-11.5123
▁레이드	-11.5123
▁테러범이	-11.5124
▁저명	-11.5125
▁미션	-11.5125
▁도피	-11.5126
▁포즈	-11.5127
▁죽였다	-11.5127
▁집중적	-11.5128
▁포크	-11.513
▁펜실베이니아주	-11.5131
▁접어들	-11.5136
▁신선	-11.5138
▁션	-11.5139
▁버린	-11.5139
▁피의자	-11.5141
▁중립	-11.5143
▁보장하	-11.5143
▁적도	-11.5148
▁하에서	-11.5149
und	-11.515
▁순간에	-11.5151
pt	-11.5153
▁따라잡	-11.5155
▁기용	-11.5156
▁목에	-11.5158
▁예상치	-11.5158
▁기각했다	-11.5158
▁관광객들에게	-11.5159
▁공작	-11.5162
▁명만	-11.5165
▁왕국	-11.5165
▁마시는	-11.5166
▁빨라	-11.5167
▁올드	-11.517
▁버스에	-11.517
▁공격해	-11.517
▁다루는	-11.5171
▁대통령으로서	-11.5171
▁교착상태에	-11.5172
▁발표되지	-11.5173
▁측면에서	-11.5175
카트	-11.5175
▁근본	-11.5177
하느냐	-11.5177
▁납치범	-11.5177
▁의존하고	-11.5177
▁추락해	-11.5179
▁줬	-11.5181
▁승려	-11.5182
▁났	-11.5183
▁per	-11.5185
der	-11.5186
▁북해	-11.5186
▁이제까지	-11.5186
▁후속	-11.5188
▁만연	-11.5189
▁효과적인	-11.519
▁ump	-11.519
▁연행됐다	-11.5191
▁집어	-11.5191
▁중태	-11.5195
▁낮게	-11.5198
▁정해진	-11.5199
▁졌다	-11.5201
▁여왕이	-11.5202
▁교사들	-11.5202
▁본회의	-11.5202
▁잡았	-11.5203
판매	-11.5204
▁전반에	-11.5205
▁자신만	-11.5205
▁소녀들	-11.5206
▁마주	-11.5209
었기	-11.5209
▁십대	-11.5211
시민	-11.5215
▁주시하	-11.5215
▁팔레스타인인들	-11.5216
▁지나간	-11.5216
▁가계	-11.522
▁쓰인	-11.5223
▁나타난다	-11.5224
ki	-11.5224
▁길게	-11.5225
▁호주군	-11.5226
ord	-11.5227
▁space	-11.5229
▁aid	-11.5232
▁숨어	-11.5232
▁신뢰할	-11.5234
▁카불에서	-11.5235
다르	-11.5236
▁이집트에서	-11.5236
▁바다에	-11.5239
▁위크	-11.5239
▁안고	-11.524
▁슈퍼대의원	-11.5242
▁오르기	-11.5242
▁임명했다	-11.5243
▁조차	-11.5245
▁지불할	-11.5247
▁이겨	-11.5248
▁빌라	-11.5248
스프링스	-11.525
▁위협받	-11.5253
메스	-11.5259
치기	-11.5261
▁주석이	-11.5263
▁광장에서	-11.5269
▁궤도에	-11.5269
▁측근들	-11.5271
▁가져가	-11.5275
비안	-11.5278
▁대장	-11.5283
▁기업체	-11.5284
▁확보해	-11.5284
▁감행한	-11.5284
▁잡을	-11.5285
▁해안가	-11.5299
▁일상	-11.5304
▁드리	-11.531
▁월스트리트에서	-11.531
▁주최한	-11.5311
▁결정하지	-11.5311
죄	-11.5312
▁단계적	-11.5316
▁조사관	-11.5317
▁매력적	-11.5317
▁입히	-11.5321
▁가나	-11.5321
▁붕괴되	-11.5322
▁납치됐	-11.5323
▁가야	-11.5323
워스	-11.5324
▁지켜보고	-11.5324
머니	-11.5325
▁한반도에	-11.5327
▁담겨	-11.5327
▁센터에서	-11.5331
▁자바	-11.5332
데릭	-11.5335
▁지명에	-11.5337
▁진도	-11.5337
▁제품이	-11.5339
▁강화된	-11.534
▁경기장에서	-11.5341
▁심리적	-11.5341
▁포기한	-11.5347
▁구속됐다	-11.535
▁차이나	-11.535
▁아서	-11.535
▁높이기	-11.5354
▁생산된	-11.5358
보면	-11.5358
▁외곽에	-11.5363
훈련	-11.5364
비드	-11.5367
▁대상자	-11.5369
봤다	-11.5374
▁월터	-11.5376
내기	-11.5376
▁배우자	-11.5377
줬	-11.5379
▁나이에	-11.5382
▁동의한다	-11.5384
▁이용했다	-11.5385
▁샌프란시스코에서	-11.5389
▁상점들	-11.5391
ill	-11.5393
▁흐	-11.5397
▁통과된	-11.5403
▁난자	-11.5409
one	-11.541
▁전제	-11.541
▁보내지	-11.5417
▁발견해	-11.5423
사무소	-11.5424
탐	-11.5426
▁하드	-11.5426
밴드	-11.5428
q	-11.5428
음악	-11.5429
브레	-11.5432
민족	-11.5433
▁def	-11.5441
단지	-11.5442
▁악화된	-11.5445
▁방에서	-11.5446
에너지	-11.5446
연방	-11.5447
방위	-11.5448
부족	-11.5452
▁올림픽에서	-11.5452
이라크	-11.5452
▁방문한다	-11.5462
노스	-11.5463
▁팀에	-11.5466
호프	-11.5473
▁내부에서	-11.5474
▁때가	-11.5475
▁실종됐	-11.5475
▁아사	-11.5476
▁혈	-11.5477
▁과다	-11.5478
▁했는지	-11.5484
▁롭	-11.5484
▁시행되	-11.5491
▁존재하	-11.5491
▁않았다면	-11.5492
▁석방에	-11.5495
▁위험하다	-11.5499
▁설립했다	-11.5499
낸다	-11.55
▁정신병	-11.5502
▁십년	-11.5505
▁배달	-11.5505
일까	-11.5509
▁나비	-11.5515
▁해왔	-11.5515
▁모가디슈	-11.5526
▁수단으로	-11.5529
▁원주민들	-11.553
전화	-11.553
벨라	-11.5532
▁건이	-11.5535
▁효율	-11.5535
스트라	-11.5544
룩	-11.5546
▁시간만	-11.5549
▁물의	-11.5551
투자	-11.5552
our	-11.5553
▁대표와	-11.5557
▁혐의와	-11.5558
▁제의	-11.5561
▁자랑하	-11.5561
▁미얀마에	-11.5561
▁거래되	-11.5564
▁정규	-11.5564
컷	-11.5565
▁만나고	-11.5566
모리	-11.5578
▁태어났	-11.5578
▁조세	-11.558
▁반응이	-11.5583
▁다국적	-11.5595
▁미주리	-11.5595
칙	-11.5597
▁기준에	-11.5597
▁뒤따	-11.5599
듬	-11.5599
깃	-11.56
▁혐오	-11.56
▁첨단	-11.5601
엽	-11.5602
뮤	-11.5602
콥	-11.5602
▁glob	-11.5602
▁public	-11.5602
▁가깝게	-11.5602
▁가로질러	-11.5602
▁가솔린	-11.5602
▁꿀벌	-11.5602
▁끊어	-11.5602
▁낳았다	-11.5602
▁니스텔로이	-11.5602
▁동성결혼	-11.5602
▁디스플레이	-11.5602
▁르완다	-11.5602
▁리트비넨코	-11.5602
▁메르세데스	-11.5602
▁명확한	-11.5602
▁미항공우주국	-11.5602
▁방코델타아시아	-11.5602
▁베를루스코니	-11.5602
▁아제르바이잔	-11.5602
▁앙카라	-11.5602
▁애틀랜티스호	-11.5602
▁영유권	-11.5602
▁와이오밍	-11.5602
▁요하네스버그	-11.5602
▁인공위성	-11.5602
▁자르카위	-11.5602
▁정권인수팀	-11.5602
▁좋겠다	-11.5602
▁키드먼	-11.5602
▁토튼햄	-11.5602
▁핸드폰	-11.5602
늬	-11.5602
옌	-11.5602
▁power	-11.5602
▁support	-11.5602
▁usgs	-11.5602
▁니제르	-11.5602
▁밀라노	-11.5602
▁신생아	-11.5602
▁영사관	-11.5602
▁잠수함	-11.5602
▁재규어	-11.5602
▁합법화	-11.5602
▁황박사	-11.5602
윙	-11.5602
▁선거유세	-11.5602
▁순이익	-11.5602
▁스즈키	-11.5602
▁heart	-11.5602
▁break	-11.5602
▁기다렸다	-11.5602
▁카펠로	-11.5602
▁비너스	-11.5602
▁진원지	-11.5602
▁와일드	-11.5602
▁핀란드	-11.5602
▁좌우	-11.5602
▁불매운동	-11.5602
▁셰퍼드	-11.5602
▁대운하	-11.5602
▁관절염	-11.5602
▁플레이오프	-11.5602
▁블랙워터	-11.5602
▁심장질환	-11.5602
▁페라로	-11.5602
▁반짝이	-11.5602
▁프라이스	-11.5602
▁즐거움	-11.5602
▁묵념	-11.5602
▁하이킹	-11.5602
▁그리핀	-11.5602
▁액션	-11.5602
▁몸싸움	-11.5602
▁역전승	-11.5602
▁드라이브	-11.5602
▁파란색	-11.5603
▁체첸	-11.5603
▁빠져나가	-11.5603
▁휘말	-11.5603
▁다툼	-11.5603
▁park	-11.5603
▁번화가	-11.5603
▁인내심	-11.5603
▁재건축	-11.5603
▁바오로	-11.5603
▁곤경에	-11.5604
▁fund	-11.5604
▁재처리	-11.5604
▁휴먼	-11.5604
▁정회장	-11.5604
▁소방차	-11.5604
▁노워크	-11.5604
▁불빛	-11.5604
▁파라오	-11.5604
▁오닐	-11.5605
▁통계청	-11.5605
▁내놓았다	-11.5606
▁사절단	-11.5606
▁생물체	-11.5606
▁환급	-11.5607
▁아흐메드	-11.5607
▁연합통신	-11.5607
▁마스크	-11.5607
▁we	-11.5608
▁난항	-11.5608
▁부국장	-11.5608
▁라이더	-11.5608
▁예외	-11.5609
▁리틀	-11.5609
▁직위	-11.5609
▁접종	-11.5609
▁제약회사	-11.5609
▁가져오	-11.5609
▁카누	-11.5609
▁푸미	-11.561
▁금융기관	-11.561
▁시청자	-11.561
시킴	-11.561
▁우표	-11.561
▁비참	-11.5611
▁표범	-11.5611
▁친분	-11.5611
▁경색	-11.5611
▁사라질	-11.5611
▁사귀	-11.5611
▁도착하자	-11.5611
▁사령관이	-11.5612
▁진심	-11.5612
▁악마	-11.5612
eep	-11.5613
▁막았다	-11.5613
▁난처	-11.5613
▁긴장감	-11.5613
▁같아	-11.5613
▁통과했다	-11.5614
▁수장	-11.5614
▁law	-11.5614
▁휘트	-11.5614
▁복사	-11.5615
메모리얼	-11.5616
▁유타주	-11.5616
▁레저	-11.5617
▁꼬리	-11.5617
▁조립	-11.5618
▁카이로	-11.5618
▁구속했다	-11.5618
▁각료회의	-11.5619
▁그레이스	-11.5619
▁실감	-11.5619
▁루이지애나주	-11.5619
▁애리조나주	-11.562
▁카렌	-11.562
▁인준	-11.562
▁만들어졌다	-11.5621
▁테디	-11.5622
▁벤치	-11.5622
▁다행	-11.5623
▁생길	-11.5623
▁며칠간	-11.5624
뒀다	-11.5626
▁넘겼다	-11.5626
▁매설	-11.5626
▁애정	-11.5626
▁펴	-11.5626
▁회복세	-11.5627
▁히스	-11.5627
▁놓인	-11.5628
▁농부	-11.5631
▁치타	-11.5631
▁표정	-11.5631
▁형량	-11.5631
▁주장해	-11.5632
▁해커	-11.5632
▁예보	-11.5634
▁외신	-11.5634
▁기업에	-11.5634
▁멍	-11.5636
▁높았다	-11.5636
▁거행	-11.5637
▁들려	-11.5639
▁들렸다	-11.564
▁금주	-11.564
▁감수	-11.5641
▁문명	-11.5641
▁들어있다	-11.5643
▁중단되	-11.5644
▁확정된	-11.5645
▁반경	-11.5645
▁소원	-11.5645
▁연관성	-11.5648
▁주장했었다	-11.5649
▁불명	-11.565
▁게시	-11.5652
▁하기로	-11.5653
▁날려	-11.5653
▁예산안	-11.5653
▁카카	-11.5654
▁low	-11.5655
▁플로리다에	-11.5655
▁이빨	-11.5656
▁리우	-11.5656
▁찔	-11.5656
바드	-11.5657
▁인내	-11.5658
▁캐나다에서	-11.5659
▁토드	-11.5661
어지는	-11.5661
▁쉽다	-11.5662
▁불행한	-11.5664
▁루트	-11.5664
▁없었고	-11.5664
▁보잉사	-11.5665
▁띠	-11.5666
▁권했다	-11.5666
▁수송기	-11.5666
▁입원해	-11.5666
▁카디	-11.5667
▁끝나기	-11.5668
▁국가적	-11.5671
▁민족주의	-11.5671
▁티나	-11.5675
▁나포	-11.5677
▁프로그램들	-11.5677
▁저하	-11.5682
▁의약	-11.5682
▁목표물	-11.5683
카니	-11.5684
▁개정된	-11.5684
▁국제법	-11.5685
▁구속력	-11.5686
▁벌인다	-11.5686
▁개체	-11.5691
▁나노	-11.5691
▁양곤에서	-11.5692
▁산책로	-11.5694
▁구성원	-11.5696
▁컬	-11.5696
▁복도	-11.5697
제작	-11.5702
ey	-11.5702
▁주행	-11.5703
▁국가들에	-11.5704
▁부분에서	-11.5708
▁교류	-11.572
▁전용기	-11.5723
▁통과할	-11.5723
▁건스	-11.5724
▁천국	-11.5725
▁정서	-11.5725
▁인종적	-11.5726
▁다닐	-11.5727
ness	-11.5727
▁힘들었	-11.5728
할때	-11.5731
▁국경지역에서	-11.5731
▁기기	-11.5733
▁이겼다	-11.5733
▁이재민들	-11.5733
ious	-11.5736
▁모색하고	-11.5737
▁수만	-11.5738
▁병장	-11.574
ite	-11.5743
▁작전이	-11.5745
▁두번째로	-11.5753
▁구사	-11.5755
▁국내에서	-11.5758
▁석유회사	-11.5759
▁진압하기	-11.576
▁고독	-11.5766
▁잘라	-11.577
▁행정부에	-11.577
▁추측이	-11.577
▁el	-11.5772
▁얼굴에	-11.5772
▁변수	-11.5773
▁떠나지	-11.5773
▁요청했	-11.5773
▁win	-11.5774
▁법규	-11.5777
sm	-11.5782
▁희생됐다	-11.5787
▁노린	-11.579
▁클레이	-11.5805
▁행복한	-11.5807
ge	-11.5812
▁조심스럽	-11.5813
▁물건들	-11.5814
▁파괴되	-11.5816
▁국무	-11.5821
▁구의	-11.5822
드레	-11.5822
▁도발적	-11.5829
▁결혼한	-11.583
타카	-11.5833
▁프로그램에서	-11.5835
▁아나	-11.5842
▁이르다	-11.5846
▁지지해	-11.585
▁섭	-11.5853
▁사원에	-11.5857
▁증상이	-11.586
▁목적지	-11.5867
uck	-11.5869
▁크루	-11.587
▁압수했다	-11.5872
▁여당이	-11.5874
▁무대에	-11.5875
곳	-11.5877
▁동원됐다	-11.5882
▁수단이	-11.5886
▁콜로	-11.5895
ism	-11.5896
▁주어진	-11.5899
▁살아있	-11.5899
▁동물원에서	-11.5902
▁매춘부	-11.5904
▁ira	-11.5904
▁bp	-11.5909
▁북쪽에	-11.591
▁다운	-11.5912
정치	-11.5912
▁프린	-11.5914
▁호전	-11.5914
루드	-11.5917
▁os	-11.5919
con	-11.5919
가렛	-11.5919
ear	-11.5921
빨	-11.5925
▁정상회담에	-11.5929
▁만들어지	-11.5933
▁부각	-11.5934
▁후보였	-11.5937
바락	-11.5946
▁기술에	-11.5949
▁이동하	-11.595
▁세상에	-11.5955
▁운항이	-11.5956
▁고민	-11.5958
▁ver	-11.596
▁관계자와	-11.5961
▁조사하는	-11.5963
▁이성	-11.5968
▁어기	-11.5972
▁지방에	-11.5972
사령관	-11.5976
랩	-11.5979
▁북한측	-11.5979
▁사람들에	-11.598
▁마티	-11.5981
턱	-11.5982
붙	-11.5982
시리즈	-11.5982
▁근본적	-11.5982
앨	-11.5982
뒤	-11.5982
▁폭발물이	-11.5986
▁롱	-11.5993
▁별장	-11.5994
▁고려하	-11.5995
▁소행이라	-11.5996
진압	-11.5996
▁명이었다	-11.5998
▁현대적	-11.5998
화씨	-11.6005
▁공로	-11.6008
▁조사관들	-11.6008
▁손실이	-11.6009
▁제작했다	-11.6009
▁제국	-11.6014
▁다해	-11.6017
▁배우들	-11.6018
▁고속도로에서	-11.6021
▁회사에서	-11.6024
▁아프간군	-11.6025
▁차량과	-11.6026
ee	-11.6027
▁허용했다	-11.6029
▁기독교인	-11.6038
▁전차	-11.6042
▁노출된	-11.6043
▁번에	-11.6044
▁임무에	-11.6048
▁모델이	-11.6054
▁마드리드에서	-11.6058
▁시달리	-11.6063
▁앗아	-11.6064
▁비로	-11.6066
▁스티	-11.6068
▁느끼지	-11.6073
철도	-11.6076
▁top	-11.6081
요원들	-11.6088
▁상반	-11.6089
▁다리에	-11.6089
마크	-11.6093
▁연구하는	-11.6095
자키	-11.61
▁하루만	-11.61
▁업무에	-11.6101
북한	-11.6103
▁설명하지	-11.6103
▁말레이시아에서	-11.6106
관리국	-11.6107
▁괴롭	-11.6111
▁훔	-11.6114
▁rock	-11.6114
▁벌이다	-11.6114
▁좋았	-11.612
▁inc	-11.6133
▁계열	-11.614
▁한국어	-11.614
▁극단주의	-11.6142
▁되자	-11.6142
▁바람직	-11.6148
▁right	-11.6148
ark	-11.6149
▁지었다	-11.615
▁검문	-11.615
첩	-11.6153
▁대위	-11.6154
▁변호사와	-11.6154
심리	-11.6156
cy	-11.6156
▁meet	-11.6156
▁살모넬라	-11.6157
▁북대서양	-11.6157
ough	-11.6157
▁epl	-11.6157
▁london	-11.6157
▁nhc	-11.6157
▁uci	-11.6157
▁개성공단	-11.6157
▁걸림돌	-11.6157
▁국제올림픽위원회	-11.6157
▁금강산	-11.6157
▁긱스	-11.6157
▁남우주연상	-11.6157
▁내보냈	-11.6157
▁늦추	-11.6157
▁라크시미	-11.6157
▁레드삭스	-11.6157
▁버틀러	-11.6157
▁상임이사국	-11.6157
▁새크라멘토	-11.6157
▁샌안토니오	-11.6157
▁선거기부금	-11.6157
▁세골렌	-11.6157
▁악천후	-11.6157
▁애슐리	-11.6157
▁엑스파일	-11.6157
▁여러차례	-11.6157
▁옮겼다	-11.6157
▁유엔사무총장	-11.6157
▁이바노비치	-11.6157
▁잠깐	-11.6157
▁제퍼슨	-11.6157
▁지켰다	-11.6157
▁컸다	-11.6157
▁쿠즈넷소바	-11.6157
▁키티호크	-11.6157
▁팽팽	-11.6157
▁평화협정	-11.6157
▁하드웨어	-11.6157
▁히스패닉	-11.6157
덟	-11.6157
쯔	-11.6157
캇	-11.6157
펙	-11.6157
▁석유수출	-11.6157
▁중소기업	-11.6157
▁나타날	-11.6157
▁다둘라	-11.6157
▁깁스	-11.6157
▁나뉘어	-11.6157
▁오사카	-11.6157
▁하니야	-11.6157
▁회교도	-11.6157
▁징조	-11.6157
▁가이트너	-11.6157
▁욕구	-11.6157
▁어쩔	-11.6157
▁즐겁	-11.6157
▁막바지	-11.6157
▁무효	-11.6157
▁본거지	-11.6157
▁개구리	-11.6157
▁루카스	-11.6157
▁바시르	-11.6157
▁희귀	-11.6158
▁밀매	-11.6158
▁사형선고	-11.6158
▁진짜	-11.6158
▁캐롤라인	-11.6158
▁isaf	-11.6158
▁참혹	-11.6158
▁food	-11.6158
▁노숙자	-11.6158
▁어렸을	-11.6158
▁tax	-11.6158
▁교도통신	-11.6158
▁적혀있	-11.6158
▁게이머	-11.6158
▁탈퇴	-11.6158
▁bill	-11.6158
▁웰스	-11.6158
▁바레인	-11.6158
▁즐겨	-11.6158
▁승부차기	-11.6158
▁출항	-11.6158
▁눈보라	-11.6159
▁항구도시	-11.6159
▁궁금	-11.6159
▁그린존	-11.6159
▁진척	-11.6159
▁크리스틴	-11.6159
▁핵연료	-11.6159
▁혼잡	-11.6159
▁쿠폰	-11.6159
▁잠겨	-11.616
▁오래전부터	-11.616
▁쏟아져	-11.616
▁어워드	-11.616
▁빙산	-11.616
▁액체	-11.616
▁컬럼비아호	-11.616
az	-11.6161
▁쿠마르	-11.6161
▁어윈	-11.6161
▁찰리	-11.6161
▁호황	-11.6161
▁소방서	-11.6161
▁들어올	-11.6161
▁가정집	-11.6161
▁디젤	-11.6161
▁양육	-11.6161
▁실망감	-11.6162
▁꾸미	-11.6162
▁test	-11.6162
▁무척	-11.6162
▁괴물	-11.6162
▁오디오	-11.6162
▁야채	-11.6162
▁직무	-11.6163
▁루머	-11.6163
▁이송됐으	-11.6163
fi	-11.6163
▁떨어졌습니다	-11.6164
▁이어갔다	-11.6164
▁단언	-11.6164
▁hit	-11.6164
▁항공편	-11.6164
▁오리건주	-11.6164
▁카타르	-11.6164
▁에밀리	-11.6165
▁지하실	-11.6165
▁중동평화회의	-11.6165
▁미주리주	-11.6165
▁deal	-11.6165
▁숨져	-11.6166
▁충성	-11.6166
▁샤리아	-11.6166
▁드러나	-11.6167
▁세기에	-11.6167
▁변호인단	-11.6167
▁빅토	-11.6168
▁누출	-11.6168
▁화물선	-11.6168
▁꺼내	-11.6168
▁반란군	-11.6168
대학교	-11.6169
▁모여들었다	-11.6169
▁비틀	-11.6169
▁미시건주	-11.6169
▁진동	-11.617
▁속출	-11.617
▁왕조	-11.617
▁탈선	-11.617
▁밝혀질	-11.617
▁사진기자	-11.6171
▁표본	-11.6171
▁제왕	-11.6172
▁기대감	-11.6172
▁경감	-11.6172
▁green	-11.6173
▁굽	-11.6173
▁종사하	-11.6173
▁의논	-11.6173
▁백만명	-11.6173
▁궁극적으로	-11.6174
▁않을까	-11.6174
▁다름	-11.6174
▁어류	-11.6174
▁아담스	-11.6175
▁지켜봤다	-11.6175
▁타개	-11.6175
▁태세	-11.6175
▁소유즈	-11.6177
▁그런데	-11.6179
▁김영	-11.6179
▁로렌스	-11.6179
▁만평	-11.618
▁비스타	-11.618
▁기사에	-11.6181
▁통제권	-11.6181
▁상태였	-11.6181
▁정복	-11.6181
▁king	-11.6181
▁과속	-11.6182
▁여건	-11.6182
▁감당	-11.6183
▁친미	-11.6183
▁토티	-11.6184
ift	-11.6186
▁싼	-11.6187
▁않았기	-11.6187
▁난관	-11.6187
▁조장하	-11.6187
▁망치	-11.6187
▁안았다	-11.6188
▁계획이었다	-11.6188
▁펜실베니아주	-11.6188
▁알아야	-11.6191
▁재계	-11.6191
▁사료	-11.6191
▁적법	-11.6192
▁부재	-11.6193
▁썩	-11.6193
▁수사팀	-11.6193
▁로렌	-11.6194
▁눈으로	-11.6194
▁분개	-11.6195
▁가져야	-11.6196
▁점유	-11.6196
▁점심	-11.6197
▁권장	-11.6198
▁거울	-11.62
▁준결승전에서	-11.62
▁북극해	-11.6201
▁불량	-11.6202
▁질병에	-11.6204
▁해외로	-11.6204
▁자재	-11.6204
▁옮겨졌다	-11.6205
▁관람객	-11.6206
▁원형	-11.6208
▁구직	-11.6209
▁지냈다	-11.621
▁부패혐의	-11.621
▁정보원	-11.6211
▁독자적	-11.6211
▁돌진	-11.6211
▁스티븐스	-11.6211
▁손길	-11.6212
▁쉴	-11.6212
▁운동화	-11.6214
▁분리된	-11.6214
▁예상한	-11.6216
주간	-11.6217
▁바탕으로	-11.6218
▁은신	-11.6219
▁책상	-11.622
▁리마	-11.6221
▁변하지	-11.6221
▁편에	-11.6221
▁체스	-11.6222
▁본인	-11.6222
▁확정됐다	-11.6222
▁레비	-11.6224
▁퓨	-11.6225
▁새우	-11.6227
▁충격적	-11.6231
▁군용	-11.6234
▁ser	-11.6235
▁가담한	-11.6237
▁계약서	-11.6238
▁유학	-11.624
▁주말까지	-11.6241
▁음식점	-11.6241
아갈	-11.6242
▁이탈리아에서	-11.6243
▁놓치	-11.6244
▁자국민	-11.6246
▁스트리트	-11.6246
▁배아	-11.625
▁언론들	-11.6251
▁자질	-11.6252
▁클라인	-11.6254
▁플로리다에서	-11.6254
▁cut	-11.6256
▁franc	-11.6256
▁공개될	-11.6258
▁내역	-11.6259
▁반대해	-11.626
▁카라치에서	-11.626
▁한창	-11.6262
▁정보에	-11.6262
▁끌어내	-11.6263
▁매도	-11.6268
▁허가했다	-11.6268
변화	-11.627
▁선서	-11.6271
▁중심부에서	-11.6273
▁삼바	-11.6273
than	-11.6276
▁가시	-11.6277
▁무거	-11.6278
▁육지	-11.6279
▁불만이	-11.6279
▁당선됐다	-11.6284
▁공약으로	-11.6291
▁나빠	-11.6296
▁mp	-11.6298
▁호스	-11.63
▁통제하는	-11.63
▁생사	-11.6302
water	-11.6304
▁몰아내	-11.631
▁주관	-11.6312
▁떠나기	-11.6316
적이었다	-11.6316
ling	-11.6317
▁인사들과	-11.6317
▁mid	-11.6318
▁대미	-11.6319
▁추방된	-11.632
▁단계로	-11.6321
▁시신들	-11.6321
▁철회할	-11.6323
ease	-11.6329
▁사라져	-11.633
▁남쪽에	-11.6331
▁북한군	-11.6332
▁학자	-11.6334
▁생명에	-11.6338
하드	-11.6338
▁농장에서	-11.6338
▁성장이	-11.6339
▁제공되	-11.6344
▁주식시장에서	-11.6351
▁우주국	-11.6353
▁다양성	-11.6353
▁발표되	-11.6358
마트	-11.6362
▁wh	-11.6366
▁신뢰도	-11.6369
▁생산성	-11.6369
▁조심	-11.6375
▁주어지	-11.6375
교수	-11.6382
문제에	-11.6384
▁마루	-11.6384
▁상징으로	-11.6384
▁베니스	-11.6392
▁뜨	-11.6398
▁부위에	-11.6402
▁거부할	-11.6404
라프	-11.6405
▁져야	-11.641
▁예루살렘에서	-11.641
▁중심부에	-11.6411
▁웬	-11.6412
상태에	-11.6413
▁컴	-11.6414
▁합류했다	-11.6414
▁보스	-11.6414
▁다녀	-11.6415
▁살아있다	-11.6416
▁회사측	-11.6427
▁대중들	-11.6428
▁누구에게	-11.6434
▁동안에	-11.6435
▁혁신적	-11.6435
▁죽음이	-11.6436
▁번호	-11.6441
워크	-11.6448
▁협력해	-11.6452
▁신자들	-11.6452
▁통신에	-11.6462
▁퇴원했다	-11.6464
▁그외	-11.6465
▁발효	-11.647
▁임원들	-11.647
▁때보다	-11.6473
▁강화하	-11.6478
▁비공식	-11.6479
▁개별	-11.6484
▁이어져	-11.6485
▁센터에	-11.6491
▁흔적이	-11.6494
▁파티에	-11.6495
▁자원봉사자들	-11.6496
ag	-11.6496
▁거점	-11.6504
▁작동되	-11.6504
▁텐	-11.6507
▁사회에서	-11.6507
▁대에	-11.6511
▁ph	-11.6512
▁부문에	-11.6512
▁차장	-11.6513
▁흥분한	-11.6513
▁자체적	-11.6517
▁라만	-11.6525
▁위원회에서	-11.6527
▁출연할	-11.6527
▁정부측	-11.6528
▁화면에	-11.6529
▁거주자	-11.6532
▁집권한	-11.6535
닐	-11.6536
▁취하기	-11.6537
▁시작된다	-11.6541
▁상황으로	-11.6543
▁촉진시키	-11.6546
밤	-11.655
▁역할에	-11.6553
죽	-11.6556
활	-11.6558
▁루시	-11.6559
▁제방	-11.6559
▁sen	-11.6562
▁감소하고	-11.6565
재판소	-11.6566
space	-11.6567
랭킹	-11.6571
▁다할	-11.6577
바오	-11.6577
업무	-11.658
▁발사됐다	-11.6581
집단	-11.6585
▁여론조사에	-11.6587
신청	-11.6592
▁넘었다	-11.6596
▁당선되	-11.6597
▁보라	-11.6598
프레드	-11.6602
시절	-11.6618
중단	-11.6619
▁적었다	-11.6621
신원	-11.6622
▁의대	-11.6633
▁결정하는	-11.6633
▁거래에서	-11.6636
▁worker	-11.6637
▁다나	-11.6637
ile	-11.6642
▁해변에	-11.6644
▁제압	-11.6646
▁죽고	-11.6647
▁생겼	-11.6647
▁금요일에	-11.6652
감시	-11.6661
▁금지했다	-11.6665
▁대항하는	-11.6665
▁차량에서	-11.6669
▁나간	-11.667
▁재개했다	-11.6675
▁납부	-11.6682
보기	-11.6683
▁극복하	-11.6686
▁나토군이	-11.6694
▁분리주의	-11.67
▁여행자	-11.6703
▁이슬람교도들	-11.6705
▁통과시키	-11.6706
▁절반이	-11.6706
스러웠	-11.6709
▁메디컬	-11.6711
▁스페인에서	-11.6714
ang	-11.6717
▁corp	-11.672
▁기지에	-11.6721
▁수개월	-11.6721
지역으로	-11.6721
▁아비	-11.6727
▁터뜨	-11.6728
▁주차장	-11.6729
▁잠재	-11.6731
혁	-11.6731
▁미시건	-11.6733
▁역설	-11.6735
▁브랜	-11.6735
▁준결승	-11.6735
▁join	-11.6735
hot	-11.6736
▁기자와	-11.674
셉	-11.6741
옹	-11.6742
왓	-11.6744
▁힌두	-11.6745
놔	-11.6745
쿼	-11.6745
툰	-11.6745
employ	-11.6745
▁eads	-11.6745
▁iwc	-11.6745
▁official	-11.6745
▁street	-11.6745
▁strike	-11.6745
▁unhcr	-11.6745
▁경기후퇴	-11.6745
▁고르바초프	-11.6745
▁공상과학	-11.6745
▁구소련	-11.6745
▁뉴잉글랜드	-11.6745
▁더글라스	-11.6745
▁독극물	-11.6745
▁땅콩	-11.6745
▁리우데자네이루	-11.6745
▁메릴린치	-11.6745
▁몰랐다	-11.6745
▁바나프샤	-11.6745
▁배아줄기세포	-11.6745
▁백과사전	-11.6745
▁빈민층	-11.6745
▁샀다	-11.6745
▁서둘러	-11.6745
▁스필버그	-11.6745
▁시에라리온	-11.6745
▁식품의약국	-11.6745
▁아디다스	-11.6745
▁암스테르담	-11.6745
▁예방접종	-11.6745
▁옥스포드	-11.6745
▁재결합	-11.6745
▁정찰위성	-11.6745
▁조류독감	-11.6745
▁조선일보	-11.6745
▁좁혀	-11.6745
▁칠면조	-11.6745
▁통합민주당	-11.6745
▁트러스트	-11.6745
▁트리폴리	-11.6745
▁포유류	-11.6745
▁햇빛	-11.6745
▁헐리우드	-11.6745
▁확립	-11.6745
▁흩어져	-11.6745
띤	-11.6745
샨	-11.6745
텀	-11.6745
퐁	-11.6745
해냈다	-11.6745
▁깁슨	-11.6745
▁영업이익	-11.6745
▁자페타	-11.6745
▁췌장암	-11.6745
▁항공모함	-11.6745
▁헤드폰	-11.6745
▁상무부	-11.6746
▁다이어트	-11.6746
▁메이도프	-11.6746
▁타디치	-11.6746
▁irna	-11.6746
▁갱단	-11.6746
▁국가정보원	-11.6746
▁노던록	-11.6746
▁산체스	-11.6746
▁스프레이	-11.6746
▁원자재	-11.6746
▁흥정	-11.6746
▁대성당	-11.6746
▁놀이공원	-11.6746
▁버크헤드	-11.6746
▁사진작가	-11.6746
▁반세기	-11.6746
▁강대국	-11.6746
▁고등학생	-11.6746
풋볼	-11.6746
▁낭독	-11.6746
▁카펫	-11.6746
▁북아일랜드	-11.6746
▁정착촌	-11.6746
▁슬픈	-11.6746
▁고아원	-11.6746
▁작가조합	-11.6746
▁출혈	-11.6746
▁국영언론	-11.6746
▁씨앗	-11.6746
point	-11.6746
▁체험	-11.6746
▁부모님	-11.6747
▁기념행사	-11.6747
▁sex	-11.6747
▁four	-11.6747
▁출현	-11.6747
▁헬렌	-11.6747
▁부활절	-11.6747
▁마스터즈	-11.6747
▁부유층	-11.6747
▁십자가	-11.6747
▁항의시위	-11.6747
▁총파업	-11.6748
▁그만두	-11.6748
▁리옹	-11.6748
▁신흥	-11.6748
▁유대교	-11.6748
▁관례	-11.6748
▁계승	-11.6748
▁형벌	-11.6748
▁tsa	-11.6748
▁축복	-11.6748
▁제이슨	-11.6749
▁몰락	-11.6749
받았	-11.6749
▁크랜	-11.6749
▁막으려	-11.6749
▁탄원서	-11.6749
▁벌어질	-11.675
▁무장조직	-11.675
▁용감	-11.675
▁특혜	-11.675
▁내륙	-11.6751
▁보건장관	-11.6751
▁올라왔다	-11.6751
▁mtv	-11.6751
▁바랍	-11.6751
▁찍힌	-11.6751
▁흠	-11.6752
▁머무르	-11.6752
▁작위	-11.6752
▁프린트	-11.6752
▁엔론	-11.6752
▁완구	-11.6752
▁최신작	-11.6752
▁마자	-11.6753
▁돌파구	-11.6753
▁국제축구연맹	-11.6753
▁로리언	-11.6753
▁죽어	-11.6753
▁피켓	-11.6753
▁기네스	-11.6753
▁요구사항	-11.6753
▁종목	-11.6754
▁야망	-11.6754
▁바이든	-11.6754
▁켄트	-11.6754
▁잃어	-11.6754
▁돌렸다	-11.6754
▁절정	-11.6755
▁청산	-11.6755
▁수익금	-11.6755
▁강철	-11.6755
▁환경단체	-11.6755
uni	-11.6756
▁통신망	-11.6756
▁티모	-11.6757
▁폴락	-11.6757
▁오델	-11.6757
▁출산율	-11.6757
▁이뤘	-11.6757
▁넘긴	-11.6758
ble	-11.6758
▁국무회의	-11.6758
▁최장	-11.6758
▁현저	-11.676
▁할렘	-11.676
▁구제금융안	-11.676
▁귀중	-11.6761
▁거부하는	-11.6762
▁관제	-11.6762
▁부의장	-11.6762
▁ces	-11.6763
▁사과문	-11.6763
▁황소	-11.6763
▁동점	-11.6763
▁평양에	-11.6763
▁오찬	-11.6763
▁차이점	-11.6764
▁사립	-11.6765
▁통신원	-11.6766
▁악수	-11.6767
▁휴전선	-11.6768
▁드물	-11.6768
▁경찰국장	-11.6769
▁정찰기	-11.6769
▁타워	-11.677
▁밀크	-11.677
▁prosecutor	-11.6771
▁aft	-11.6771
▁코란	-11.6771
▁배출량	-11.6772
▁인터내셔널	-11.6773
light	-11.6774
▁결선	-11.6775
▁테크	-11.6775
▁소포	-11.6775
▁파란	-11.6775
▁어조	-11.6777
▁정유	-11.6778
▁원석	-11.678
▁관점	-11.678
▁스토	-11.6781
▁진술서	-11.6781
▁관용	-11.6782
▁정문	-11.6782
▁보내졌다	-11.6784
▁다량	-11.6784
▁파이낸셜	-11.6784
▁로열	-11.6785
▁별개	-11.6785
▁실명	-11.6786
ore	-11.6786
▁의장직	-11.6787
▁성실	-11.6788
▁극도로	-11.679
▁봤을	-11.679
▁기자실	-11.679
▁캐시	-11.679
프랑	-11.6792
▁블루스	-11.6793
▁희생된	-11.6794
▁뻔	-11.6795
▁화성에	-11.6798
▁제압하	-11.68
▁찾아야	-11.68
▁라드	-11.6802
▁총력	-11.6802
▁되도록	-11.6803
▁수천만	-11.6803
▁마신	-11.6803
▁소비자들에게	-11.6804
▁되는데	-11.6804
▁야드	-11.6807
▁노동조합	-11.6807
▁고객들에게	-11.6807
▁압도적으로	-11.6808
▁구조물	-11.6809
▁마카	-11.6811
▁공동체	-11.6814
▁가혹한	-11.6815
▁패했다	-11.6815
▁소치	-11.6816
▁불법적으로	-11.6816
보관소	-11.6817
▁넘쳐	-11.6817
▁관중들	-11.6818
▁숨어있	-11.682
▁프레이	-11.682
▁범인들	-11.6821
▁마오	-11.6821
▁부탁했다	-11.6824
▁양식	-11.6825
▁합의했	-11.6827
▁우수	-11.6828
▁딱	-11.6828
▁헌법상	-11.6829
▁최다	-11.6831
▁에너지부	-11.6832
투성이	-11.6834
▁오프	-11.6835
▁급락했다	-11.6835
학술	-11.6836
▁교장	-11.6836
▁대만에	-11.6837
▁놈	-11.6838
▁집계됐다	-11.6839
▁상환	-11.6841
▁신청했다	-11.6843
▁명씩	-11.6843
▁크리	-11.6846
드미	-11.6849
▁수신	-11.685
▁영화계	-11.6854
▁세울	-11.6859
▁이슬람교도	-11.6863
▁일부에서	-11.6864
▁위권	-11.6864
▁맞이했다	-11.6868
▁미렌	-11.687
▁억명	-11.687
ast	-11.6873
▁축하하기	-11.6878
▁수염	-11.6881
▁살기	-11.6882
ama	-11.6884
▁자카르타에서	-11.6885
▁태워	-11.6886
▁멋지	-11.6887
▁홀리	-11.6888
▁조니	-11.6891
▁총리실	-11.6892
▁볼트	-11.6893
▁문화원	-11.6896
▁승리해야	-11.6897
▁수출국	-11.69
롤라	-11.6901
▁끝이	-11.6903
▁바꾸기	-11.6903
사르	-11.6907
▁지역구	-11.6911
▁해안지역	-11.6912
▁정했다	-11.6912
▁지시한	-11.6913
▁결정적	-11.6913
▁비슷하다	-11.6914
▁뷰	-11.6916
▁생각했	-11.6918
▁흥미로	-11.692
▁대응하기	-11.6924
▁act	-11.6924
▁갖지	-11.6929
▁때에	-11.693
▁레오	-11.6937
▁한동안	-11.6937
▁깨어	-11.6938
mas	-11.6938
▁주도했다	-11.694
▁목장	-11.694
▁일부에	-11.6941
▁개제	-11.6942
▁농구	-11.6947
리프	-11.6954
▁세계에	-11.6956
▁대법원에	-11.6957
vs	-11.696
▁gra	-11.6963
▁않았었다	-11.6964
사전	-11.6968
▁타계했다	-11.6968
▁선교	-11.6977
▁사망률	-11.6982
▁실직자	-11.6988
지도자	-11.6993
▁장착한	-11.6998
▁월경	-11.6999
▁유가족들	-11.7
▁팀장	-11.7003
▁way	-11.7005
▁과거사	-11.7008
▁요가	-11.7009
▁회의적	-11.7012
▁전후	-11.7019
▁당사자	-11.702
▁시드니에서	-11.7022
베르트	-11.7029
▁수니파와	-11.7029
▁하늘에서	-11.7029
담당자	-11.7029
▁패배한	-11.703
▁모아이	-11.7032
▁장애인	-11.7033
▁참여하고	-11.7033
▁일으키고	-11.7034
▁잠들	-11.7034
호선	-11.7036
▁없다면	-11.7037
▁적들	-11.7039
▁광고에	-11.704
▁전화기	-11.7041
▁동요	-11.7041
▁위력	-11.7043
건설	-11.7043
ube	-11.7052
나단	-11.7052
▁이민자	-11.7053
▁보이기	-11.7059
▁사자	-11.7059
▁자백	-11.706
▁자백했다	-11.7061
▁브라질에서	-11.7069
▁생물학자	-11.7072
rop	-11.7072
▁임명됐다	-11.7074
금치	-11.7075
▁경매에서	-11.7078
▁여러분이	-11.7083
▁선호하	-11.7086
▁당사자들	-11.7087
노동자당	-11.7089
▁딸들	-11.7091
ves	-11.7096
셨	-11.7099
▁cas	-11.7099
▁실시하고	-11.71
▁블로거	-11.7103
▁물자	-11.7106
데라	-11.7122
▁국무장관과	-11.7122
men	-11.7125
정지	-11.7126
▁인용했다	-11.7126
▁비난해	-11.7126
차관	-11.7127
▁청년들	-11.7135
▁환자에게	-11.7136
had	-11.7137
▁대행	-11.7138
▁폭도	-11.714
▁시위대들	-11.7146
▁바커	-11.7151
하든	-11.7153
▁도와주	-11.7153
▁토론회에	-11.7155
▁바라지	-11.7155
▁이해하는	-11.7156
▁조각들	-11.7157
▁죽음으로	-11.7161
▁강타했다	-11.7161
war	-11.7167
▁유튜브에	-11.7173
▁베니	-11.7174
부장관	-11.7175
▁급증했다	-11.7177
▁타계	-11.7179
▁미미	-11.718
▁사용된다	-11.718
ray	-11.7181
▁폭도들	-11.7181
▁유명인사들	-11.7184
꾸	-11.7187
▁존재하지	-11.7188
앞	-11.719
뷰	-11.7192
잎	-11.7194
저널	-11.7196
▁멕시코에서	-11.7197
▁선보이	-11.7198
처분	-11.7202
nc	-11.7208
▁리자	-11.7212
강한	-11.7212
공연	-11.7212
▁주인공이	-11.7215
▁헌법에	-11.7216
▁보니	-11.7218
▁압력에	-11.7221
보라	-11.723
스텔	-11.7236
즘	-11.7242
밀리에	-11.7245
▁변했다	-11.7249
▁베드	-11.725
국적	-11.7251
▁일생	-11.7253
▁정당한	-11.7253
▁팬이	-11.7255
ust	-11.7255
ning	-11.7264
ator	-11.7272
▁모국	-11.7278
▁타임즈와	-11.728
▁거래소	-11.7288
▁불확실	-11.7292
▁태우	-11.7294
▁실망했다	-11.7296
action	-11.7297
▁경쟁자들	-11.7298
▁유독	-11.7301
▁시도했으	-11.7303
▁라벨	-11.7304
▁청와대에서	-11.7308
바라크	-11.7309
▁사유	-11.731
▁달했다	-11.731
▁스타디움	-11.731
▁의거	-11.7311
교사	-11.7315
▁단계에서	-11.7315
▁아스	-11.7315
▁관람객들	-11.7316
▁공원에	-11.732
운영	-11.7321
▁국민과	-11.7324
▁외국인들이	-11.7327
▁거뒀	-11.7334
▁주최하	-11.7336
▁개발했다	-11.7336
▁타마	-11.7338
▁소실	-11.734
▁우려했다	-11.7343
▁다르지	-11.7346
ler	-11.7348
▁빠졌	-11.7349
▁연구실	-11.735
▁시에서	-11.7352
▁덧붙였	-11.7352
▁알렉산드	-11.7353
▁천문학	-11.7355
ful	-11.736
den	-11.7361
▁가하는	-11.7362
▁영국인들	-11.7363
▁면역	-11.7365
▁대사와	-11.7366
둬	-11.7367
륜	-11.7369
▁kill	-11.737
▁agree	-11.737
▁냉각	-11.737
톡	-11.737
쑤	-11.737
▁academy	-11.737
▁california	-11.737
▁committee	-11.737
▁country	-11.737
▁dead	-11.737
▁institute	-11.737
▁million	-11.737
▁paris	-11.737
▁return	-11.737
▁건강검진	-11.737
▁걷기	-11.737
▁국가평의회	-11.737
▁깨달았다	-11.737
▁나미비아	-11.737
▁남동생	-11.737
▁동아시아	-11.737
▁떠올랐다	-11.737
▁래드클리프	-11.737
▁리투아니아	-11.737
▁멜버른	-11.737
▁멤피스	-11.737
▁모레스모	-11.737
▁미확인	-11.737
▁바랐다	-11.737
▁박정희	-11.737
▁부동층	-11.737
▁부총재	-11.737
▁불균형	-11.737
▁불러일으켰다	-11.737
▁블록버스터	-11.737
▁사이언톨로지	-11.737
▁신행정수도	-11.737
▁아프카니스탄	-11.737
▁알츠하이머	-11.737
▁알카티리	-11.737
▁위태롭게	-11.737
▁이스마일	-11.737
▁전자메일	-11.737
▁찾아냈다	-11.737
▁츠방기라이	-11.737
▁퀘벡	-11.737
▁타이타닉	-11.737
▁패트로스	-11.737
▁프랑크푸르트	-11.737
▁플레이스테이션	-11.737
▁혹등고래	-11.737
▁휠체어	-11.737
▁휴전협정	-11.737
▁흡입	-11.737
랏	-11.737
▁christ	-11.737
▁kbs	-11.737
▁travel	-11.737
▁뇌졸중	-11.737
▁매몰된	-11.737
▁배트맨	-11.737
▁볼리비아	-11.737
▁불공정	-11.737
▁재경부	-11.737
▁정보통신부	-11.737
▁헬만드	-11.737
팡	-11.737
▁구속영장	-11.7371
▁언젠가	-11.7371
▁유동성	-11.7371
▁인수제안	-11.7371
▁존엄성	-11.7371
▁open	-11.7371
▁대법관	-11.7371
▁리브니	-11.7371
▁사로잡	-11.7371
▁스콜스	-11.7371
▁레코드	-11.7371
▁메케인	-11.7371
▁중질유	-11.7371
▁사직서	-11.7371
▁버나드	-11.7371
▁원동력	-11.7371
▁불가사의	-11.7371
▁로드아일랜드	-11.7371
▁비무장지대	-11.7371
▁엘리엇	-11.7371
▁music	-11.7371
▁thai	-11.7371
▁검정색	-11.7371
▁진상조사	-11.7371
▁화학물질	-11.7371
▁트랙	-11.7371
▁당뇨병	-11.7371
▁질병통제	-11.7371
▁africa	-11.7371
▁cru	-11.7371
▁압델	-11.7371
▁다이앤	-11.7371
▁벗겨	-11.7371
▁언급하	-11.7371
▁철폐	-11.7371
▁블랙홀	-11.7371
▁글로리아	-11.7371
▁도망쳤다	-11.7371
▁클릭	-11.7372
▁교훈	-11.7372
▁국가안보회의	-11.7372
▁식별	-11.7372
▁잠자리	-11.7372
▁검역	-11.7372
▁볼드윈	-11.7372
▁물리학자	-11.7372
▁watch	-11.7372
▁차량폭탄	-11.7372
▁숙박	-11.7372
▁부대변인	-11.7373
▁마피아	-11.7373
▁도둑	-11.7373
▁출처	-11.7373
▁게시물	-11.7373
▁슬림	-11.7373
▁놀라움	-11.7373
▁별칭	-11.7373
▁멜론	-11.7373
▁희미	-11.7373
▁그래미	-11.7373
▁그레그	-11.7373
▁키팅	-11.7373
▁스튜	-11.7374
▁축구선수	-11.7374
▁우주여행	-11.7374
▁big	-11.7374
▁대리모	-11.7374
그너	-11.7374
▁조세프	-11.7374
▁생애	-11.7374
▁무효화	-11.7374
▁절망	-11.7374
▁abn	-11.7374
▁벤처	-11.7375
▁나눈	-11.7375
▁파키스탄인민당	-11.7375
▁연립	-11.7375
▁제국주의	-11.7375
▁공헌	-11.7375
▁살인사건	-11.7376
▁청원서	-11.7376
tan	-11.7376
▁대슐	-11.7376
▁신기록	-11.7376
▁로빈슨	-11.7376
▁태생	-11.7376
▁오웬	-11.7377
▁우편물	-11.7377
▁제휴	-11.7377
▁프로스트	-11.7377
▁attacks	-11.7378
▁절실	-11.7378
▁단편	-11.7378
▁관통	-11.7378
▁증파	-11.7378
▁소년병	-11.7379
▁조롱	-11.7379
▁불법행위	-11.7379
▁레빈	-11.738
▁지방정부	-11.738
▁언니	-11.738
▁법무상	-11.738
로프트	-11.7381
▁심슨이	-11.7383
▁아델	-11.7383
▁신년	-11.7383
▁바꾼	-11.7383
▁신랑	-11.7383
▁aids	-11.7383
▁이맘	-11.7384
▁집결	-11.7384
▁바다위	-11.7384
▁군사정부	-11.7384
▁최적	-11.7384
▁생계	-11.7384
▁골절	-11.7384
▁조직위	-11.7384
▁허브	-11.7385
▁물러났다	-11.7385
▁메인주	-11.7385
▁증대	-11.7386
▁던졌	-11.7386
▁포탄	-11.7387
▁무력화	-11.7387
▁주연상	-11.7388
▁쇼에서	-11.7389
▁놓여있다	-11.7389
▁건축물	-11.739
▁해결되	-11.739
▁공석	-11.7391
▁마술	-11.7391
▁루터	-11.7391
▁기지에서	-11.7392
▁찾아온	-11.7392
▁동의안	-11.7392
▁해골	-11.7393
▁도보	-11.7393
▁move	-11.7394
▁발판	-11.7394
▁변명	-11.7396
▁거액	-11.7398
ird	-11.7398
▁과감	-11.7398
▁지상군	-11.7398
▁부주의	-11.7399
▁전했	-11.74
▁유실	-11.7401
▁주의보	-11.7401
▁경미	-11.7401
▁부분적으로	-11.7401
▁격전	-11.7402
▁우정	-11.7403
▁모방	-11.7403
▁인권문제	-11.7404
▁유로화	-11.7405
▁라마	-11.7405
▁주일간	-11.7405
▁많았	-11.7406
▁어스	-11.7407
▁there	-11.7408
▁찍어	-11.7409
▁궁지에	-11.7411
▁실업자	-11.7411
▁상속	-11.7411
▁처사	-11.7411
▁신차	-11.7415
ps	-11.7416
▁중요하게	-11.7416
▁부친	-11.7418
▁과오	-11.7418
▁맺어	-11.742
▁있냐	-11.742
▁궁전	-11.742
▁친부	-11.742
키마	-11.7421
▁주립대학	-11.7422
▁깨진	-11.7423
표한다	-11.7423
▁체력	-11.7423
▁등장한다	-11.7424
▁내외	-11.7425
▁xp	-11.7427
▁벗기	-11.7427
▁박탈당	-11.7429
▁유니버	-11.7429
▁자리잡	-11.7429
▁하나였다	-11.7431
▁아마드	-11.7431
▁자료에	-11.7435
▁빛나	-11.7436
▁요리사	-11.7437
▁감사원	-11.7438
▁yout	-11.744
▁art	-11.744
▁사업체	-11.7441
▁페어	-11.7442
▁희	-11.7442
군사훈련	-11.7444
▁연상	-11.7445
▁생산업체	-11.7446
▁소방대원들	-11.7446
▁캘	-11.7446
▁킴	-11.7447
▁향상시키	-11.7447
행해진	-11.745
▁합쳐	-11.7453
▁착륙했다	-11.7455
▁피지	-11.7455
▁오르지	-11.7457
됐음	-11.7457
▁유지될	-11.7461
▁유발할	-11.7461
▁좋아지	-11.7461
▁덴	-11.7461
▁손잡	-11.7463
▁밝혀져	-11.7466
▁반사	-11.7467
▁살레	-11.7467
▁urge	-11.7471
▁랜디	-11.7473
▁그녀에게	-11.7475
▁공개되	-11.7478
▁크라	-11.7479
공학	-11.7481
▁명절	-11.7482
▁말하자	-11.7482
▁dai	-11.7485
▁오바	-11.7486
▁입소	-11.7488
무차관	-11.7488
▁지구와	-11.7488
ham	-11.7489
▁애인	-11.749
▁emi	-11.7491
▁트럭에	-11.7493
▁펼쳐지	-11.7493
▁비판하는	-11.7494
▁개막식에	-11.7496
▁노르	-11.7502
▁쥐들	-11.7505
▁묵인	-11.7505
▁파장	-11.7506
▁흙	-11.7506
▁사령부	-11.7506
▁테러리스트들이	-11.751
▁죽어가	-11.7512
▁의사회	-11.7513
▁받아들이기	-11.7513
▁bet	-11.7515
▁부모에게	-11.7515
▁가속	-11.7515
로윈	-11.7519
▁당선이	-11.7519
▁자동차회사	-11.7521
▁감정적	-11.7522
▁올라갔	-11.7525
▁지원자들	-11.7529
▁애플사	-11.7529
렉스	-11.7531
▁보석으로	-11.7533
때로	-11.7533
▁건물들이	-11.7539
▁결승에	-11.754
▁주변국들	-11.7541
ali	-11.7541
▁분석한	-11.7541
▁놓았	-11.7543
▁대구	-11.7548
▁자진	-11.7552
▁워싱턴주	-11.7554
▁투표했다	-11.7555
▁자동차업체	-11.7557
▁초고속	-11.7557
▁전락	-11.7557
▁목록에서	-11.7558
▁영국으로부터	-11.7566
▁장갑	-11.7568
ung	-11.7571
▁유사하다	-11.7571
▁파견한	-11.7573
▁지장	-11.7574
▁로게	-11.7577
dition	-11.7579
▁민주당원	-11.7585
▁안면	-11.7587
▁남동부에서	-11.7591
▁교수들	-11.7599
▁축출된	-11.7602
▁켜	-11.7602
▁둥	-11.7613
▁지도부와	-11.7616
▁축구팬들	-11.7624
▁왔었다	-11.7625
▁일축	-11.7625
▁사라졌	-11.7628
▁도와주는	-11.7629
▁인류학	-11.7633
▁분주	-11.7635
▁파라	-11.7637
▁에드로	-11.7638
▁터지	-11.7652
▁참석자들	-11.7656
▁특성	-11.7657
▁보자	-11.7659
분별	-11.766
▁쓰여	-11.7662
▁비공식적	-11.7662
▁장군과	-11.7664
▁분쟁에	-11.7666
ire	-11.7667
▁under	-11.7668
▁mon	-11.7669
▁죽인	-11.7671
▁케인	-11.7672
▁탐험가	-11.7676
▁명중	-11.7676
han	-11.768
▁초까지	-11.7686
▁발견되었	-11.7686
▁확산됐다	-11.7687
▁베티	-11.7689
버렸	-11.7693
▁나간다	-11.7697
▁회복할	-11.7697
키야	-11.7699
▁출발한	-11.7706
▁지불했다	-11.7708
▁올라와	-11.7709
▁표현한	-11.7714
▁인부	-11.7717
인민당	-11.7722
▁직면하	-11.7723
▁폐쇄됐다	-11.7723
▁아들에게	-11.7724
▁중단해야	-11.7731
▁사르	-11.774
▁참석한다	-11.7742
km	-11.7745
▁아타	-11.7745
매장	-11.7753
net	-11.7757
▁옹호하	-11.776
▁빛이	-11.776
▁죽었	-11.7761
▁천장	-11.7761
▁엑	-11.7765
arly	-11.7765
▁방영되	-11.7767
▁영하	-11.7772
▁마련하고	-11.7773
▁생산되	-11.7773
▁축구팬	-11.7774
tter	-11.778
키스	-11.7784
red	-11.7784
▁존재한다	-11.7787
▁폐쇄하기	-11.7787
자본	-11.7788
▁소매업	-11.7791
▁월드컵에서	-11.7792
▁제한된	-11.7793
time	-11.7794
▁come	-11.7797
늘	-11.78
bra	-11.7801
▁뒷받침	-11.7803
▁안된	-11.7815
▁시도할	-11.7816
▁실적이	-11.7824
tory	-11.7834
▁공적	-11.7835
버거	-11.7839
▁자살했다	-11.7839
나갔다	-11.784
브리지	-11.7843
있게	-11.7844
▁탈북자들	-11.7844
▁대대	-11.785
▁추진해	-11.7852
▁지나면	-11.7854
▁let	-11.7858
눈	-11.7858
프로그램	-11.7858
엠	-11.7859
페이스	-11.7859
쥐	-11.786
공화국	-11.7861
평균	-11.7862
np	-11.7862
잠	-11.7862
클럽	-11.7863
잘	-11.7863
검찰	-11.7863
테니스	-11.7864
반응	-11.7865
▁딸에게	-11.787
ana	-11.787
ash	-11.7873
조합	-11.7873
▁관리하는	-11.7878
▁편으로	-11.788
▁나쁘	-11.7881
▁조치들	-11.7882
퍼트	-11.7882
uri	-11.7885
▁만화가	-11.7887
uch	-11.7888
▁정보통	-11.7889
재정	-11.7892
▁기여한	-11.7899
아래	-11.791
▁들지	-11.7911
▁인도주의	-11.7915
▁주마	-11.7915
▁출동했다	-11.7915
▁경제학	-11.7917
▁케냐에서	-11.7918
▁무시했다	-11.7919
▁채워	-11.7921
▁카바	-11.7923
▁슬로	-11.7928
▁스타인	-11.7929
▁추적하	-11.7929
방식	-11.7931
▁전해드	-11.7931
▁남성에게	-11.7932
▁전해진	-11.7939
▁아파	-11.794
▁알았	-11.7941
▁흉내	-11.7943
▁jon	-11.7946
▁웨스	-11.7948
bel	-11.7952
▁wi	-11.7952
illi	-11.7959
▁않겠	-11.7961
▁사지	-11.7966
연금	-11.7974
▁sw	-11.7977
line	-11.7978
▁매리	-11.7982
▁달링	-11.7982
▁층에	-11.7983
▁set	-11.7985
▁순례	-11.7988
객들	-11.7989
▁들어왔	-11.799
▁당신들	-11.7994
▁걸렸	-11.7994
▁싶었	-11.8003
▁주었	-11.8004
▁마쳤	-11.8015
▁창립	-11.8016
▁표결에	-11.8017
랍	-11.8025
▁메인	-11.8026
얄	-11.803
▁마텔	-11.8031
▁원정	-11.8031
홉	-11.8033
▁디스커버리	-11.8034
▁콜롬	-11.8035
▁도미니	-11.8035
▁part	-11.8035
▁불러일으	-11.8036
▁수마트라	-11.8037
▁투명성	-11.8037
덱	-11.8037
▁business	-11.8037
▁church	-11.8037
▁grow	-11.8037
▁industr	-11.8037
▁iucn	-11.8037
▁job	-11.8037
▁organization	-11.8037
▁program	-11.8037
▁국제영화제	-11.8037
▁나폴리타노	-11.8037
▁냉장고	-11.8037
▁다비덴코	-11.8037
▁댓글	-11.8037
▁듣게	-11.8037
▁디카프리오	-11.8037
▁루고보이	-11.8037
▁만토바니	-11.8037
▁먹지	-11.8037
▁무기징역	-11.8037
▁민주노동당	-11.8037
▁발렌시아	-11.8037
▁밸리	-11.8037
▁변함없	-11.8037
▁볼티모어	-11.8037
▁부드러운	-11.8037
▁블래터	-11.8037
▁사무차장	-11.8037
▁세컨드라이프	-11.8037
▁아르메니아	-11.8037
▁애틀랜틱	-11.8037
▁어소시에이션	-11.8037
▁유투브	-11.8037
▁잉그리드	-11.8037
▁준이치로	-11.8037
▁찾으려	-11.8037
▁출퇴근	-11.8037
▁칼데론	-11.8037
▁키프로스	-11.8037
▁타임스퀘어	-11.8037
▁트레일러	-11.8037
▁프랑수아	-11.8037
▁하르툼	-11.8037
▁해밀턴	-11.8037
궈	-11.8037
눕	-11.8037
▁buy	-11.8037
▁earth	-11.8037
▁갤론	-11.8037
▁비정상적	-11.8037
▁서유럽	-11.8037
▁슈퍼마켓	-11.8037
▁스타워즈	-11.8037
▁신시내티	-11.8037
▁옵션	-11.8037
▁주미대사	-11.8037
▁카르발라	-11.8037
▁크라이튼	-11.8037
▁파딜라	-11.8037
▁견뎌	-11.8037
▁빈센트	-11.8037
▁어리석	-11.8037
▁여기저기	-11.8037
▁은하계	-11.8037
▁즐긴다	-11.8037
▁패터슨	-11.8037
▁georg	-11.8037
▁아메바	-11.8037
▁제레미	-11.8037
▁dax	-11.8037
▁서두르	-11.8037
▁바이에른	-11.8037
▁순교자	-11.8037
▁따돌렸	-11.8037
▁미생물	-11.8037
▁산시성	-11.8037
▁인권단체들	-11.8037
▁스틸러스	-11.8037
▁유연한	-11.8037
▁금리인하	-11.8037
▁무언가	-11.8037
▁국가안보보좌관	-11.8037
▁아스카리	-11.8037
▁전비법안	-11.8037
▁뛰어넘	-11.8037
own	-11.8037
▁말리부	-11.8037
▁산악지대	-11.8037
▁부녀자	-11.8037
▁황교수	-11.8038
▁세르게이	-11.8038
▁peta	-11.8038
▁알라스카	-11.8038
▁종지부	-11.8038
▁어둠	-11.8038
▁마지드	-11.8038
▁얼룩말	-11.8038
▁just	-11.8038
▁용도로	-11.8038
▁베이징올림픽	-11.8038
▁소방당국	-11.8038
▁탈옥	-11.8038
▁겨누	-11.8038
▁낫다	-11.8038
도날드	-11.8038
▁홈경기	-11.8038
▁건강보험	-11.8038
▁산업평균	-11.8038
▁수감생활	-11.8038
▁군사행동	-11.8039
▁미뤄	-11.8039
기동대	-11.8039
▁추억	-11.8039
▁십먼	-11.8039
▁당첨	-11.8039
▁슈렉	-11.8039
▁불륜	-11.8039
▁북극광	-11.8039
▁east	-11.8039
▁도서관	-11.8039
▁층짜리	-11.8039
▁날카로	-11.8039
▁약물검사	-11.8039
▁우발적	-11.8039
▁스마트	-11.8039
▁디즈니랜드	-11.8039
▁피난처	-11.804
▁run	-11.804
▁머독	-11.804
▁입후보	-11.804
▁압류	-11.804
▁테러리즘	-11.804
▁다저스	-11.804
▁콜롬보	-11.804
▁업종	-11.804
▁비밀요원	-11.804
▁보험회사	-11.804
▁case	-11.804
▁정몽	-11.8041
▁푸른	-11.8041
▁비웃	-11.8041
▁필름	-11.8041
▁기관총	-11.8041
▁페드로	-11.8041
▁cac	-11.8041
▁스노우	-11.8041
▁알라위	-11.8041
▁교각	-11.8042
▁형편	-11.8042
▁축구스타	-11.8042
▁장례	-11.8042
▁합작	-11.8042
▁윈터	-11.8042
▁연봉	-11.8042
▁케이프	-11.8042
▁자치권	-11.8042
▁애견	-11.8043
▁암살사건	-11.8043
▁루시디	-11.8043
▁반테러	-11.8043
▁출입국	-11.8043
▁하렐	-11.8043
▁ask	-11.8043
▁폭발사고	-11.8044
▁에베레스트산	-11.8044
▁계급	-11.8044
▁운용	-11.8044
▁범죄행위	-11.8044
▁팻	-11.8044
▁듀크	-11.8044
▁단결	-11.8045
▁누구인지	-11.8045
▁요한슨	-11.8045
▁홀더	-11.8045
▁사망원인	-11.8046
▁휴회	-11.8046
▁가디언	-11.8046
▁소도시	-11.8046
▁선례	-11.8046
▁종말	-11.8046
▁대피시켰다	-11.8047
▁팬더	-11.8047
▁주택시장	-11.8047
▁연합정부	-11.8047
▁실천	-11.8047
▁근방	-11.8048
▁안타깝게	-11.8048
▁제마	-11.8048
▁난입	-11.8048
▁지명되기	-11.8048
▁자동차산업	-11.8048
▁보스톤	-11.8048
▁발머	-11.8048
▁설전	-11.8048
▁섬에서	-11.8048
▁열광	-11.8048
▁해산시키기	-11.8049
▁부시대통령	-11.8049
▁평온	-11.8049
▁투자은행	-11.805
▁분노한	-11.805
▁연구소에서	-11.805
▁od	-11.8051
▁견제	-11.8051
▁즉석	-11.8052
▁생체	-11.8052
▁설비	-11.8052
▁로지스	-11.8052
▁years	-11.8052
▁국세청장	-11.8053
▁들어설	-11.8053
▁놀란	-11.8053
▁버몬트주	-11.8053
▁일기장	-11.8054
▁야유	-11.8054
▁결단	-11.8054
▁메모	-11.8055
▁상업용	-11.8055
▁왕관	-11.8055
▁음료수	-11.8055
▁조엘	-11.8057
▁bid	-11.8057
▁김양	-11.8057
▁매료	-11.8057
▁불확실성	-11.8058
▁종교단체	-11.8058
▁비축	-11.8059
▁은둔	-11.8059
▁공금	-11.806
▁용량	-11.806
▁유영	-11.8061
▁호건	-11.8061
▁근본주의자들	-11.8062
▁매복	-11.8062
▁속력	-11.8063
▁담요	-11.8064
▁아샤	-11.8064
▁won	-11.8065
▁요크	-11.8065
▁거머쥐었	-11.8066
▁우위	-11.8066
▁중단시켰다	-11.8068
▁토레스	-11.8069
▁검찰청	-11.8069
▁커뮤니케이션	-11.8069
▁군사위원회	-11.8069
▁토미	-11.807
▁골드만	-11.807
▁서점	-11.807
▁호스트	-11.807
▁아쉬	-11.8071
▁왕비	-11.8071
▁천체	-11.8071
▁싶었다	-11.8071
▁레노	-11.8074
▁꾸며	-11.8075
▁펼쳐진	-11.8075
▁거품	-11.8075
▁로빈	-11.8077
▁소모	-11.8077
▁도출	-11.8078
▁고의적으로	-11.8079
▁trans	-11.808
▁공정하	-11.808
▁나오기	-11.8081
스쿨	-11.8081
▁매직	-11.8081
먼트	-11.8082
▁결혼식에	-11.8082
▁리츠	-11.8082
▁경찰서로	-11.8085
▁당내	-11.8085
▁관장	-11.8086
▁심각성	-11.8086
해준다	-11.8086
▁수감돼	-11.8088
▁동부지역	-11.8089
▁상대적	-11.8089
▁꺼리	-11.809
▁유출된	-11.809
▁등장했다	-11.809
▁뉴햄프셔주	-11.8091
봐야	-11.8091
▁요구했었다	-11.8092
▁베일	-11.8093
▁단원	-11.8093
▁당파	-11.8093
▁보물	-11.8094
▁말해주	-11.8095
▁정치인들이	-11.8096
▁설사	-11.8097
▁소실됐다	-11.8099
▁오버	-11.8099
▁시작되었	-11.8099
▁함대	-11.81
▁로마에서	-11.8101
▁성범죄자	-11.8102
▁만부	-11.8102
▁엄청나	-11.8104
▁간직	-11.8106
▁주범	-11.8106
▁지원국	-11.8106
시피	-11.8107
▁벗어나기	-11.8109
dict	-11.811
▁속해	-11.8111
▁이윤	-11.8114
▁사이트에서	-11.8114
▁불안해	-11.8115
▁로케	-11.8115
▁외화	-11.8118
▁해역에서	-11.8118
▁대금	-11.8121
▁키트	-11.8121
▁전반전	-11.8121
▁취소하	-11.8124
▁직원인	-11.8124
▁청장	-11.8126
▁기미	-11.8127
▁지형	-11.8128
▁대개	-11.8132
▁개통	-11.8132
▁편리	-11.8135
▁유니	-11.8135
▁인물들	-11.8136
▁뒤진	-11.8137
▁피랍됐	-11.8137
▁알바로	-11.8137
▁늘었다	-11.8141
▁장르	-11.8145
▁시급	-11.8147
▁기숙사에서	-11.8148
▁설명할	-11.8148
▁수혈	-11.8148
▁밝혀졌	-11.8149
▁키니	-11.8157
▁제출된	-11.8157
▁맛봤	-11.8167
▁셈	-11.8168
▁구매자	-11.8168
▁sur	-11.8168
▁사육사들	-11.8174
▁안정성	-11.8176
탈루	-11.8178
달아	-11.8178
▁교대	-11.8179
▁벌어	-11.8181
▁용지	-11.8181
▁아니었	-11.8184
▁다크	-11.8184
▁위함	-11.8185
▁버렸	-11.8186
▁종업원	-11.8186
▁등반	-11.8189
▁정면	-11.8195
▁활동가들	-11.8197
▁침체에	-11.8206
▁후회	-11.8206
▁미세	-11.8207
▁크레인	-11.8207
▁저서	-11.8214
▁line	-11.8218
▁해당한다	-11.8218
▁유서	-11.8224
▁추산되	-11.8224
▁가문	-11.8228
▁제출해야	-11.8229
▁잎	-11.823
▁고심하	-11.8234
▁메르	-11.8241
▁유나이티드와	-11.8242
dom	-11.8242
▁거론되	-11.8242
side	-11.8242
▁org	-11.8245
▁보수주의	-11.8245
▁유지해	-11.8246
▁선수들에게	-11.8249
▁환경적	-11.8252
브론	-11.8256
환자	-11.8268
▁건강상	-11.8273
▁선출됐다	-11.8275
▁해일	-11.8276
▁친구들이	-11.828
▁헤리	-11.8282
투스	-11.8282
▁피난민	-11.8285
▁더위	-11.8287
▁해결하고	-11.8288
▁부패와	-11.8298
셰르	-11.8299
▁구리	-11.8299
▁표현할	-11.8299
▁보았	-11.8301
성분	-11.8305
▁레스토랑에서	-11.8309
▁head	-11.8311
▁초소	-11.8311
▁상인들	-11.8312
받지	-11.8314
▁접어	-11.8317
▁계획안	-11.832
트너	-11.8327
▁팔린	-11.8329
▁덤	-11.8329
▁india	-11.833
▁나일	-11.833
▁촉	-11.8332
▁묘사한	-11.834
▁도드	-11.8344
▁주위에	-11.8352
▁두려워하	-11.8355
▁장악했다	-11.8356
no	-11.8364
▁끝나면	-11.8365
▁자비	-11.8371
▁일쯤	-11.8373
▁월급	-11.8375
▁근대	-11.8382
▁찌	-11.8388
▁비서	-11.839
▁표하고	-11.8391
▁제소	-11.8394
▁경쟁사	-11.8394
타그	-11.8395
▁이때	-11.84
form	-11.8401
▁약화시키	-11.8402
▁성대	-11.8404
▁빠	-11.8404
▁대비하고	-11.841
▁날아가	-11.8412
▁발전기	-11.8421
▁미대사	-11.843
▁봉인	-11.8431
▁우려된다	-11.8435
▁보리	-11.8437
▁인정한다	-11.8439
▁열정적	-11.844
▁안전성	-11.844
였음	-11.8441
▁점령한	-11.8442
봤	-11.8444
▁메카	-11.8446
▁치료하는	-11.8447
▁압박했다	-11.8448
원장	-11.8453
▁한계	-11.8454
▁인도적	-11.8455
물라	-11.8458
티브	-11.8465
▁tru	-11.8467
▁사망자들	-11.8482
▁비난한다	-11.8482
lan	-11.8485
▁본부에서	-11.8488
그리	-11.8489
해주기	-11.8492
▁신문들	-11.8496
▁언론사	-11.8497
▁개최국	-11.8497
ino	-11.8497
▁매장에서	-11.8504
▁도발	-11.8512
▁전사자	-11.8515
끈	-11.8518
▁가방에	-11.8526
▁게르	-11.8527
▁남한과	-11.8529
사미	-11.8531
▁막지	-11.8539
▁모기	-11.854
▁연결된	-11.8545
▁버려	-11.8549
기남	-11.855
혹	-11.8555
하듯	-11.8557
▁스캔들에	-11.8558
잡지	-11.856
▁생물학	-11.8562
폭탄	-11.8573
엑	-11.8574
칩	-11.8575
잇	-11.8576
월드컵	-11.8577
▁전장에	-11.8582
▁그러면	-11.8582
▁생각되는	-11.8583
모델	-11.8584
등록	-11.8587
▁당혹	-11.8587
계약	-11.8593
누르	-11.8594
▁한국전	-11.8596
소니	-11.8597
대결	-11.8601
모건	-11.8606
▁상승했	-11.8607
식품	-11.8607
레오	-11.8623
▁los	-11.8628
집회	-11.8631
▁제시하지	-11.8635
행진	-11.864
▁보고됐다	-11.8644
러진	-11.8648
▁무차별	-11.865
▁재기	-11.8654
랜스	-11.8658
▁나타낸	-11.8658
▁미성년	-11.866
▁조율	-11.8663
▁수감됐	-11.8672
자격	-11.8679
▁저질렀	-11.8684
▁중국어	-11.8685
▁생중계	-11.8689
▁표지	-11.869
쿨	-11.8695
▁침대에	-11.8697
▁반해	-11.8702
▁stop	-11.8704
▁높았	-11.8704
▁대피하	-11.8709
ok	-11.871
▁이루어졌	-11.8713
▁비싸	-11.8715
▁쉽	-11.872
▁유언	-11.8726
▁입찰	-11.8731
▁구사하	-11.8733
▁취했	-11.8738
▁경영자들	-11.874
▁안타깝	-11.874
▁진열	-11.8741
슐	-11.8745
▁bar	-11.8747
▁프란시스	-11.8749
슬라브	-11.8749
콕	-11.875
lb	-11.8751
궐	-11.8751
▁오피니언	-11.8751
긍	-11.8751
▁campaign	-11.8751
▁capital	-11.8751
▁federal	-11.8751
▁second	-11.8751
▁끊겼	-11.8751
▁사우스다코타	-11.8751
▁스프린트	-11.8751
륭	-11.8751
팽	-11.8751
▁alliance	-11.8751
▁council	-11.8751
▁depart	-11.8751
▁hostage	-11.8751
▁kkk	-11.8751
▁major	-11.8751
▁microsoft	-11.8751
▁politic	-11.8751
▁problem	-11.8751
▁sncf	-11.8751
▁unveil	-11.8751
▁기울여야	-11.8751
▁나스랄라	-11.8751
▁네브라스카	-11.8751
▁뉴욕타임즈	-11.8751
▁다녔다	-11.8751
▁대기오염	-11.8751
▁대선예비후보	-11.8751
▁델라웨어	-11.8751
▁독립선언	-11.8751
▁뒷좌석	-11.8751
▁드림라이너	-11.8751
▁루프트한	-11.8751
▁만파운드	-11.8751
▁머물렀다	-11.8751
▁먹었다	-11.8751
▁메탄가스	-11.8751
▁모토로라	-11.8751
▁미식축구	-11.8751
▁바예스테로스	-11.8751
▁박스오피스	-11.8751
▁발렌타인	-11.8751
▁북방한계선	-11.8751
▁분리독립	-11.8751
▁스릴러	-11.8751
▁스머프	-11.8751
▁스테로이드	-11.8751
▁시니오라	-11.8751
▁시베리아	-11.8751
▁아름답	-11.8751
▁아리조나	-11.8751
▁아쿠아리움	-11.8751
▁애국전선	-11.8751
▁에메랄드	-11.8751
▁여중생	-11.8751
▁옥수수	-11.8751
▁외할머니	-11.8751
▁울프위츠	-11.8751
▁인공심장	-11.8751
▁인신매매	-11.8751
▁자와히리	-11.8751
▁조기총선	-11.8751
▁최연소	-11.8751
▁카메룬	-11.8751
▁카스파로프	-11.8751
▁컨소시엄	-11.8751
▁클랩튼	-11.8751
▁티크리트	-11.8751
▁펠릭스	-11.8751
▁폴란스키	-11.8751
▁홀로코스트	-11.8751
끌어냈다	-11.8751
프로농구	-11.8751
▁rbs	-11.8751
▁treat	-11.8751
▁공청회	-11.8751
▁극단적인	-11.8751
▁다빈치	-11.8751
▁시트콤	-11.8751
▁라말라	-11.8751
▁빔보	-11.8751
▁사이언스	-11.8751
▁에버튼	-11.8751
▁추기경	-11.8751
▁카제미	-11.8751
▁크로포드	-11.8751
▁핵폐기	-11.8751
어느때보다	-11.8751
▁목걸이	-11.8751
▁산티아고	-11.8751
▁퇴근	-11.8751
▁현기증	-11.8751
▁invest	-11.8751
▁omx	-11.8751
▁분화구	-11.8751
▁에스트라다	-11.8751
▁우체국	-11.8751
▁돌려보내	-11.8751
▁어둡	-11.8751
▁엘비스	-11.8751
▁알메이다	-11.8751
▁민주변화	-11.8752
▁삼성전자	-11.8752
▁불도저	-11.8752
▁떠다니	-11.8752
▁etc	-11.8752
▁공동기자회견에	-11.8752
▁메세지	-11.8752
▁쿼터백	-11.8752
▁세비르	-11.8752
▁리프트	-11.8752
▁트레이시	-11.8752
▁행정명령	-11.8752
▁디아즈	-11.8752
▁threaten	-11.8752
▁어쩌	-11.8752
▁현명한	-11.8752
▁니가타	-11.8752
▁듀프레	-11.8752
▁쓰러진	-11.8752
▁버핏	-11.8752
▁올림피	-11.8752
▁가오리	-11.8752
▁민주변화운동	-11.8752
▁클리닉	-11.8752
▁월경작전	-11.8752
▁엔터프라이즈	-11.8752
▁경수로	-11.8752
▁불상사	-11.8752
▁틸리	-11.8752
▁senate	-11.8752
▁히잡	-11.8752
▁종합병원	-11.8752
▁결론지었다	-11.8752
▁재가동	-11.8752
▁적임자	-11.8752
▁헐값	-11.8752
▁소비에트	-11.8752
▁빠져나갔다	-11.8752
▁남태평양	-11.8752
▁브룩	-11.8752
▁벗어났다	-11.8752
▁트레이드	-11.8752
▁bomb	-11.8752
▁출몰	-11.8752
▁홍보담당자	-11.8752
▁산업자원부	-11.8752
▁구급차	-11.8752
▁골드버그	-11.8752
▁슬램	-11.8752
▁train	-11.8752
▁블랙베리	-11.8752
▁완패	-11.8753
▁쥐스틴	-11.8753
▁바꿨	-11.8753
▁아름다움	-11.8753
▁작별	-11.8753
▁gdp	-11.8753
▁강제진압	-11.8753
▁평의회	-11.8753
▁올라간다	-11.8753
▁용암	-11.8753
▁list	-11.8753
▁사기꾼	-11.8753
▁감기약	-11.8753
▁베풀	-11.8753
▁겸손	-11.8753
▁마샬	-11.8753
▁놀이기구	-11.8753
▁봉투	-11.8753
▁스페이스	-11.8753
▁목욕	-11.8753
▁패션쇼	-11.8754
▁포털	-11.8754
▁출근	-11.8754
▁폭염	-11.8754
홍색	-11.8754
▁군복무	-11.8754
▁갈망하	-11.8754
▁수세기	-11.8754
▁남아시아	-11.8754
▁금전적	-11.8754
▁유니티	-11.8754
▁복음	-11.8755
▁달려있다	-11.8755
▁부정행위	-11.8755
▁봉급	-11.8755
▁사형제도	-11.8755
▁예상됩니다	-11.8755
▁검은색	-11.8755
▁드럼	-11.8755
▁night	-11.8755
▁입혔다	-11.8756
▁가져온	-11.8756
▁주모자	-11.8756
▁give	-11.8756
▁육류	-11.8756
▁soldiers	-11.8756
▁편견	-11.8756
▁플루	-11.8756
▁tam	-11.8756
▁숙박비	-11.8756
▁베이커	-11.8756
▁필사적	-11.8756
▁케이티	-11.8757
▁girls	-11.8757
▁뉴먼	-11.8757
▁지휘자	-11.8757
▁응급실	-11.8757
▁결말	-11.8757
▁올리버	-11.8757
▁집값	-11.8757
▁잠입	-11.8758
▁축구협회	-11.8758
▁환경운동	-11.8758
▁상무위원	-11.8758
▁채굴	-11.8758
▁유명해졌다	-11.8758
▁아프리카연합	-11.8759
▁알렉	-11.8759
▁성폭행범	-11.8759
▁헝	-11.8759
▁터졌다	-11.8759
▁산업지수	-11.8759
▁아이콘	-11.8759
▁청원	-11.8759
▁처방전	-11.8759
▁애완용	-11.876
▁열악	-11.876
▁검시	-11.876
phone	-11.876
▁화산재	-11.876
▁담합	-11.876
▁속편	-11.8761
▁자궁	-11.8761
▁학계	-11.8761
▁신랄	-11.8762
디언	-11.8762
▁잠복	-11.8762
▁어두	-11.8762
▁코웰	-11.8762
▁centr	-11.8762
▁west	-11.8762
▁에릭슨	-11.8763
▁폭력배	-11.8763
▁wta	-11.8763
▁무례	-11.8763
▁대국민	-11.8763
▁스토리	-11.8764
▁회생	-11.8764
▁구슬	-11.8764
▁영구적	-11.8764
▁과열	-11.8765
▁정치활동	-11.8765
▁떼어	-11.8766
▁독려	-11.8766
▁주거지	-11.8766
▁장시간	-11.8766
▁플래시	-11.8766
▁양빈	-11.8766
▁담았다	-11.8766
▁성취	-11.8767
프로축구	-11.8767
▁변종	-11.8767
nsc	-11.8767
▁감형	-11.8767
▁친교	-11.8768
▁환호하	-11.8769
▁강탈	-11.877
▁무레이	-11.877
▁연주자	-11.877
▁usb	-11.877
▁힘들어	-11.877
▁행보	-11.877
▁벗어나지	-11.8771
less	-11.8771
▁가장자리	-11.8772
▁칼리드	-11.8772
▁벵	-11.8772
▁브라이언트	-11.8772
▁응용	-11.8773
▁설치했다	-11.8773
▁표출	-11.8773
▁혼자서	-11.8773
▁용납하지	-11.8774
▁추위	-11.8774
▁자율	-11.8774
▁칭하며	-11.8774
▁파탄	-11.8775
▁풀려나	-11.8775
▁아예	-11.8775
rate	-11.8776
wood	-11.8776
▁역설했다	-11.8776
▁월터스	-11.8776
▁위독	-11.8776
▁도매	-11.8777
▁석권	-11.8778
▁단단	-11.8779
▁난방	-11.8779
▁탐지기	-11.878
▁경고문	-11.878
▁nations	-11.878
▁보수주의자들	-11.878
▁계절	-11.8781
▁과연	-11.8781
▁실체	-11.8782
▁경계선	-11.8782
▁형법	-11.8783
▁증명서	-11.8784
▁자료들	-11.8784
▁states	-11.8784
▁재연	-11.8785
▁세월	-11.8786
▁나빠지	-11.8787
▁모친	-11.8787
▁위스콘신주	-11.8787
▁별명	-11.8788
▁만들어낸	-11.8788
▁유형	-11.8788
펠드	-11.8789
▁달아나	-11.8789
▁인출	-11.8789
▁국회의장	-11.8789
▁상류	-11.879
토프	-11.8791
▁아래서	-11.8791
▁시립	-11.8791
툴라	-11.8792
▁의향	-11.8792
광장	-11.8794
▁시작하자	-11.8794
▁공단	-11.8795
▁사본	-11.8795
▁남북간	-11.8795
▁영국항공	-11.8796
▁번복	-11.8797
▁동화	-11.8798
▁끝내기	-11.8799
▁저지대	-11.8799
▁쥬	-11.8799
▁맘	-11.8799
▁money	-11.88
▁농성	-11.88
▁건전	-11.88
▁저조	-11.8801
▁피력	-11.8801
▁정치국	-11.8802
▁폰다	-11.8803
▁올림픽위원회	-11.8803
▁연비	-11.8804
▁페니	-11.8804
▁원정경기에서	-11.8804
▁병원측	-11.8805
워졌다	-11.8805
▁배신	-11.8805
▁도와준	-11.8805
▁푸드	-11.8806
▁이민국	-11.8806
▁공급하기	-11.881
▁중학교	-11.881
퍼드	-11.8813
▁보장받	-11.8814
정규직	-11.8817
▁거주민	-11.8821
▁부호	-11.8821
▁불타	-11.8822
▁녹스	-11.8823
▁출발했다	-11.8824
▁기조	-11.8824
▁강행할	-11.8824
우트	-11.8827
요리	-11.8828
▁동부지역에서	-11.8828
▁간주되	-11.8829
▁감독관	-11.883
▁피랍됐다	-11.8832
▁구성원들	-11.8833
▁뉴욕시장	-11.8833
▁정세	-11.8835
▁호르	-11.8839
▁있었는데	-11.884
▁국가대표팀	-11.884
▁소비량	-11.8841
▁마우	-11.8841
▁만족할	-11.8841
▁시에나	-11.8843
▁최소화	-11.8844
▁원내	-11.8844
▁오노	-11.8847
▁선진	-11.8848
▁정당성	-11.8848
▁얻어야	-11.8849
▁제거하는	-11.8849
▁헨	-11.8849
▁교리	-11.8851
▁맞서기	-11.8852
▁asia	-11.8853
▁통과시킨	-11.8855
▁모가디슈에서	-11.8855
▁마시지	-11.8858
▁기자였	-11.886
▁sea	-11.886
▁잡히	-11.8862
▁분단	-11.8863
▁거미	-11.8863
well	-11.8866
▁들어간다	-11.8868
▁작품들	-11.8868
▁제외됐다	-11.8869
▁이루기	-11.8871
▁프라하	-11.888
▁거기에	-11.8881
주민들	-11.8882
▁로키	-11.8883
▁코드	-11.8884
▁분산	-11.8886
▁돌아보	-11.8887
▁개종	-11.8888
▁야스	-11.8889
▁채용	-11.8891
▁발사해	-11.8893
▁사죄	-11.8895
▁안치	-11.8897
▁스키장	-11.8897
▁케네	-11.8898
▁도하	-11.8899
▁구성했다	-11.8908
▁조언했다	-11.8909
▁옐로	-11.891
▁정하지	-11.8915
플랜	-11.8921
▁취지	-11.8921
▁스타들	-11.8924
▁시차	-11.8926
▁가설	-11.8927
▁모술에서	-11.8928
▁신고서	-11.8929
▁사퇴했다	-11.8931
우먼	-11.8933
▁입게	-11.8938
lum	-11.8939
▁rate	-11.8939
▁보여주었다	-11.8939
▁사랑한다	-11.894
▁가든	-11.8954
▁페러	-11.8956
▁경제팀	-11.8957
ek	-11.8961
▁발견하게	-11.8961
▁샤리	-11.8963
▁메이어	-11.8964
▁여자친구와	-11.8969
▁벤와	-11.897
▁전달하는	-11.897
▁고소했다	-11.8971
▁코브	-11.8976
▁납세자들	-11.8978
▁봐야	-11.898
▁적용할	-11.8985
▁희망하	-11.8987
▁상하이에서	-11.8987
했어야	-11.8991
▁아브	-11.9001
▁mac	-11.9006
▁도서	-11.9007
▁매치	-11.9008
웃	-11.9009
▁연안에서	-11.9018
▁제조업자	-11.9019
▁hel	-11.9024
▁제거했다	-11.9027
학자들	-11.9028
▁개헌안에	-11.9028
▁기소장	-11.9035
▁구역에서	-11.9042
▁어부들	-11.905
▁물려	-11.9055
▁호프	-11.9056
▁인하했다	-11.9058
▁트로	-11.9065
▁comp	-11.9065
▁알레	-11.907
▁특파원들	-11.9081
▁필리	-11.9084
▁변기	-11.9086
▁재정비	-11.909
▁분파	-11.9091
▁적기	-11.9091
▁배치되어	-11.9093
젤리	-11.9094
gy	-11.9102
person	-11.9104
▁지상에서	-11.9121
▁도슨	-11.9127
▁디지	-11.9133
자원	-11.914
▁부정했다	-11.9141
▁노스캐롤라이나에서	-11.9142
▁주간지	-11.9147
▁차트	-11.9148
▁포착했다	-11.9152
보르	-11.9156
▁봉쇄했다	-11.9158
▁낙관	-11.9166
▁추측되	-11.9167
▁시설들	-11.9175
▁수행하기	-11.9182
▁배치했다	-11.9187
dp	-11.9191
▁연행했다	-11.9197
nts	-11.92
▁여행하는	-11.9201
▁나와있	-11.9202
▁방해하	-11.9204
대비	-11.9205
▁구매자들	-11.9213
저스	-11.9215
▁보행	-11.9216
▁정당들	-11.9217
▁구입했다	-11.9221
▁무능	-11.9222
▁사스	-11.9231
▁제조업체들	-11.9246
▁기뻐	-11.925
▁배치된	-11.9252
▁제작됐다	-11.9252
▁보안국	-11.9258
▁삼아	-11.9263
▁슈퍼대의원들	-11.9267
▁원만	-11.9268
▁전신	-11.9269
란드	-11.927
▁알려왔	-11.9274
▁붕괴됐다	-11.9285
▁싶어하지	-11.929
▁인기있	-11.929
▁요인들	-11.9292
▁반기	-11.9298
eve	-11.9304
▁동의하	-11.9312
▁참여하기	-11.9313
▁포로로	-11.9327
▁자행한	-11.933
싸	-11.9335
▁정해	-11.9335
큐	-11.9335
▁년여	-11.9335
▁마련하는	-11.9338
▁부족해	-11.9339
무장혁명군	-11.9339
▁둔화되	-11.9339
▁부과했다	-11.934
행동	-11.934
켄	-11.9341
졸	-11.9342
낙	-11.9343
▁안전하다	-11.9343
듀	-11.9344
빅	-11.9345
기상청	-11.9345
▁전달하기	-11.9346
리서치	-11.9348
포인트	-11.9351
▁mc	-11.9358
결정	-11.936
▁비트	-11.9362
소송	-11.9362
조각	-11.9364
석유	-11.9367
장애	-11.9367
워터	-11.9368
▁절대적	-11.9369
드윈	-11.9369
소득	-11.9372
▁회복되	-11.9373
다닐	-11.9373
테오	-11.9374
▁성교	-11.9378
레이즈	-11.9382
증세	-11.9384
세워	-11.9387
▁기장	-11.9387
▁구조했다	-11.9388
▁확보하고	-11.9388
제조	-11.9388
▁멀어	-11.9391
쳐야	-11.9392
불안	-11.9396
▁디나	-11.9405
▁나누어	-11.9409
▁서적	-11.9413
ind	-11.9418
▁청구했다	-11.9419
국제	-11.9427
▁행성들	-11.943
aba	-11.9432
▁lea	-11.9432
hoo	-11.9443
▁심기	-11.9449
술라	-11.945
▁끝났	-11.9453
ient	-11.9453
▁bri	-11.9454
▁조종사들	-11.9462
▁작성했다	-11.9467
cle	-11.9469
▁준결승전	-11.9474
▁유명해	-11.948
▁쫓아	-11.948
하원	-11.9485
▁베트남전	-11.9486
▁드러냈	-11.9494
오브	-11.9494
▁저항하	-11.9495
▁가린	-11.9509
▁참모총장	-11.9509
▁실시됐	-11.951
▁확보하는	-11.951
▁price	-11.951
▁늘려	-11.9511
▁곤란	-11.9511
▁알래스카주	-11.9512
▁트래	-11.9519
뇨	-11.9519
뜯	-11.9519
벳	-11.952
껴	-11.952
▁illegal	-11.9521
▁demand	-11.9521
▁economy	-11.9521
▁french	-11.9521
▁israel	-11.9521
▁nhk	-11.9521
▁safe	-11.9521
▁ucla	-11.9521
▁가깝다	-11.9521
▁고혈압	-11.9521
▁국제통화기금	-11.9521
▁대검찰청	-11.9521
▁댕기열	-11.9521
▁데이터베이스	-11.9521
▁도마뱀	-11.9521
▁듣기	-11.9521
▁레오나르도	-11.9521
▁롤러코스터	-11.9521
▁만배럴	-11.9521
▁맨하탄	-11.9521
▁명확하지	-11.9521
▁무사콸라	-11.9521
▁묶어	-11.9521
▁믿어지	-11.9521
▁밀워키	-11.9521
▁비디오테이프	-11.9521
▁사파테로	-11.9521
▁선글라스	-11.9521
▁선덜랜드	-11.9521
▁스펙터	-11.9521
▁쌓아	-11.9521
▁아틀레티코	-11.9521
▁어울리는	-11.9521
▁에두아르	-11.9521
▁오마이뉴스	-11.9521
▁워싱턴포스트	-11.9521
▁유럽중앙은행	-11.9521
▁융통성	-11.9521
▁이슬라미야	-11.9521
▁인수합병	-11.9521
▁족자카르타	-11.9521
▁차이나데일리	-11.9521
▁츠요시	-11.9521
▁캄푸쉬	-11.9521
▁캐시미르	-11.9521
▁코뿔소	-11.9521
▁콴타스	-11.9521
▁클리브랜드	-11.9521
▁통합러시아당	-11.9521
▁트랜스포머	-11.9521
▁트럼프	-11.9521
▁파라마운트	-11.9521
▁파르베즈	-11.9521
▁프리미엄	-11.9521
▁해수욕장	-11.9521
▁홍석현	-11.9521
▁휘두르	-11.9521
▁흘렀	-11.9521
▁히말라야	-11.9521
멕	-11.9521
▁missile	-11.9521
▁record	-11.9521
▁snl	-11.9521
▁노란색	-11.9521
▁대배심	-11.9521
▁서포터	-11.9521
▁성폭력	-11.9521
▁심사숙고	-11.9521
▁애국심	-11.9521
▁의사소통	-11.9521
▁전두환	-11.9521
▁코펜하겐	-11.9521
퀘	-11.9521
▁prevent	-11.9521
▁냉소적	-11.9521
▁배기가스	-11.9521
▁복부비만	-11.9521
▁부끄러	-11.9521
▁솔로몬	-11.9521
▁쓰러지	-11.9521
▁알레르기	-11.9521
▁주일미군	-11.9521
▁친인척	-11.9521
▁허덕이	-11.9521
축구대표팀	-11.9521
▁강렬한	-11.9521
▁레예스	-11.9521
▁클래스	-11.9521
▁나르기스	-11.9521
▁조연상	-11.9521
▁카밀라	-11.9521
▁트레이너	-11.9521
▁sars	-11.9521
▁백만장자	-11.9521
▁안테나	-11.9521
▁짐바브웨아프리카민족	-11.9521
▁direct	-11.9521
▁퇴출	-11.9521
▁끼치지	-11.9521
▁왓슨	-11.9521
▁착각	-11.9521
▁wall	-11.9521
▁욕실	-11.9521
▁헬멧	-11.9521
▁오피스	-11.9521
▁치뤄	-11.9521
▁구덩이	-11.9521
▁에볼라	-11.9521
▁리스본	-11.9521
▁그랜트	-11.9521
▁스트립	-11.9521
▁손가락	-11.9521
▁의정서	-11.9521
▁붐비는	-11.9521
▁foundation	-11.9521
▁서부텍사스산	-11.9521
▁경신했다	-11.9521
▁만수르	-11.9521
▁추도식	-11.9521
▁이스트우드	-11.9521
▁장래에	-11.9521
▁lead	-11.9521
▁트루먼	-11.9521
▁클라우디	-11.9521
▁히트곡	-11.9521
▁발리우드	-11.9521
▁선두주자	-11.9521
▁징수	-11.9521
▁현존하	-11.9521
▁갑작스럽	-11.9521
▁선거인단	-11.9521
▁스코어	-11.9521
▁혈압	-11.9521
▁에어컨	-11.9521
▁board	-11.9521
▁휘둘	-11.9521
▁폭죽	-11.9521
▁슬럼	-11.9521
▁악몽	-11.9521
▁컨트리	-11.9521
▁깨뜨	-11.9521
▁some	-11.9522
▁동북	-11.9522
▁곤봉	-11.9522
▁로하스	-11.9522
▁데이비스컵	-11.9522
▁압축	-11.9522
▁internet	-11.9522
▁천수이	-11.9522
▁레빈슨	-11.9522
▁혈통	-11.9522
▁차량폭탄테러	-11.9522
▁경범죄	-11.9522
▁장병들	-11.9523
▁세계무역센터	-11.9523
▁언더파	-11.9523
▁enter	-11.9523
▁청취	-11.9523
▁니켈	-11.9523
▁비서관	-11.9523
▁비겁	-11.9523
▁행정장관	-11.9523
▁권좌	-11.9523
▁노골적	-11.9523
▁order	-11.9523
▁바이올	-11.9523
▁추락사고	-11.9523
▁움직여	-11.9523
▁타깃	-11.9524
▁출품	-11.9524
▁브랜슨	-11.9524
▁라마디	-11.9524
▁학습	-11.9524
▁독살	-11.9524
▁지켜볼	-11.9524
▁보호구역	-11.9524
▁심각해지	-11.9524
▁클로버	-11.9524
▁충실	-11.9525
▁tour	-11.9525
▁교도관	-11.9525
▁싸워	-11.9525
▁치욕	-11.9525
▁한계선	-11.9525
▁관습	-11.9525
▁미시시피강	-11.9525
▁부흥	-11.9525
▁왕립	-11.9525
▁신탁	-11.9525
첸코	-11.9526
▁가리키	-11.9526
▁근절	-11.9526
▁관절	-11.9526
▁특별검사	-11.9526
▁실용적	-11.9526
▁mls	-11.9526
▁아시안	-11.9527
▁자금지원	-11.9527
▁주가지수	-11.9527
▁특검	-11.9527
▁today	-11.9527
▁소멸	-11.9527
▁낙타	-11.9528
성명	-11.9528
▁force	-11.9528
▁유로스타	-11.9528
▁짐작	-11.9528
▁sola	-11.9528
▁휩쓸려	-11.9528
▁올라있다	-11.9528
▁auto	-11.9528
▁평화회담	-11.9528
▁출구	-11.9528
▁임시정부	-11.9529
▁계란	-11.9529
▁도킹	-11.9529
▁떠올리	-11.9529
▁생생	-11.9529
▁대선결과	-11.953
공간	-11.953
▁항목	-11.953
▁피해규모	-11.953
▁삼판	-11.953
▁소방서장	-11.953
▁목재	-11.9531
▁선거결과	-11.9531
▁소변	-11.9531
▁cre	-11.9532
▁친근	-11.9532
▁공공연	-11.9532
▁솔라나	-11.9532
▁도망치	-11.9532
▁하향	-11.9532
▁메릴랜드주	-11.9532
▁채팅	-11.9532
▁테너	-11.9533
▁상향	-11.9533
▁양봉	-11.9533
▁모스크	-11.9533
▁교신	-11.9533
▁오존	-11.9534
▁종족	-11.9534
▁조별	-11.9534
▁태형	-11.9534
▁수상작	-11.9535
▁갈색	-11.9535
▁uk	-11.9535
쿠르	-11.9535
▁드물게	-11.9536
▁천만원	-11.9536
▁진학	-11.9536
▁파열	-11.9536
▁세르비아계	-11.9537
▁dra	-11.9537
▁길거리	-11.9537
▁구입하는	-11.9538
▁모빌	-11.9538
▁털어	-11.9538
▁통치권	-11.9538
▁회피	-11.9539
▁커져	-11.9539
▁쇼핑센터	-11.9539
▁친지들	-11.954
▁외교위원회	-11.954
▁축적	-11.954
▁자폭	-11.954
▁무관	-11.9541
▁집행위원회	-11.9541
▁열망	-11.9541
▁실험실	-11.9541
▁전국위원회	-11.9541
▁우울	-11.9541
▁간격	-11.9541
▁거칠	-11.9542
▁완강	-11.9542
▁셸	-11.9543
▁코스타	-11.9543
▁치유	-11.9543
▁앉아서	-11.9544
▁간담	-11.9545
▁댄스	-11.9545
▁소탕하기	-11.9546
▁유래	-11.9546
▁동조	-11.9547
▁합성	-11.9548
▁바람직하다	-11.9548
▁돌발	-11.9549
▁테러사건	-11.9549
▁청구서	-11.9549
▁클린트	-11.9549
▁우유	-11.9551
▁없어질	-11.9551
▁산출	-11.9551
▁실형	-11.9551
▁천여	-11.9553
▁지낼	-11.9553
▁인도양	-11.9553
▁특유	-11.9556
노브	-11.9556
▁현명하	-11.9556
▁가르쳐	-11.9556
▁모터스	-11.9556
▁헤비	-11.9557
▁시설물	-11.9557
▁석방하라	-11.9557
▁뒷받침할	-11.9557
일간	-11.9557
▁그라이브	-11.9558
▁총탄	-11.9559
▁알프레	-11.956
▁싸운	-11.9561
▁그렇지만	-11.9561
▁쓰러졌다	-11.9561
▁쫓아내	-11.9561
▁버니	-11.9562
▁소중	-11.9562
▁되어있다	-11.9563
음에	-11.9564
▁atp	-11.9564
▁국교	-11.9564
▁것인데	-11.9565
▁원작	-11.9566
▁우선시	-11.9567
▁불신	-11.9567
▁ev	-11.9568
▁당부	-11.9568
▁논리	-11.9569
▁신씨	-11.9569
▁미끄러지	-11.9571
블라	-11.9573
even	-11.9573
▁여신	-11.9575
▁보내야	-11.9576
▁카라다	-11.9576
▁날조	-11.9576
▁피랍자	-11.9577
▁특권	-11.9577
▁온스	-11.9579
▁있으면	-11.9579
▁탄력	-11.958
▁도처에	-11.958
▁기뻐했다	-11.958
▁유린	-11.9582
▁니콜슨	-11.9582
▁로이드	-11.9582
추어	-11.9585
▁심어	-11.9586
▁개입하지	-11.9586
▁초보	-11.9587
▁검찰관	-11.9588
▁화학적	-11.9589
큐리	-11.9591
▁밝혀내지	-11.9593
▁전망된다	-11.9594
▁선거위원회	-11.9595
▁함자	-11.9596
▁기자단	-11.9597
▁기울이지	-11.9597
▁마리오	-11.9598
▁무시한	-11.9599
▁불확실한	-11.96
▁게재했다	-11.96
▁기상학자	-11.96
▁실시간	-11.96
▁추측했다	-11.9601
▁알약	-11.9601
▁기법	-11.9602
▁찬스	-11.9602
and	-11.9604
▁흥미롭	-11.9606
▁훔쳤	-11.9607
▁후송됐다	-11.9609
▁qui	-11.9609
▁중독자	-11.9613
▁받아들여지	-11.9613
▁모욕적	-11.9614
▁외곽지역	-11.9615
▁지적한	-11.9615
▁기본스	-11.9617
ball	-11.9618
▁her	-11.9622
▁나타낸다	-11.9622
▁예측하기	-11.9623
▁중부지역	-11.9623
▁기여했다	-11.9624
▁여행객들이	-11.9624
▁입성	-11.9624
▁del	-11.9624
드리스	-11.9625
▁공보	-11.9626
▁쏟아지	-11.9627
▁주장하면서	-11.9628
▁묘사하고	-11.9628
▁거주지역	-11.9632
▁islami	-11.9633
▁마디	-11.9634
▁풀기	-11.9637
▁refugee	-11.9637
▁농지	-11.9639
▁이루어지지	-11.9643
타이거	-11.9645
러드	-11.9645
▁방법이라고	-11.9647
첼로	-11.9648
▁후원자	-11.965
▁확보하기	-11.9651
▁중단한다	-11.9652
▁발생했었다	-11.9654
▁솔로	-11.9654
▁현재로서	-11.9655
▁잠정적	-11.9655
▁세무	-11.9658
▁보고타	-11.9658
▁생산국	-11.9658
소식	-11.9661
▁발표되었다	-11.9661
▁만두	-11.9662
▁무성	-11.967
▁세워졌	-11.9671
▁사바	-11.9675
▁충분하다	-11.9676
▁살펴보	-11.9677
▁비명	-11.9679
▁훈련시키	-11.9679
▁노력해야	-11.968
▁통근자들	-11.9684
▁낭	-11.9684
▁멜로	-11.9686
▁연구센터	-11.9687
▁이용되	-11.9688
▁확실시되	-11.9689
▁환경부	-11.969
▁안정화	-11.969
▁저지하	-11.9695
▁선사	-11.9697
▁제명	-11.9697
▁이둘	-11.9698
▁각료들	-11.9699
▁설명하는	-11.9699
▁공판에서	-11.9703
▁촉발됐다	-11.9704
▁가담했다	-11.9704
▁무장혁명군	-11.9705
▁달성하기	-11.9706
오차	-11.9706
▁나쁘지	-11.9706
▁마이어	-11.9708
전문가들	-11.9713
▁성당에서	-11.9714
▁오크	-11.9714
대장	-11.9715
▁살았다	-11.9716
▁검문소에서	-11.9718
▁사람이었다	-11.972
gue	-11.9721
▁막사	-11.9722
▁오래전	-11.9723
▁팔기	-11.9729
▁골프장	-11.9735
dy	-11.9737
▁살해되	-11.9738
느린	-11.9739
▁갑작스러	-11.974
▁상징하	-11.9744
▁sup	-11.9745
▁가루	-11.9749
▁ten	-11.9749
▁싸우고	-11.975
▁개발자들	-11.9753
▁기관사	-11.9759
▁피살됐다	-11.9764
▁바보	-11.9767
▁주중	-11.9768
▁치르기	-11.9768
▁만들려	-11.977
▁질문들	-11.9773
▁투표자	-11.9773
▁조야	-11.9776
▁같지	-11.9777
스버그	-11.9779
슈아	-11.9783
▁국제공항에서	-11.9789
▁지지하지	-11.9789
▁평화롭	-11.9791
▁생각하기	-11.9794
▁경찰서에서	-11.98
▁해달라	-11.9802
▁출두했다	-11.9802
무대	-11.9803
▁철로	-11.9804
▁오염된	-11.981
▁강화해	-11.9815
▁실렸	-11.9816
▁사막에서	-11.9816
포르	-11.9822
▁극도	-11.9823
▁마니	-11.9832
▁jer	-11.9834
▁개발도상국들	-11.9836
▁허락했다	-11.984
치오	-11.9852
▁무장괴한들	-11.9853
▁느낌이	-11.9856
▁학교측	-11.9856
▁블로거들	-11.9863
통계국	-11.9865
▁마린	-11.9868
▁선생님	-11.987
▁제방이	-11.988
▁무기들	-11.9884
▁올리기	-11.9891
라이드	-11.9892
▁학부모	-11.9897
▁용이하	-11.9898
▁발효된	-11.9901
▁지불해야	-11.9902
▁지정했다	-11.9904
▁개별적	-11.9904
▁이변	-11.9909
▁대항해	-11.9913
▁엔지니어들	-11.9916
▁소비자에게	-11.993
▁배심원들	-11.9938
▁통상적	-11.994
▁거라	-11.9941
▁혁신	-11.9945
해발	-11.9954
재산권	-11.996
rm	-11.9961
▁조합원들	-11.9977
▁도착하기	-11.9985
▁순찰차	-11.9993
▁돌려받	-11.9996
▁베라	-12
라이츠	-12.0006
▁공직자	-12.0011
▁납치하려	-12.0018
▁보수적	-12.0018
▁증명했다	-12.0019
go	-12.0021
메르	-12.0021
하더라	-12.0024
▁사망하기	-12.0024
▁일본측	-12.0026
▁운영자	-12.0043
▁서머	-12.0057
▁이외에	-12.0063
▁돌봐	-12.0063
▁타오	-12.0075
르모	-12.0079
▁연결시키	-12.0085
▁물었	-12.0086
▁청중들	-12.0089
▁항공사들	-12.0099
▁예일대	-12.0099
▁간호사들	-12.01
▁장갑차	-12.0104
▁로비스트	-12.0104
▁chi	-12.0105
회사들	-12.011
▁맺었	-12.0118
▁복귀했다	-12.0119
신형	-12.0122
bur	-12.0125
▁스파	-12.0136
▁붙었	-12.0139
▁취하겠다	-12.0141
▁동의하지	-12.0149
▁일원이	-12.0149
▁대변하는	-12.0163
▁지휘관들	-12.0165
봐	-12.0171
낭	-12.0171
따	-12.0173
흙	-12.0173
사령부	-12.0174
헬	-12.0177
덜	-12.0177
싸움	-12.0178
딸	-12.0178
축구	-12.0178
▁옐	-12.0178
쓸	-12.0179
끝	-12.0179
미사일	-12.0179
보험	-12.018
▁순례객	-12.0183
▁노렸	-12.0185
평화	-12.019
라디오	-12.0192
나이트	-12.0193
분석	-12.0194
▁제거하고	-12.0194
▁트랜	-12.0195
▁도착한다	-12.0195
교류	-12.0196
예산	-12.0197
열차	-12.0198
성향	-12.0201
공개	-12.0203
명령	-12.0204
출신	-12.0208
hen	-12.0209
파업	-12.021
▁수행한다	-12.0212
방문	-12.0218
▁흑인들	-12.0218
대변인	-12.0219
하락	-12.0219
▁취급하	-12.0223
▁작용하	-12.0224
▁안토니	-12.0224
수익	-12.024
▁양심	-12.0243
rry	-12.025
일본	-12.0251
▁오메	-12.0261
▁진행됐	-12.0265
▁가능해	-12.0268
▁악화시키	-12.0268
▁예정됐	-12.0269
▁공급하	-12.0272
▁외무	-12.0275
▁자원봉사	-12.0287
▁좋아하	-12.0287
▁전해왔	-12.029
▁vote	-12.0302
▁남았	-12.0303
카노	-12.0305
▁정해졌	-12.0305
▁체포되	-12.0306
ump	-12.0317
▁윌리암	-12.0319
▁여학생들	-12.0322
▁그것들	-12.0323
▁빠뜨	-12.0329
▁떨어뜨	-12.0334
▁보유자	-12.0335
▁정장	-12.0337
▁if	-12.0342
▁결정됐다	-12.0345
봇	-12.0348
둑	-12.0348
늄	-12.0352
▁강국	-12.0352
섹	-12.0353
ould	-12.0353
▁resign	-12.0353
뭉	-12.0354
스토어	-12.0354
▁프리미어	-12.0354
▁비무장	-12.0354
횡	-12.0354
엉	-12.0354
▁children	-12.0354
▁crisis	-12.0354
▁great	-12.0354
▁little	-12.0354
▁공영방송	-12.0354
▁난투극	-12.0354
▁밝아	-12.0354
▁버밍엄	-12.0354
▁불공평	-12.0354
▁업데이트	-12.0354
▁옛날	-12.0354
▁콜럼버스	-12.0354
▁행방불명	-12.0354
텔레그래프	-12.0354
through	-12.0354
▁conference	-12.0354
▁europe	-12.0354
▁intelligen	-12.0354
▁ipcc	-12.0354
▁kcna	-12.0354
▁number	-12.0354
▁play	-12.0354
▁push	-12.0354
▁road	-12.0354
▁stock	-12.0354
▁terror	-12.0354
▁tgv	-12.0354
▁withdraw	-12.0354
▁women	-12.0354
▁가브리엘	-12.0354
▁광저우	-12.0354
▁구테레스	-12.0354
▁기조연설	-12.0354
▁까다로운	-12.0354
▁꺾었다	-12.0354
▁나뭇가지	-12.0354
▁낚시	-12.0354
▁남아메리카	-12.0354
▁네델란드	-12.0354
▁노스다코타	-12.0354
▁노스웨스트	-12.0354
▁대북제재	-12.0354
▁따냈다	-12.0354
▁라이베리아	-12.0354
▁레슬링	-12.0354
▁레터맨	-12.0354
▁록펠러	-12.0354
▁마르세유	-12.0354
▁맥코넬	-12.0354
▁맥클라렌	-12.0354
▁반독점	-12.0354
▁보디가드	-12.0354
▁부에노스아이레스	-12.0354
▁불태우	-12.0354
▁브란카토	-12.0354
▁삽입	-12.0354
▁수족구병	-12.0354
▁스트라이커	-12.0354
▁스폰서	-12.0354
▁스피커	-12.0354
▁시앙시앙	-12.0354
▁아인슈타인	-12.0354
▁앓았	-12.0354
▁에스판디아리	-12.0354
▁여우주연상	-12.0354
▁오랑우탄	-12.0354
▁죄책감	-12.0354
▁카트만두	-12.0354
▁코카콜라	-12.0354
▁콜럼비아	-12.0354
▁큐레이터	-12.0354
▁크루그먼	-12.0354
▁클래식	-12.0354
▁테스토스테론	-12.0354
▁팽창	-12.0354
▁펀자브	-12.0354
▁페르시아만	-12.0354
▁펜타곤	-12.0354
▁풍력발전기	-12.0354
▁플랫폼	-12.0354
▁플레임	-12.0354
▁피츠제럴드	-12.0354
▁헨더슨	-12.0354
▁현충일	-12.0354
▁호나우지뉴	-12.0354
교통안전위원회	-12.0354
츄	-12.0354
▁hotel	-12.0354
▁hyun	-12.0354
▁거식증	-12.0354
▁로버츠	-12.0354
▁메디슨	-12.0354
▁무작위	-12.0354
▁트레제게	-12.0354
▁회계연도	-12.0354
▁가비알	-12.0354
▁더블린	-12.0354
▁마들렌	-12.0354
▁모니카	-12.0354
▁물대포	-12.0354
▁오클리	-12.0354
▁포레스트	-12.0354
▁불사조	-12.0354
▁이병헌	-12.0354
▁고래상어	-12.0354
▁내버려	-12.0354
▁울타리	-12.0354
▁유니폼	-12.0354
▁양조장	-12.0354
▁오스본	-12.0354
▁제노아	-12.0354
▁grand	-12.0354
▁개회식	-12.0354
▁빌라로사	-12.0354
▁좌초	-12.0354
▁김일성	-12.0354
▁오피니언리서치	-12.0354
▁튜브	-12.0354
▁고프섬	-12.0354
▁비엔나	-12.0354
▁순조롭	-12.0354
▁임상실험	-12.0354
▁아침식사	-12.0354
▁주경기장	-12.0354
▁갑판	-12.0354
▁오마하	-12.0354
▁이정표	-12.0354
▁sign	-12.0354
▁유니버셜	-12.0354
▁산유국	-12.0354
▁스프링스틴	-12.0354
▁로보트	-12.0354
▁징크	-12.0354
▁need	-12.0354
▁메트로폴리	-12.0354
▁저질러	-12.0354
▁유원지	-12.0354
▁수수료	-12.0354
▁운전기사	-12.0354
▁마운트	-12.0354
▁와이먼	-12.0354
▁동물보호	-12.0354
▁자랑스러워	-12.0354
▁플로렌스	-12.0354
▁맹렬	-12.0354
▁솔로몬제도	-12.0354
프로야구	-12.0354
▁미립자	-12.0354
▁플래카드	-12.0354
▁언쟁	-12.0355
▁탁자	-12.0355
▁율법	-12.0355
▁캐스팅	-12.0355
▁서면으로	-12.0355
▁펠트	-12.0355
▁파라과이	-12.0355
▁셀틱	-12.0355
▁팩스	-12.0355
▁burma	-12.0355
▁내보내	-12.0355
▁이라와디	-12.0355
▁안와르	-12.0355
▁세부사항	-12.0355
▁불명예	-12.0355
▁무리뉴	-12.0355
▁교묘	-12.0355
▁너머	-12.0355
▁유대관계	-12.0355
▁다이빙	-12.0355
▁비상대책	-12.0355
▁만유로	-12.0355
▁종합지수	-12.0355
▁파키스탄무슬림리그	-12.0355
[...]
