<pad>	0
<s>	0
</s>	0
<unk>	0
▁the	-2.98357
▁.	-3.20617
▁,	-3.22512
s	-3.41545
▁a	-3.86259
▁to	-3.86675
ed	-3.90595
▁of	-3.91251
▁in	-3.99204
▁and	-4.06408
ing	-4.2904
▁s	-4.39977
▁said	-4.84752
▁on	-4.85804
▁for	-4.9376
▁that	-4.95992
y	-4.98816
d	-5.12417
▁is	-5.17324
ly	-5.18429
▁	-5.22284
▁was	-5.2323
▁with	-5.2682
▁be	-5.29757
▁it	-5.38054
▁he	-5.4681
▁at	-5.47604
▁an	-5.55052
▁from	-5.5886
▁by	-5.60854
▁as	-5.63358
▁has	-5.66344
▁his	-5.73775
▁have	-5.7389
▁are	-5.85877
▁but	-5.9113
e	-5.92223
▁were	-5.93215
▁will	-5.96046
▁not	-6.01733
▁who	-6.0707
▁u	-6.12356
▁after	-6.12511
▁had	-6.1549
▁been	-6.21382
▁they	-6.22369
▁this	-6.24786
▁their	-6.28079
n	-6.28147
▁people	-6.29222
▁i	-6.29469
▁year	-6.2985
▁about	-6.31566
▁t	-6.31866
▁more	-6.32353
▁its	-6.34757
▁two	-6.36885
▁new	-6.39939
▁we	-6.40278
t	-6.41965
▁which	-6.43569
▁one	-6.43776
▁her	-6.4549
▁president	-6.46734
▁up	-6.47029
▁korea	-6.48605
▁would	-6.49324
▁government	-6.50314
▁or	-6.51702
▁she	-6.54801
▁also	-6.57284
▁than	-6.5934
▁out	-6.60044
▁north	-6.60628
▁cnn	-6.64916
▁over	-6.666
▁last	-6.67069
ies	-6.68119
▁police	-6.68182
▁when	-6.69365
▁first	-6.72428
▁south	-6.76736
▁there	-6.77446
▁other	-6.79866
▁into	-6.81201
▁some	-6.81335
▁us	-6.82912
r	-6.83575
▁all	-6.83625
▁no	-6.84891
er	-6.86412
▁time	-6.87691
▁told	-6.88961
es	-6.89523
a	-6.90581
▁world	-6.90919
an	-6.93761
l	-6.94281
▁state	-6.97279
▁you	-6.97351
▁percent	-6.98047
▁years	-6.98175
▁can	-6.99071
▁korean	-7.02667
▁could	-7.03234
▁united	-7.03264
▁them	-7.04533
▁according	-7.04723
on	-7.04841
▁if	-7.04948
▁officials	-7.05891
▁al	-7.06486
▁three	-7.08474
▁country	-7.09865
▁monday	-7.10757
▁iraq	-7.11485
▁militar	-7.12535
▁tuesday	-7.12645
▁minister	-7.1287
▁party	-7.13679
▁day	-7.154
ese	-7.15592
o	-7.15645
▁national	-7.16413
▁what	-7.17007
▁says	-7.17203
▁kill	-7.18263
▁week	-7.19724
▁million	-7.20199
▁him	-7.20464
▁like	-7.20525
▁wednesday	-7.21431
▁states	-7.21444
▁obama	-7.218
▁before	-7.22353
▁old	-7.22833
▁most	-7.22931
▁sunday	-7.23289
▁so	-7.24553
▁since	-7.24638
▁japan	-7.25173
▁against	-7.25245
ce	-7.26585
▁now	-7.27471
▁where	-7.27671
al	-7.27961
▁near	-7.28148
▁china	-7.28457
▁m	-7.28766
▁bush	-7.2887
▁down	-7.29702
▁dur	-7.30497
▁under	-7.31005
▁take	-7.31959
▁nuclear	-7.32216
▁back	-7.32524
cause	-7.32604
▁say	-7.3402
▁off	-7.34042
▁city	-7.34135
▁official	-7.34328
▁thursday	-7.34491
▁re	-7.35172
▁may	-7.35963
▁former	-7.35963
▁nation	-7.36371
▁just	-7.3667
▁reported	-7.36836
▁un	-7.37151
▁whil	-7.37595
▁security	-7.38356
▁four	-7.38556
tween	-7.39424
▁house	-7.39798
▁made	-7.40192
ish	-7.40868
▁war	-7.41176
▁american	-7.42758
▁high	-7.44328
▁many	-7.45097
▁group	-7.45132
▁through	-7.46013
▁month	-7.46815
▁do	-7.49105
▁end	-7.49893
▁man	-7.50297
▁news	-7.50553
▁called	-7.51692
▁including	-7.51731
▁being	-7.52441
i	-7.53022
▁statement	-7.53626
▁did	-7.53696
▁plan	-7.53816
▁home	-7.5474
▁show	-7.54866
▁b	-7.55056
▁our	-7.55714
▁any	-7.56149
▁international	-7.56535
▁found	-7.56704
▁get	-7.57975
▁help	-7.5831
▁six	-7.59679
▁work	-7.60879
▁part	-7.61873
▁report	-7.62437
▁th	-7.63794
▁won	-7.64218
▁five	-7.64448
▁my	-7.6451
▁make	-7.65302
▁next	-7.65482
▁death	-7.65723
▁court	-7.66025
▁second	-7.66284
▁attack	-7.66435
▁still	-7.66535
▁go	-7.67014
▁foreign	-7.67594
▁days	-7.67686
▁how	-7.68076
▁prime	-7.69291
▁reports	-7.69942
▁long	-7.70127
in	-7.70847
▁n	-7.71367
▁talks	-7.71577
en	-7.72412
▁troops	-7.72507
other	-7.72795
▁authorit	-7.72833
▁around	-7.72889
▁office	-7.73082
▁leas	-7.73531
able	-7.73667
▁hour	-7.74953
▁want	-7.75101
▁spokesm	-7.75603
▁recent	-7.75897
▁come	-7.77507
▁set	-7.77921
▁release	-7.7835
▁seoul	-7.7857
▁arm	-7.78592
ther	-7.78777
▁leader	-7.7903
▁know	-7.79152
▁way	-7.79312
▁top	-7.79389
▁clinton	-7.79552
▁ministry	-7.79785
▁see	-7.79832
hose	-7.79848
▁site	-7.81789
▁program	-7.81892
▁support	-7.82266
▁lead	-7.82302
ity	-7.82391
▁company	-7.82551
▁place	-7.8257
▁w	-7.82715
▁public	-7.82849
▁close	-7.82996
▁washington	-7.83457
man	-7.84673
▁well	-7.8517
▁iraqi	-7.85738
▁agency	-7.85784
out	-7.8616
▁even	-7.865
ion	-7.86786
▁children	-7.86837
▁look	-7.87018
c	-7.87018
▁brit	-7.87044
▁expected	-7.87167
▁presidential	-7.87204
▁billion	-7.88025
▁chief	-7.88119
▁press	-7.88391
▁bank	-7.885
▁saying	-7.88876
▁return	-7.88914
▁should	-7.89544
▁both	-7.89845
▁york	-7.89862
▁forces	-7.89869
▁earlie	-7.90221
▁died	-7.90988
▁campaign	-7.91446
▁believe	-7.91595
▁saturday	-7.91884
▁political	-7.92162
▁early	-7.92164
▁arrest	-7.92381
▁members	-7.9253
▁election	-7.92801
▁number	-7.92816
▁friday	-7.93006
▁chin	-7.94013
▁head	-7.94516
▁white	-7.94571
▁p	-7.9499
▁car	-7.95259
▁meeting	-7.95732
▁countries	-7.958
▁women	-7.95929
▁air	-7.95979
very	-7.96046
▁general	-7.96187
▁fire	-7.97076
▁team	-7.97358
▁democratic	-7.97386
▁good	-7.97763
▁came	-7.97803
▁health	-7.98148
▁times	-7.98348
▁use	-7.98438
▁family	-7.98541
▁center	-7.98711
▁among	-7.99207
▁claim	-7.9961
▁took	-7.99628
▁months	-7.99984
▁kim	-7.99991
▁ask	-8.00337
▁think	-8.00705
▁going	-8.00975
▁power	-8.01213
est	-8.01324
▁much	-8.01654
▁economic	-8.0236
▁later	-8.02473
▁life	-8.02732
▁force	-8.028
▁left	-8.0299
▁try	-8.03116
▁issue	-8.03275
▁night	-8.03343
▁human	-8.03507
▁face	-8.04223
▁visit	-8.04511
▁then	-8.04518
▁capital	-8.04826
▁large	-8.0507
▁ago	-8.0532
▁need	-8.05447
▁move	-8.0569
▁john	-8.05712
ment	-8.06601
▁lee	-8.06835
▁k	-8.0748
▁major	-8.07663
▁area	-8.07862
▁pakistan	-8.08486
▁men	-8.08603
▁run	-8.09023
▁turn	-8.09635
▁allow	-8.09672
ers	-8.10012
▁secretary	-8.10195
▁deal	-8.10196
▁iran	-8.10939
h	-8.11321
▁de	-8.11962
▁same	-8.12022
▁held	-8.12185
▁me	-8.12569
▁oil	-8.12933
▁own	-8.13065
m	-8.13215
▁severa	-8.13244
▁business	-8.13968
▁case	-8.14014
▁put	-8.14235
▁local	-8.14432
▁department	-8.14589
▁don	-8.14601
▁market	-8.14635
▁hit	-8.15079
▁main	-8.15113
▁media	-8.15121
▁university	-8.15408
▁right	-8.15764
▁dead	-8.16457
▁record	-8.16588
▁start	-8.16595
▁past	-8.16599
▁appear	-8.16777
▁third	-8.16945
▁school	-8.17586
▁concern	-8.17744
▁yesterday	-8.18065
▁win	-8.18134
▁militant	-8.18226
▁half	-8.18274
▁these	-8.1837
▁law	-8.18462
▁call	-8.1863
▁few	-8.18876
▁today	-8.1914
▁london	-8.19361
▁space	-8.19395
▁candidate	-8.19851
▁opposition	-8.19853
▁e	-8.19921
▁vote	-8.20344
▁whe	-8.20888
▁leaders	-8.21326
▁clear	-8.2167
▁morning	-8.21684
land	-8.21693
▁com	-8.21948
▁economy	-8.22339
▁film	-8.22343
▁water	-8.22635
▁hospital	-8.22636
▁late	-8.22655
such	-8.22703
▁defense	-8.22844
▁your	-8.22863
▁roh	-8.23188
▁f	-8.23566
▁remain	-8.23892
▁financial	-8.24203
▁taliban	-8.24375
▁german	-8.24377
▁free	-8.24442
▁sign	-8.24495
▁name	-8.2458
▁open	-8.2468
▁per	-8.24899
▁d	-8.25075
▁palestinian	-8.25581
▁base	-8.25912
▁change	-8.25967
ve	-8.26003
le	-8.26142
▁workers	-8.26216
▁does	-8.26886
▁afghanistan	-8.2698
▁final	-8.27075
▁test	-8.2713
▁beijing	-8.27155
▁money	-8.27242
▁service	-8.2747
▁rule	-8.27845
▁best	-8.28041
▁line	-8.28577
▁great	-8.28577
▁administration	-8.28753
▁baghdad	-8.28757
▁eight	-8.28934
▁play	-8.28939
▁march	-8.29121
▁attacks	-8.29222
▁mccain	-8.29653
▁led	-8.2972
▁system	-8.29894
▁big	-8.30172
▁park	-8.30256
▁increase	-8.30378
▁already	-8.30379
▁video	-8.30516
▁small	-8.30561
▁source	-8.30748
▁along	-8.30764
▁strong	-8.30766
ation	-8.30926
▁give	-8.31134
▁began	-8.31139
▁killing	-8.31195
▁province	-8.31478
▁far	-8.31637
▁announc	-8.3169
▁miles	-8.31778
▁central	-8.3192
▁seven	-8.32401
▁bomb	-8.32635
▁thousand	-8.32959
▁decision	-8.33003
▁control	-8.33203
each	-8.33246
▁away	-8.33424
▁hope	-8.33546
▁co	-8.33992
▁current	-8.34275
▁keep	-8.34637
▁french	-8.34654
▁continue	-8.35262
▁food	-8.35328
▁conference	-8.35422
▁however	-8.35621
▁region	-8.35821
▁bill	-8.35833
▁operation	-8.35931
▁trade	-8.35976
▁web	-8.35981
▁cut	-8.36086
▁post	-8.36169
▁become	-8.36385
▁israeli	-8.36416
▁israel	-8.36869
▁station	-8.37203
▁southern	-8.37548
▁mak	-8.37786
▁consider	-8.37909
▁spokes	-8.38293
▁woman	-8.38571
▁fund	-8.38617
▁ap	-8.38675
▁attempt	-8.38922
▁bas	-8.38943
▁rights	-8.39025
▁global	-8.39387
▁gas	-8.39514
▁soldiers	-8.39585
▁qa	-8.39647
▁information	-8.39726
▁european	-8.39787
▁sen	-8.4025
th	-8.40321
▁violence	-8.40722
▁agreement	-8.40884
▁others	-8.41113
▁injur	-8.42169
▁border	-8.42352
▁russia	-8.42373
▁person	-8.42726
▁cause	-8.42734
▁young	-8.42912
▁east	-8.43153
▁offer	-8.43192
▁director	-8.43195
▁c	-8.43584
▁star	-8.43776
yang	-8.43786
▁town	-8.44068
▁here	-8.44129
st	-8.44235
▁barack	-8.44634
▁condition	-8.44826
▁weeks	-8.44891
▁article	-8.45053
▁live	-8.45216
▁plann	-8.4524
▁weapons	-8.4529
▁action	-8.45324
▁full	-8.4541
▁union	-8.45576
▁count	-8.45682
ic	-8.45919
▁ve	-8.46104
▁internet	-8.46539
▁northern	-8.46544
▁following	-8.46913
▁peace	-8.47416
▁students	-8.4752
▁committee	-8.47626
um	-8.47666
▁prices	-8.47937
▁point	-8.48089
▁every	-8.48208
▁rate	-8.4844
▁britain	-8.48484
▁federal	-8.4891
▁added	-8.48965
▁order	-8.49059
▁total	-8.49116
▁confirm	-8.49331
▁california	-8.49359
▁might	-8.50244
▁never	-8.50259
▁watch	-8.50279
▁republican	-8.505
▁comment	-8.50504
▁alleged	-8.50593
▁hundred	-8.50656
▁grow	-8.50911
▁launch	-8.50995
▁outside	-8.51158
▁include	-8.51314
▁short	-8.5161
▁side	-8.52075
▁target	-8.52261
▁aid	-8.52343
▁immediate	-8.52715
▁pyong	-8.52716
▁research	-8.52815
▁talk	-8.52818
▁key	-8.53043
▁congress	-8.53171
▁ahead	-8.53422
▁france	-8.53684
▁must	-8.53908
▁organization	-8.54095
▁game	-8.5429
▁emergency	-8.54346
▁acros	-8.54448
▁find	-8.54917
▁went	-8.5512
▁investigation	-8.55372
▁member	-8.55439
▁little	-8.55491
▁points	-8.55676
▁cost	-8.55926
▁body	-8.56063
▁follow	-8.56249
▁senior	-8.56423
▁real	-8.56728
▁stock	-8.56983
▁anti	-8.57131
▁hold	-8.57148
▁working	-8.57312
▁study	-8.57413
▁energy	-8.57618
▁accus	-8.57652
▁west	-8.57656
te	-8.58119
▁hard	-8.58268
een	-8.58305
▁stop	-8.58312
▁newspaper	-8.58332
us	-8.58749
▁january	-8.58813
▁crisis	-8.58813
▁speak	-8.59047
▁companies	-8.59055
▁question	-8.59091
▁possible	-8.59123
▁charges	-8.59139
▁age	-8.59147
▁race	-8.59437
▁elections	-8.59488
▁again	-8.59996
▁involv	-8.60317
▁share	-8.6041
▁got	-8.60537
▁reporters	-8.60636
▁building	-8.60834
▁russian	-8.60989
▁june	-8.6104
▁sea	-8.61364
▁council	-8.61437
▁ban	-8.6174
▁search	-8.61758
▁latest	-8.61809
▁interview	-8.61886
▁further	-8.62009
▁previous	-8.62257
▁child	-8.62278
▁england	-8.62508
▁prosecutor	-8.62761
▁airport	-8.62858
raf	-8.63204
▁red	-8.63246
▁less	-8.63282
▁july	-8.63338
▁pay	-8.6343
▁due	-8.63496
▁meet	-8.63582
▁toward	-8.63723
▁suicide	-8.63779
▁carry	-8.63814
▁provide	-8.63858
▁coast	-8.63862
▁tell	-8.6394
▁america	-8.64095
▁television	-8.64285
▁george	-8.64286
eda	-8.64408
▁travel	-8.64416
▁process	-8.64479
▁charge	-8.64522
▁mean	-8.64639
▁weekend	-8.65052
▁interest	-8.65283
uch	-8.65741
▁round	-8.65816
▁judge	-8.65941
▁tour	-8.65996
▁hyun	-8.66007
▁medical	-8.66093
▁list	-8.66314
▁afghan	-8.66342
▁couple	-8.66355
▁lost	-8.66471
▁policy	-8.66477
▁damage	-8.66543
▁minutes	-8.66571
▁ever	-8.66702
▁too	-8.66734
▁hav	-8.66845
▁september	-8.66868
▁son	-8.6709
▁scientist	-8.6713
▁future	-8.67426
▁o	-8.67507
▁term	-8.6761
self	-8.67611
▁bring	-8.67827
▁gaza	-8.6795
▁develop	-8.68029
▁poll	-8.68131
▁level	-8.68167
▁storm	-8.68221
▁groups	-8.68271
▁demand	-8.68445
ness	-8.68834
▁efforts	-8.68908
▁black	-8.68966
▁father	-8.69005
▁act	-8.69525
▁mother	-8.69746
▁street	-8.69833
▁wide	-8.69884
▁serious	-8.70064
▁ruling	-8.70066
▁victory	-8.70396
▁shot	-8.70429
▁island	-8.70488
▁send	-8.7064
▁terrorist	-8.70969
▁musha	-8.70996
▁better	-8.71439
ry	-8.71662
▁executive	-8.71703
woman	-8.71919
▁lawmaker	-8.71992
▁goal	-8.72097
▁break	-8.72496
▁hostage	-8.72541
▁sent	-8.72603
▁lot	-8.72741
▁suggest	-8.72752
▁result	-8.7292
▁series	-8.72979
▁parliament	-8.7298
▁sex	-8.73027
▁fuel	-8.73383
▁incident	-8.73591
▁stay	-8.7365
▁hand	-8.73661
▁tv	-8.73744
▁strike	-8.73807
▁hotel	-8.73929
though	-8.7398
▁december	-8.74208
▁fall	-8.74384
▁missile	-8.74492
▁heart	-8.74771
▁wounded	-8.74878
▁communist	-8.75061
▁yet	-8.75098
▁grand	-8.7545
hind	-8.75629
▁europe	-8.75816
age	-8.75847
cy	-8.75884
▁industry	-8.75915
▁important	-8.75917
▁enough	-8.75921
▁elect	-8.76054
▁really	-8.7607
▁western	-8.7608
▁direct	-8.76103
▁apri	-8.76465
▁inside	-8.76497
▁pro	-8.76503
▁mission	-8.76707
▁flight	-8.76742
▁almost	-8.76789
to	-8.76845
▁ground	-8.7697
ous	-8.77096
▁history	-8.77371
▁nine	-8.77376
▁front	-8.77415
▁vehicle	-8.77652
▁threaten	-8.77685
▁room	-8.77773
▁plane	-8.77987
▁wall	-8.78101
▁cell	-8.78262
▁seek	-8.78368
▁estimate	-8.78452
▁complete	-8.78579
▁november	-8.78826
▁david	-8.78827
ought	-8.7886
▁voter	-8.78989
▁player	-8.7907
▁wife	-8.7913
▁rice	-8.79133
▁fighting	-8.79368
▁prison	-8.79379
▁whose	-8.79939
▁asia	-8.79963
son	-8.80096
▁special	-8.80128
▁given	-8.80364
f	-8.80439
▁amid	-8.80668
u	-8.80709
▁soon	-8.8077
▁india	-8.8101
▁protest	-8.81171
▁discuss	-8.81458
▁private	-8.81525
▁democrat	-8.81544
▁foot	-8.81552
▁job	-8.81621
▁walk	-8.81826
▁chairman	-8.81834
▁cross	-8.82
▁started	-8.82048
▁different	-8.82135
▁supporter	-8.82291
▁august	-8.82375
g	-8.82427
▁crash	-8.82436
na	-8.82466
▁though	-8.82641
▁role	-8.82678
known	-8.82693
▁san	-8.82719
▁ship	-8.82804
▁season	-8.83117
▁light	-8.83193
▁middle	-8.83359
▁price	-8.83375
▁victims	-8.83719
vez	-8.84046
▁problem	-8.84176
▁animal	-8.843
▁cha	-8.84425
▁district	-8.84603
coming	-8.84762
▁join	-8.84782
▁associat	-8.84798
▁commission	-8.84806
▁exchange	-8.84848
▁evidence	-8.84916
▁situation	-8.84917
▁am	-8.84949
▁problems	-8.85032
▁areas	-8.85161
▁gave	-8.85237
▁rebel	-8.8524
▁liv	-8.85293
bc	-8.85328
▁warn	-8.85519
▁dozen	-8.85547
▁mark	-8.85573
▁protect	-8.85828
▁step	-8.86142
▁homes	-8.86364
▁movie	-8.86477
▁conduct	-8.86505
▁boy	-8.8674
▁february	-8.86818
▁australia	-8.86954
k	-8.8706
▁fail	-8.87084
▁resident	-8.87447
▁development	-8.87506
▁board	-8.87569
▁leave	-8.87822
▁met	-8.87853
▁gen	-8.8786
▁bus	-8.88177
▁risk	-8.88434
ntil	-8.88495
▁primar	-8.88517
▁road	-8.88773
▁happen	-8.88834
▁church	-8.89417
▁fell	-8.89419
▁lower	-8.89525
▁pressure	-8.89626
▁disease	-8.89858
▁crew	-8.90077
▁negotiation	-8.90087
ance	-8.90399
▁lawyer	-8.90408
▁train	-8.9052
▁bad	-8.90524
▁pakistani	-8.90561
▁reach	-8.90577
▁trip	-8.90851
▁larges	-8.91163
▁thought	-8.91183
▁serve	-8.91233
▁october	-8.91402
▁summit	-8.91402
▁senator	-8.91402
▁los	-8.91429
▁results	-8.91602
▁link	-8.91667
▁tried	-8.91814
ally	-8.91851
▁low	-8.91989
▁wanted	-8.92008
▁analyst	-8.92077
▁express	-8.92173
▁heavy	-8.92411
▁together	-8.92438
less	-8.92577
ty	-8.92903
▁pull	-8.92988
z	-8.9301
▁summer	-8.93092
▁rival	-8.93098
▁let	-8.93195
▁address	-8.93311
▁land	-8.93381
▁speech	-8.93432
wide	-8.93507
▁prevent	-8.93775
▁tokyo	-8.93778
▁something	-8.93781
▁product	-8.93903
▁crowd	-8.94129
▁vice	-8.94595
▁relations	-8.94617
▁position	-8.94833
mar	-8.94967
▁intelligen	-8.9497
▁urg	-8.95114
▁illegal	-8.95156
▁florida	-8.95158
▁senate	-8.95158
▁cup	-8.95174
ary	-8.95399
▁loss	-8.95415
▁paris	-8.95521
▁technology	-8.95525
▁inter	-8.95666
▁mid	-8.9572
▁request	-8.95855
▁crime	-8.9587
▁leban	-8.95871
▁daughter	-8.95873
▁phone	-8.95887
▁brown	-8.95933
▁project	-8.96025
▁stage	-8.96054
▁unti	-8.96093
▁attorney	-8.96205
▁hamas	-8.96206
▁justice	-8.96211
one	-8.96291
▁protesters	-8.96369
ism	-8.96459
▁calls	-8.9649
▁girl	-8.96517
▁online	-8.96681
▁attend	-8.96723
▁missing	-8.96896
▁fight	-8.97133
▁muslim	-8.97266
▁league	-8.97289
▁gold	-8.97398
▁sell	-8.97491
▁award	-8.97545
▁officer	-8.97595
▁coalition	-8.97621
▁games	-8.97972
▁ll	-8.98026
▁chance	-8.98061
▁j	-8.98066
▁focus	-8.98113
▁eastern	-8.98252
▁hong	-8.98354
biggest	-8.98367
▁releas	-8.98373
▁rise	-8.98466
▁begin	-8.98687
▁quick	-8.987
▁growth	-8.98733
▁announce	-8.98969
▁battle	-8.99064
▁getting	-8.99094
▁fan	-8.9918
▁reached	-8.99286
▁approv	-8.99314
▁markets	-8.99317
▁h	-8.99523
▁fee	-8.99662
▁match	-8.99674
▁popular	-8.99808
▁needed	-8.99842
▁decided	-9.00039
ard	-9.00108
▁saw	-9.00264
▁sarkozy	-9.00515
▁apparent	-9.00519
▁treat	-9.00533
▁labor	-9.00533
▁pick	-9.00539
▁officers	-9.00569
▁legal	-9.00664
▁survey	-9.00667
▁scene	-9.00889
co	-9.00945
▁olympic	-9.00971
▁buy	-9.00986
▁sentence	-9.01227
▁hillary	-9.01265
▁feel	-9.01392
▁love	-9.01501
p	-9.01537
▁caus	-9.01561
▁democrac	-9.01622
▁moo	-9.01656
▁effort	-9.01714
▁r	-9.01852
▁kind	-9.01978
▁jail	-9.02007
▁blood	-9.02026
ive	-9.02268
▁despi	-9.02317
ri	-9.02711
▁expect	-9.02719
taken	-9.02733
▁thai	-9.02802
▁hill	-9.0285
▁music	-9.03039
▁turkey	-9.03125
by	-9.03344
▁assembly	-9.03533
came	-9.03599
▁destroy	-9.03682
▁credit	-9.03827
▁seem	-9.03946
▁services	-9.03959
▁asian	-9.04013
▁threat	-9.04025
▁network	-9.04045
▁joint	-9.04442
side	-9.04459
▁running	-9.0465
▁cover	-9.04696
▁staff	-9.04722
▁nomination	-9.05033
▁letter	-9.05049
▁australian	-9.0524
▁stand	-9.0526
▁polls	-9.05433
▁bid	-9.05437
▁drug	-9.05654
▁ra	-9.05674
▁tak	-9.05716
▁form	-9.05843
▁issues	-9.06015
▁population	-9.06183
▁koreans	-9.06337
▁event	-9.06563
▁deput	-9.06572
▁image	-9.0663
▁robert	-9.06667
▁tax	-9.06729
▁quarter	-9.06969
▁blast	-9.07351
▁community	-9.07494
▁radio	-9.075
▁beat	-9.07584
▁receiv	-9.07595
▁murder	-9.07596
▁protests	-9.07613
x	-9.07638
▁paul	-9.07691
▁texas	-9.07742
▁host	-9.07781
▁sales	-9.07899
▁why	-9.08209
▁story	-9.08217
▁experts	-9.08426
▁safety	-9.0855
▁river	-9.08581
▁things	-9.08637
▁idea	-9.08836
▁embass	-9.08935
▁title	-9.09149
▁researcher	-9.09157
ra	-9.09264
▁field	-9.09372
▁book	-9.0962
▁plant	-9.09674
or	-9.09695
▁deep	-9.09707
▁message	-9.09747
▁delay	-9.09749
▁association	-9.09771
▁higher	-9.09856
▁royal	-9.10145
▁cit	-9.10181
▁lives	-9.10196
▁civilians	-9.10205
▁camp	-9.10317
▁jobs	-9.10393
▁opened	-9.10475
▁earth	-9.10547
▁daily	-9.106
ton	-9.10748
▁safe	-9.10915
▁governor	-9.11146
▁mov	-9.11198
▁similar	-9.11357
▁rose	-9.11401
▁often	-9.11511
▁identified	-9.11592
▁continued	-9.11631
▁minute	-9.11825
ways	-9.11876
▁debate	-9.12179
▁appeal	-9.1218
▁trial	-9.12197
greed	-9.12295
▁average	-9.12326
▁computer	-9.1248
▁ceremon	-9.12592
▁neighbor	-9.13004
▁husband	-9.13007
▁resolution	-9.13008
▁journalist	-9.13027
▁production	-9.13054
▁rais	-9.13105
▁africa	-9.13239
▁delegates	-9.13322
▁airline	-9.13342
▁king	-9.13363
▁fear	-9.1349
▁aim	-9.13563
▁iranian	-9.13639
▁famili	-9.13752
▁suffer	-9.13779
▁g	-9.13838
▁initial	-9.13847
▁poor	-9.1385
▁fact	-9.14003
▁drive	-9.14112
▁doing	-9.14209
▁st	-9.1421
▁care	-9.14256
▁date	-9.14278
▁moment	-9.14286
▁contain	-9.14428
whil	-9.14587
▁shooting	-9.14645
▁receive	-9.14711
▁sanction	-9.15112
▁kong	-9.15266
▁wait	-9.15447
▁ki	-9.15449
▁firm	-9.15537
taking	-9.15539
▁investigator	-9.15583
pent	-9.15836
▁accident	-9.15995
▁dr	-9.16057
▁tourist	-9.16058
▁arriv	-9.16146
▁raise	-9.1619
▁parents	-9.1636
▁club	-9.16395
▁burn	-9.16489
▁african	-9.16581
▁michael	-9.16822
▁ordered	-9.17042
▁involve	-9.17186
▁suspected	-9.17332
▁movement	-9.17353
▁commander	-9.17477
▁done	-9.17506
▁cat	-9.1791
▁certain	-9.18125
▁increasing	-9.18125
▁transport	-9.18125
▁dispute	-9.18156
▁quot	-9.18229
▁fired	-9.18414
▁present	-9.18681
▁included	-9.18692
hutto	-9.18701
▁difficult	-9.18763
▁prince	-9.18899
▁details	-9.19076
▁matter	-9.1937
▁islami	-9.19386
▁sexual	-9.19457
▁rest	-9.1961
▁ambassador	-9.19891
▁paper	-9.1993
▁education	-9.19944
▁cars	-9.20027
▁related	-9.20059
▁period	-9.20062
▁measures	-9.2022
▁reform	-9.20329
▁manager	-9.20492
nato	-9.20511
▁view	-9.20613
▁kilometer	-9.20786
▁wear	-9.2079
▁facilit	-9.21125
▁english	-9.21236
▁afternoon	-9.21237
▁gain	-9.21681
▁affair	-9.21689
▁saudi	-9.2169
▁ready	-9.21805
▁bodie	-9.21827
truck	-9.21993
▁majorit	-9.22003
▁accept	-9.2208
▁account	-9.22129
▁professor	-9.22144
▁draw	-9.22169
▁patient	-9.22169
▁finish	-9.22176
▁course	-9.22194
▁push	-9.22438
▁potential	-9.226
▁brother	-9.22613
▁opening	-9.22969
▁rock	-9.23014
▁detain	-9.23057
▁contact	-9.23059
▁turk	-9.2331
hua	-9.23428
▁reject	-9.23481
▁design	-9.23516
▁cabinet	-9.2352
▁leav	-9.23529
rought	-9.23756
ble	-9.23896
▁treatment	-9.24022
▁indian	-9.24146
▁access	-9.24198
▁holding	-9.24295
▁contract	-9.24331
▁block	-9.24423
▁suspend	-9.24448
▁rally	-9.24484
▁sure	-9.24524
▁huge	-9.24621
▁terror	-9.24853
▁broadcast	-9.25065
▁marine	-9.25266
▁challenge	-9.25267
▁played	-9.25558
ung	-9.25566
▁track	-9.25663
▁spoke	-9.25909
▁broke	-9.25984
▁cases	-9.26237
▁conservative	-9.2633
▁interior	-9.26379
▁announcement	-9.26392
▁friend	-9.26502
re	-9.26507
▁civil	-9.26538
▁deliver	-9.2661
stead	-9.26659
wood	-9.26701
▁limit	-9.26765
▁rescue	-9.26774
▁shows	-9.26776
▁square	-9.26811
▁doctors	-9.26837
▁activities	-9.26878
▁enter	-9.26921
▁dow	-9.27014
▁means	-9.27079
▁common	-9.27122
za	-9.27173
▁understand	-9.27338
▁forward	-9.2743
▁agree	-9.27451
▁response	-9.27765
▁raid	-9.27857
▁cities	-9.27933
▁hearing	-9.27992
▁progress	-9.28234
▁explosion	-9.28249
▁check	-9.28257
▁create	-9.28288
▁critical	-9.28633
▁streets	-9.28678
▁lift	-9.28763
▁village	-9.28975
▁passengers	-9.29154
▁illinois	-9.29222
▁non	-9.29321
▁single	-9.29509
▁actor	-9.2977
▁probabl	-9.29796
ey	-9.29922
▁describ	-9.29995
▁separate	-9.30104
ney	-9.3017
▁mexico	-9.30205
▁session	-9.30205
▁relationship	-9.30208
▁green	-9.30644
ler	-9.30691
▁peninsula	-9.307
▁institute	-9.30717
▁rain	-9.30845
▁partie	-9.30992
▁l	-9.31067
▁allegation	-9.312
▁data	-9.31222
▁index	-9.31229
▁islam	-9.31247
▁passed	-9.31374
▁spread	-9.31471
▁taiwan	-9.31697
▁nothing	-9.31713
▁vot	-9.31863
▁warning	-9.32025
▁actual	-9.32201
▁virginia	-9.32218
▁prisoner	-9.32271
▁code	-9.32299
▁refus	-9.32464
▁fast	-9.3252
▁natural	-9.32615
▁chicago	-9.32705
▁female	-9.32705
▁giant	-9.32709
ful	-9.32813
selves	-9.33176
▁criminal	-9.33212
▁insurgent	-9.33212
▁trading	-9.33213
▁investor	-9.33237
▁abo	-9.33641
▁personal	-9.33759
geles	-9.33778
ial	-9.33786
▁sun	-9.33876
▁fly	-9.33996
▁published	-9.3405
▁secret	-9.34138
▁italian	-9.34243
▁rising	-9.34282
▁avoid	-9.34287
▁schedule	-9.34342
▁sold	-9.34405
▁friends	-9.34416
▁nav	-9.34585
▁helicopter	-9.34751
▁citizens	-9.3478
▁material	-9.35128
▁annual	-9.35218
▁shiite	-9.3527
▁diplomatic	-9.35332
▁truck	-9.35466
▁eu	-9.35493
▁injuries	-9.35555
▁investment	-9.35719
▁require	-9.35774
▁investigat	-9.35791
▁particular	-9.35791
▁longer	-9.35793
▁spending	-9.35855
▁decades	-9.35859
▁pai	-9.35981
▁social	-9.35993
▁discovered	-9.36235
▁nominee	-9.36313
▁satellite	-9.36315
▁weather	-9.36325
▁winning	-9.36328
▁boat	-9.36343
▁italy	-9.36371
▁availab	-9.36389
▁experience	-9.36579
▁provid	-9.36614
▁ran	-9.36847
▁lack	-9.36856
▁independent	-9.36957
▁guard	-9.36994
▁size	-9.37325
▁barrel	-9.37379
▁camera	-9.37413
▁century	-9.37529
▁mail	-9.37693
▁adding	-9.37731
▁nasa	-9.37831
▁success	-9.37839
time	-9.37864
gnp	-9.38022
▁smith	-9.3824
▁employees	-9.38306
▁xin	-9.38452
▁blue	-9.38479
▁additional	-9.3857
▁toll	-9.38606
▁visitor	-9.387
▁la	-9.38774
▁honor	-9.38932
▁snow	-9.38938
pain	-9.39111
▁sever	-9.39117
▁color	-9.39182
▁range	-9.392
▁export	-9.39282
▁mass	-9.393
▁everything	-9.39514
▁flood	-9.39539
▁rare	-9.39561
▁worth	-9.39573
▁operat	-9.39742
▁declar	-9.39834
▁finding	-9.39945
▁earthquake	-9.40057
▁science	-9.40085
▁espe	-9.40105
▁mayor	-9.40106
▁wors	-9.40145
▁unit	-9.40471
▁parts	-9.40556
▁construction	-9.40608
cially	-9.40657
▁zone	-9.40657
▁committ	-9.40743
▁import	-9.40902
▁port	-9.41005
▁ice	-9.41128
▁peaceful	-9.41176
▁jones	-9.41187
▁insist	-9.41251
▁moon	-9.41471
▁gather	-9.41491
▁steps	-9.41619
▁seat	-9.41627
▁anything	-9.41708
▁thing	-9.41737
▁voice	-9.41897
▁quit	-9.41905
men	-9.41969
▁wound	-9.42062
▁slow	-9.42108
▁value	-9.42135
▁establish	-9.42162
▁supreme	-9.42263
ley	-9.4227
▁occurr	-9.42307
▁read	-9.42324
▁original	-9.42385
▁refugee	-9.42709
▁pass	-9.42786
▁approach	-9.42807
▁gun	-9.4284
▁dollar	-9.42952
spite	-9.43075
▁dropp	-9.43206
▁le	-9.43359
▁carolina	-9.43382
▁deni	-9.43539
▁industrial	-9.43884
▁moscow	-9.43946
▁standard	-9.43983
▁born	-9.44126
▁chung	-9.44235
▁build	-9.44375
▁resign	-9.44492
▁college	-9.44516
▁defeat	-9.4452
▁brain	-9.44522
▁aircraft	-9.44526
▁massive	-9.44533
▁speed	-9.44582
▁extend	-9.44615
▁mountain	-9.44696
▁driver	-9.44749
▁ii	-9.44824
▁figure	-9.45042
▁represent	-9.45062
▁ben	-9.45079
▁kar	-9.45085
▁driving	-9.45087
▁attention	-9.45088
▁pre	-9.45224
▁store	-9.4542
▁peter	-9.45484
▁dollars	-9.45528
▁schedul	-9.45549
kept	-9.45595
▁normal	-9.45655
▁condemn	-9.45661
▁maintain	-9.45661
▁jump	-9.45663
▁reactor	-9.45668
▁opportunit	-9.45687
▁shut	-9.45716
bi	-9.45732
▁command	-9.45813
ritten	-9.45859
▁engineer	-9.45913
responsible	-9.46055
▁super	-9.46106
aught	-9.46187
▁regard	-9.46239
▁alliance	-9.46242
▁questions	-9.4639
▁student	-9.46491
▁produce	-9.46665
▁significant	-9.46845
▁convicted	-9.4694
▁evening	-9.47079
▁produc	-9.47265
▁criticiz	-9.4727
▁remains	-9.47299
▁uk	-9.47328
▁pacifi	-9.47405
▁cancer	-9.47419
▁suspect	-9.47606
▁hands	-9.47698
▁fighter	-9.47741
▁tibet	-9.47894
el	-9.47953
▁promise	-9.48289
▁indonesia	-9.48399
▁independen	-9.48429
putin	-9.48448
oft	-9.4849
▁monitor	-9.48585
▁usual	-9.48593
▁training	-9.48612
▁shin	-9.48714
▁environmental	-9.49035
ose	-9.49153
▁class	-9.49175
▁guilt	-9.49209
▁hurt	-9.49259
▁admitted	-9.49354
▁customer	-9.49505
▁marriage	-9.49779
▁museum	-9.49782
▁beginning	-9.49786
▁society	-9.49858
▁levels	-9.49861
▁remarks	-9.49874
▁rich	-9.49972
▁whom	-9.50209
rote	-9.50264
▁banks	-9.50375
▁prompt	-9.50381
▁envoy	-9.50382
▁prosecution	-9.50384
▁schools	-9.50402
▁bridge	-9.50433
▁angel	-9.50505
▁discussion	-9.50508
harry	-9.50513
▁severe	-9.50558
▁il	-9.50804
▁heard	-9.5092
▁canno	-9.50965
▁performance	-9.50999
▁sale	-9.5112
▁pennsylvania	-9.51347
giving	-9.51358
ia	-9.51378
▁millions	-9.51398
▁review	-9.51466
▁chang	-9.51551
▁conflict	-9.51598
▁device	-9.51604
▁management	-9.5161
▁baby	-9.51649
▁song	-9.51743
▁abbas	-9.51775
▁double	-9.51787
▁ex	-9.5182
▁terroris	-9.51934
rt	-9.51978
▁critic	-9.5209
▁ohio	-9.52212
▁fill	-9.52424
▁suspects	-9.52512
▁decline	-9.52597
▁effect	-9.52671
▁dae	-9.5273
▁impact	-9.52841
▁prize	-9.52849
▁drink	-9.52854
▁fair	-9.52938
▁factor	-9.53045
▁author	-9.53253
▁screen	-9.5334
▁custody	-9.53449
▁leadership	-9.53482
▁intend	-9.53549
▁forest	-9.53663
▁resume	-9.53696
▁blame	-9.53949
▁civilian	-9.53977
▁consumer	-9.53999
▁fine	-9.54073
▁finance	-9.54087
▁everyone	-9.54124
▁bin	-9.54205
▁reason	-9.5432
▁repeated	-9.54503
▁electric	-9.54574
▁drop	-9.54615
▁holiday	-9.54703
▁communication	-9.54708
ni	-9.54755
▁parliamentar	-9.5493
up	-9.55101
▁pledge	-9.55115
▁georgia	-9.55145
▁word	-9.55285
▁changes	-9.55323
▁combat	-9.55334
▁save	-9.55349
▁buildings	-9.5542
▁micros	-9.55501
▁aide	-9.55581
▁sharp	-9.55746
▁constitution	-9.55762
tan	-9.55771
▁republic	-9.55874
▁mo	-9.55927
▁recover	-9.55946
▁criticism	-9.55984
ar	-9.56033
▁career	-9.56219
▁regime	-9.56379
▁environment	-9.56385
▁ball	-9.56526
▁buil	-9.56534
▁brief	-9.56548
▁opinion	-9.56614
▁scandal	-9.56614
▁mosque	-9.56615
▁fish	-9.56798
way	-9.56886
▁commercial	-9.5693
▁traffic	-9.57068
▁boost	-9.57157
▁adopt	-9.57253
▁territor	-9.57272
▁score	-9.57283
▁associate	-9.57494
▁sides	-9.57542
ever	-9.57824
▁specific	-9.57886
▁climate	-9.57911
▁panel	-9.57916
▁spanish	-9.57918
▁uri	-9.58017
▁traditional	-9.58135
▁regional	-9.58191
▁bak	-9.58274
▁allies	-9.58534
▁corruption	-9.58565
▁fifth	-9.58574
▁da	-9.58671
▁formal	-9.59205
▁documents	-9.59216
▁answer	-9.59231
▁james	-9.59235
▁reduce	-9.59278
▁numbers	-9.59568
▁route	-9.59706
▁olympics	-9.59722
▁seats	-9.5978
▁language	-9.59882
▁difference	-9.59883
▁negotiator	-9.59898
▁surgery	-9.59925
▁proposal	-9.59935
▁tree	-9.59993
tp	-9.60023
▁corp	-9.60044
▁surprise	-9.60137
▁ba	-9.6034
▁colombia	-9.60364
▁quake	-9.60549
▁fresh	-9.6055
▁failure	-9.6055
▁penalt	-9.60601
▁created	-9.60645
▁hop	-9.6065
▁bombing	-9.60653
▁bit	-9.60886
▁sound	-9.61087
▁wave	-9.61151
▁ko	-9.61153
▁reveal	-9.6122
▁complex	-9.6122
▁mobile	-9.61255
▁ky	-9.6179
▁makes	-9.61884
▁violent	-9.61896
▁assault	-9.61896
▁domestic	-9.61896
▁apple	-9.61899
▁disaster	-9.61907
▁queen	-9.61929
▁telephone	-9.61978
▁richard	-9.62006
▁beach	-9.62333
▁owner	-9.62489
▁fac	-9.6254
▁astronaut	-9.62576
▁recall	-9.62576
▁profit	-9.62577
▁shuttle	-9.62583
▁dangerous	-9.62588
▁coach	-9.62602
▁sleep	-9.62607
▁option	-9.62647
▁francis	-9.6269
▁holly	-9.62704
▁girls	-9.6271
▁events	-9.62806
▁describe	-9.62867
▁gates	-9.62998
▁figures	-9.63023
▁itself	-9.63088
▁agent	-9.63302
abe	-9.6343
ory	-9.63431
▁cho	-9.63551
▁addition	-9.63778
▁individual	-9.63951
▁exist	-9.64006
▁protection	-9.64034
▁tie	-9.64049
▁compar	-9.6411
▁carrie	-9.64395
▁accuse	-9.6447
▁miss	-9.64477
▁planet	-9.64627
▁supply	-9.64652
▁mug	-9.64658
▁cash	-9.64662
▁possibilit	-9.64676
▁myung	-9.64719
▁flights	-9.64749
▁shown	-9.6475
▁hu	-9.64822
ur	-9.64967
▁stopped	-9.65046
▁withdraw	-9.65275
▁positive	-9.65345
▁neighborhood	-9.65349
▁powerful	-9.6539
▁page	-9.65485
▁measure	-9.65574
▁self	-9.65576
▁controll	-9.65692
▁sunni	-9.65717
▁improve	-9.65764
▁amount	-9.6577
▁affected	-9.65783
▁magazine	-9.66049
▁trigger	-9.66049
▁package	-9.66125
▁arab	-9.66143
ine	-9.66284
▁showing	-9.66408
▁touch	-9.66416
▁cap	-9.66434
▁vow	-9.66773
▁herald	-9.66774
▁necessary	-9.66852
▁arrive	-9.66872
▁respond	-9.67126
▁ht	-9.67135
▁premier	-9.67353
▁respect	-9.67456
▁rocket	-9.67473
▁trouble	-9.67542
▁adviser	-9.67568
▁piece	-9.6762
well	-9.67638
da	-9.67681
▁replace	-9.67747
▁resolve	-9.67815
▁mil	-9.68055
▁kids	-9.68078
▁brazil	-9.68185
▁headquarter	-9.68191
▁behavior	-9.68197
▁else	-9.68202
▁tests	-9.68217
▁winter	-9.68217
▁jong	-9.68238
▁advance	-9.68281
town	-9.68446
ng	-9.68805
▁perform	-9.68854
▁fears	-9.68859
▁secure	-9.68892
▁degree	-9.68916
▁referr	-9.68961
▁maker	-9.68996
▁words	-9.68996
▁carri	-9.69035
▁id	-9.6913
▁affect	-9.69192
▁forecast	-9.69363
▁propos	-9.69493
▁nam	-9.69499
▁crude	-9.69646
▁display	-9.69647
▁felt	-9.6965
▁appearance	-9.69708
▁struggl	-9.69755
▁terms	-9.69785
▁activists	-9.6981
▁abe	-9.69867
▁bay	-9.699
▁po	-9.69915
ie	-9.69943
▁rank	-9.6995
▁heat	-9.7002
▁na	-9.70042
▁anniversar	-9.70381
▁straight	-9.70381
▁solution	-9.70389
▁yang	-9.70399
▁deadline	-9.704
ist	-9.70454
▁sometime	-9.70534
▁type	-9.70619
▁cold	-9.70814
▁winner	-9.70876
▁hurricane	-9.71122
▁pilot	-9.71134
▁bar	-9.71298
▁arms	-9.71364
▁drugs	-9.71389
▁football	-9.71586
▁soldier	-9.71628
▁supplie	-9.71688
▁km	-9.71779
▁regular	-9.71877
▁loan	-9.71914
▁forc	-9.71979
▁bear	-9.72015
▁riot	-9.72044
▁wrong	-9.72611
▁birth	-9.72618
▁successful	-9.72633
▁below	-9.72652
▁apartment	-9.72704
▁votes	-9.72794
▁ongoing	-9.72828
▁adult	-9.7288
responsibility	-9.73086
▁olme	-9.73143
▁clean	-9.73242
▁el	-9.73243
▁model	-9.73262
▁van	-9.73283
▁joined	-9.73349
▁entire	-9.73378
▁blair	-9.73378
▁channel	-9.7338
▁location	-9.73406
ak	-9.73486
▁choice	-9.736
▁feature	-9.73608
▁blow	-9.73679
▁virus	-9.73685
▁welcome	-9.73898
▁asp	-9.73907
▁abuse	-9.73907
lew	-9.73926
▁highway	-9.74029
▁pack	-9.74107
▁madrid	-9.74142
▁resort	-9.74145
▁freedom	-9.74147
▁surrounding	-9.74157
▁famous	-9.74173
▁style	-9.74179
▁reserve	-9.74234
▁true	-9.74248
▁bann	-9.74658
ither	-9.74659
▁influence	-9.74728
▁abu	-9.74856
▁twic	-9.74881
▁wa	-9.74895
▁happy	-9.74911
▁correspondent	-9.74916
▁gone	-9.75017
▁ocean	-9.75286
▁learn	-9.75366
▁scor	-9.75482
▁victim	-9.75558
▁govern	-9.75667
▁assistant	-9.75689
▁ali	-9.75701
▁spark	-9.75703
▁mount	-9.75722
▁tech	-9.75753
▁malik	-9.7578
▁cancel	-9.76172
▁meters	-9.76364
▁decade	-9.76369
new	-9.76375
▁cooperati	-9.7647
▁species	-9.76489
▁card	-9.76538
▁cent	-9.76565
▁witnesses	-9.76573
▁et	-9.76656
▁christian	-9.77027
▁legislati	-9.77132
▁male	-9.77155
▁overseas	-9.77254
▁confidence	-9.77257
▁sudan	-9.77257
▁hair	-9.7728
▁charles	-9.7731
▁tibetan	-9.77388
▁producer	-9.7739
▁propert	-9.77408
ong	-9.77465
▁che	-9.77697
▁winds	-9.77704
▁singer	-9.77811
▁kidnapped	-9.77824
▁singapore	-9.77944
▁zimbabwe	-9.77947
▁doctor	-9.77992
▁journal	-9.78022
▁christmas	-9.78048
▁software	-9.78048
▁floor	-9.7805
▁row	-9.78054
▁dream	-9.78055
▁festival	-9.78058
▁champions	-9.78096
▁trust	-9.78112
off	-9.78276
nel	-9.78286
▁su	-9.78294
ahoo	-9.78482
▁politic	-9.78486
▁door	-9.78515
▁eye	-9.78605
ro	-9.78711
▁competition	-9.78848
▁abandon	-9.78848
▁palace	-9.7885
▁controversial	-9.78853
▁extreme	-9.78854
▁division	-9.78856
▁exile	-9.78866
▁jet	-9.78888
▁active	-9.79051
▁alone	-9.79087
▁shar	-9.79144
▁nor	-9.79172
▁names	-9.79204
▁gay	-9.79314
▁williams	-9.79324
▁tough	-9.79428
▁shari	-9.79474
▁gunm	-9.79634
▁hussein	-9.79654
▁enem	-9.79657
▁pound	-9.79676
▁resignation	-9.7969
▁hot	-9.79785
▁throw	-9.79811
▁determine	-9.79838
▁activit	-9.79841
▁art	-9.79861
▁constitutional	-9.79996
▁remove	-9.80057
▁promis	-9.80084
▁qualit	-9.80122
▁studie	-9.80287
▁mine	-9.80332
uters	-9.8044
is	-9.80455
▁eventual	-9.80469
▁heavi	-9.80474
▁married	-9.80491
den	-9.80555
▁setting	-9.80584
▁collapse	-9.80635
▁photograph	-9.80638
▁indicate	-9.80648
▁ma	-9.80736
▁laws	-9.80801
▁dog	-9.80921
▁flu	-9.81107
▁kosov	-9.81291
▁treasur	-9.81302
▁bombings	-9.81363
▁wild	-9.81553
ian	-9.81579
▁william	-9.81631
▁syria	-9.81732
▁burma	-9.81746
▁dis	-9.81764
▁indicat	-9.81843
▁steve	-9.81888
▁denie	-9.82004
▁shop	-9.82013
ang	-9.82041
▁christophe	-9.82113
▁pentagon	-9.82113
▁ilbo	-9.82116
▁recession	-9.8212
▁gord	-9.82122
▁reflect	-9.82226
▁northeast	-9.82798
▁ronald	-9.82947
▁concert	-9.8295
▁dark	-9.83007
▁culture	-9.83087
ium	-9.83154
▁serving	-9.83184
▁clashe	-9.83212
overall	-9.83299
▁prove	-9.83441
▁demanding	-9.83825
▁prepared	-9.83832
▁kick	-9.83841
▁beyon	-9.83844
▁effective	-9.83847
▁doubt	-9.8385
▁han	-9.83916
▁euro	-9.83918
▁practice	-9.83958
▁pope	-9.84019
▁lone	-9.84245
▁transfer	-9.84427
▁imposed	-9.84507
eastern	-9.8454
▁surge	-9.84553
▁seed	-9.84591
▁actress	-9.84638
▁survivor	-9.84647
▁demonstrator	-9.84648
▁halt	-9.8469
▁fil	-9.8471
▁sense	-9.84823
▁chi	-9.85004
▁flow	-9.85144
id	-9.85172
▁sub	-9.85233
▁sports	-9.85281
▁farmer	-9.85288
▁capture	-9.85348
▁picture	-9.85436
▁condoleez	-9.85489
▁tournament	-9.85489
▁portug	-9.85491
▁violation	-9.85534
▁connection	-9.8554
▁shift	-9.85592
▁ho	-9.85721
▁earn	-9.86042
▁mind	-9.86066
▁via	-9.86164
▁rush	-9.86247
▁roll	-9.86273
▁smoke	-9.86292
▁egypt	-9.86345
▁soviet	-9.86351
▁various	-9.86352
▁beckham	-9.86352
▁relief	-9.86353
▁draft	-9.86353
▁religious	-9.86354
▁commitment	-9.86369
▁declaration	-9.86385
▁losing	-9.86391
▁consumers	-9.86506
▁dress	-9.86509
▁foundation	-9.86598
▁bag	-9.86698
▁whole	-9.86706
▁signal	-9.86709
▁historic	-9.86773
▁multi	-9.86793
ner	-9.86797
▁auto	-9.86828
▁determined	-9.86879
▁tank	-9.8699
▁alert	-9.87037
▁witness	-9.87104
▁hall	-9.8724
▁pictures	-9.87275
▁withdrawal	-9.87309
▁traveling	-9.87475
▁tony	-9.87559
ham	-9.87573
▁guy	-9.87761
▁convention	-9.87792
▁scale	-9.87852
▁cast	-9.87864
▁jew	-9.87895
▁complain	-9.87942
▁zoo	-9.88019
▁currenc	-9.88099
▁add	-9.88145
▁counter	-9.88232
▁easi	-9.88242
▁content	-9.88403
▁partner	-9.88436
▁ending	-9.88445
▁martin	-9.88474
▁kidnapping	-9.88555
la	-9.8871
▁computers	-9.88825
▁meetings	-9.8885
▁broad	-9.88944
▁implement	-9.88983
▁dialogue	-9.88983
▁tehran	-9.88983
▁militia	-9.88983
▁crackdown	-9.88985
▁medicine	-9.89001
▁presen	-9.89082
▁works	-9.89403
▁min	-9.89436
▁frank	-9.8947
▁hole	-9.89526
▁leg	-9.89545
atomic	-9.89563
▁dut	-9.89599
▁extra	-9.89775
▁bomber	-9.89785
▁appoint	-9.89841
▁alcohol	-9.89854
▁enjoy	-9.89876
▁ceo	-9.8989
▁version	-9.89895
▁diana	-9.89909
▁speaker	-9.89977
▁flame	-9.90003
▁weight	-9.90018
▁spring	-9.90149
▁contest	-9.90216
▁li	-9.90334
▁minor	-9.90453
▁table	-9.90486
▁stem	-9.905
▁god	-9.90519
▁probe	-9.90528
where	-9.90604
▁arabia	-9.90607
▁academ	-9.90619
▁spot	-9.90619
ester	-9.90709
▁delegation	-9.90777
▁kabul	-9.90778
▁budget	-9.9078
▁defend	-9.90871
▁stone	-9.90872
▁hous	-9.91015
▁torch	-9.91223
▁rape	-9.9127
▁trail	-9.91336
▁politicians	-9.91346
▁systems	-9.91387
▁southeast	-9.91429
▁deploy	-9.91655
▁organizer	-9.9168
▁temperature	-9.91686
▁rapid	-9.91687
▁fellow	-9.91692
▁virtual	-9.91693
▁sector	-9.91696
▁register	-9.91711
▁users	-9.91779
▁las	-9.91781
zai	-9.91862
▁collapsed	-9.91891
▁apolog	-9.91898
▁shock	-9.92171
▁se	-9.9221
▁favor	-9.92293
▁slight	-9.92348
▁tens	-9.92503
▁gar	-9.9253
ship	-9.92586
▁danger	-9.92599
▁encourage	-9.92603
▁kennedy	-9.92604
▁orbit	-9.92621
▁machine	-9.92673
▁climb	-9.92684
▁sister	-9.92686
▁income	-9.92738
junta	-9.92755
▁suffering	-9.92772
▁demonstrations	-9.92815
▁alive	-9.92846
▁waters	-9.92854
▁taxes	-9.92884
▁hear	-9.92907
▁escape	-9.92955
▁remov	-9.9301
▁wind	-9.93042
▁ways	-9.93111
▁mile	-9.93161
▁tensions	-9.93217
▁fled	-9.93283
▁wing	-9.93285
▁enforce	-9.93289
▁standing	-9.93334
▁jose	-9.93439
▁ring	-9.93479
▁liver	-9.93509
▁unveil	-9.93529
▁saddam	-9.9353
b	-9.93539
▁urani	-9.9357
▁gov	-9.93597
yone	-9.93753
▁seiz	-9.93993
▁artist	-9.94019
▁sky	-9.94082
▁ahmadi	-9.94154
▁items	-9.94176
▁decide	-9.94259
▁kenya	-9.94279
▁pounds	-9.94458
▁fraud	-9.94464
▁vietnam	-9.94464
▁economist	-9.94464
▁ethnic	-9.94468
▁unlike	-9.94481
▁isn	-9.94494
▁physical	-9.94542
▁accepted	-9.94567
▁pa	-9.94984
▁stoo	-9.95052
berg	-9.95089
▁ranking	-9.95255
▁cuba	-9.95268
▁chose	-9.95342
ification	-9.95349
▁exact	-9.95407
▁nicola	-9.95408
▁simpson	-9.95408
▁enrich	-9.95409
▁regulation	-9.95414
▁assistance	-9.95417
▁foreigner	-9.95426
▁reaction	-9.9544
▁generation	-9.95463
▁mad	-9.95486
▁ten	-9.95545
▁stake	-9.95611
▁warming	-9.95634
▁di	-9.95692
▁lose	-9.95702
▁cb	-9.95706
▁broken	-9.95818
▁jur	-9.96059
▁possibl	-9.96091
▁edge	-9.961
aks	-9.96173
suu	-9.96204
▁spend	-9.96229
▁object	-9.96277
▁explosives	-9.96323
▁box	-9.9636
▁catholic	-9.9636
▁jerusalem	-9.9636
▁michigan	-9.9636
▁remote	-9.9636
▁stadium	-9.9636
▁islamabad	-9.96361
▁championship	-9.96369
▁wealth	-9.96384
▁massa	-9.96439
▁sadr	-9.96443
▁inspector	-9.96469
ter	-9.96505
▁stars	-9.96512
▁declare	-9.96654
▁cruise	-9.96881
▁basic	-9.96921
▁ensure	-9.96942
cient	-9.97297
▁purpose	-9.97321
chuse	-9.97327
▁sa	-9.97514
▁troop	-9.97593
▁license	-9.97682
▁cia	-9.97728
▁arizo	-9.97752
▁ji	-9.97911
▁oscar	-9.97952
▁file	-9.97968
▁pain	-9.98165
▁rallie	-9.98294
▁iowa	-9.9832
▁googl	-9.98384
▁traveler	-9.98469
▁declin	-9.98664
tts	-9.98787
▁modern	-9.98861
▁motor	-9.9888
▁net	-9.98883
▁spear	-9.9891
▁surface	-9.98962
▁relative	-9.98986
▁photos	-9.99025
▁statu	-9.9906
▁demanded	-9.99258
▁violat	-9.99259
▁perfect	-9.99287
▁vegas	-9.99293
▁blam	-9.99484
▁founder	-9.99486
ribal	-9.99641
▁dan	-9.99647
▁audience	-9.99973
▁putt	-10.0019
▁tons	-10.0023
▁obtain	-10.0026
▁equipment	-10.0026
▁visa	-10.0027
▁rough	-10.0032
ado	-10.0036
▁evacuated	-10.0059
▁commissioner	-10.0061
▁era	-10.0085
▁brand	-10.009
▁tape	-10.0092
haps	-10.0095
at	-10.0096
▁task	-10.0126
▁speculation	-10.0128
▁guest	-10.0129
▁strengthen	-10.013
▁celebrit	-10.0132
▁dutch	-10.0132
▁runner	-10.0132
▁takes	-10.0139
▁writer	-10.0143
▁lad	-10.0162
▁equal	-10.017
▁plot	-10.0179
▁wi	-10.0185
ack	-10.0185
▁fix	-10.0188
western	-10.0191
▁agre	-10.0203
▁continu	-10.0212
ea	-10.0215
▁gang	-10.0221
▁subject	-10.0227
▁colleague	-10.0227
▁narrow	-10.0227
▁invite	-10.0227
▁globe	-10.0228
▁assassination	-10.0228
▁wake	-10.0229
▁carbon	-10.0229
▁warrant	-10.0229
▁band	-10.0229
▁wolf	-10.0231
▁boycott	-10.0241
▁complaint	-10.0246
▁discovery	-10.0258
▁thanks	-10.0283
▁oppos	-10.0291
▁promote	-10.0296
▁electronic	-10.0312
▁detail	-10.0313
▁closer	-10.0327
▁magnitude	-10.0329
▁trillion	-10.0329
▁detention	-10.0329
▁sheriff	-10.0329
▁fashion	-10.033
▁relay	-10.033
▁daniel	-10.033
▁nevada	-10.0331
▁ei	-10.034
▁santa	-10.0343
▁stress	-10.035
▁organiz	-10.036
ily	-10.0387
▁anger	-10.0388
ier	-10.0396
▁smok	-10.0397
▁jan	-10.0397
▁wor	-10.0398
▁weapon	-10.0419
▁aware	-10.0422
▁windows	-10.0429
▁louis	-10.0433
▁internal	-10.0435
▁professional	-10.0437
▁debt	-10.0439
▁arrival	-10.0447
back	-10.0448
▁transition	-10.0449
▁spy	-10.0472
▁dismissed	-10.0475
▁agenci	-10.0478
mer	-10.049
▁expand	-10.0499
▁patrol	-10.0501
▁nepal	-10.0519
▁alaska	-10.0519
▁dogs	-10.0532
▁suburb	-10.0537
▁invasion	-10.0537
▁mahmoud	-10.0537
▁strategy	-10.0537
▁temporar	-10.0537
▁crucial	-10.0537
▁jackson	-10.0538
▁restriction	-10.0542
▁calm	-10.0542
▁lake	-10.0543
▁canad	-10.0544
field	-10.0554
▁representatives	-10.0571
▁angr	-10.0585
▁path	-10.0586
▁liberal	-10.0627
▁example	-10.0631
▁champion	-10.0635
▁attract	-10.0639
▁reporter	-10.0641
▁dubai	-10.0642
▁remember	-10.0643
▁monk	-10.0644
▁casualties	-10.0645
▁tight	-10.0646
▁mike	-10.0648
▁manch	-10.0648
▁samsun	-10.0651
▁estimat	-10.0671
▁colombian	-10.0671
broad	-10.0682
pool	-10.0686
▁meant	-10.0697
▁provinc	-10.0711
▁handed	-10.0712
▁charg	-10.072
ant	-10.0727
▁exercise	-10.0735
▁tonight	-10.0735
▁dub	-10.0738
▁mix	-10.074
itarian	-10.0748
▁identify	-10.0748
▁memorial	-10.0748
▁agricultur	-10.0748
▁lawsuit	-10.0748
▁estate	-10.0749
▁babies	-10.075
▁bailout	-10.0751
▁jung	-10.0752
j	-10.0759
▁stall	-10.0763
▁phones	-10.077
▁leak	-10.0778
▁relatives	-10.0781
corporate	-10.0805
▁visiting	-10.0806
ized	-10.0818
▁fed	-10.0819
▁ray	-10.0834
▁pair	-10.0843
▁worrie	-10.0845
▁offensive	-10.0856
▁sudden	-10.0856
▁diego	-10.0856
▁presiden	-10.0858
▁batter	-10.0859
▁choose	-10.0873
▁sport	-10.0898
ical	-10.0911
▁theater	-10.0924
▁venezuela	-10.0946
▁advantage	-10.0964
▁counterpart	-10.0964
▁entertainment	-10.0965
▁tiger	-10.0965
▁exit	-10.0965
▁berlin	-10.0967
▁nobel	-10.0967
▁inc	-10.0968
▁warm	-10.0971
▁urge	-10.0973
▁wood	-10.0975
▁simple	-10.098
▁fa	-10.0985
▁projects	-10.0986
▁document	-10.0987
▁princess	-10.0991
▁wonder	-10.1
▁joong	-10.1042
ified	-10.1061
▁guarantee	-10.1074
▁suspicion	-10.1074
▁veteran	-10.1074
▁nadal	-10.1074
▁reduction	-10.1075
▁ukrain	-10.1075
▁potter	-10.1075
▁split	-10.1076
▁auction	-10.1078
▁favorite	-10.108
▁aboard	-10.1083
▁sydn	-10.1084
▁none	-10.1085
oline	-10.1086
ma	-10.1088
ization	-10.1088
▁reasons	-10.1091
▁label	-10.1103
▁maca	-10.1106
▁argu	-10.111
▁yes	-10.1119
spread	-10.1124
▁lady	-10.1128
▁offering	-10.1131
▁die	-10.1133
▁chen	-10.1135
▁freed	-10.115
▁haven	-10.115
ani	-10.116
▁rome	-10.1161
▁feder	-10.1185
▁permanent	-10.1185
▁books	-10.1187
▁destruction	-10.1187
▁hilton	-10.1188
▁teenager	-10.1194
▁johnson	-10.1199
dna	-10.12
▁roads	-10.1221
▁tom	-10.1234
night	-10.1247
▁con	-10.1253
surance	-10.126
▁investigate	-10.1277
▁fit	-10.1288
▁anonymity	-10.1298
▁compound	-10.1298
▁soccer	-10.1298
▁technical	-10.1298
▁simply	-10.1299
▁cutting	-10.1302
▁lay	-10.1311
▁passenger	-10.1313
▁movies	-10.1337
▁catch	-10.1348
▁manag	-10.1359
▁mohamm	-10.1365
▁creat	-10.138
▁struggle	-10.1394
▁coup	-10.1404
▁landing	-10.1408
▁ease	-10.1409
▁en	-10.1409
▁frequent	-10.1411
▁kingdom	-10.1412
▁delta	-10.1412
▁emission	-10.1412
▁buri	-10.1413
▁expectation	-10.1419
un	-10.1425
▁firefighter	-10.1427
▁easy	-10.1435
ll	-10.1437
▁trapped	-10.1451
▁strain	-10.1459
▁x	-10.1465
▁threats	-10.1468
▁suit	-10.1484
as	-10.1488
▁wen	-10.1503
▁harm	-10.1505
gun	-10.1507
▁fata	-10.1508
▁chelsea	-10.1526
▁shelter	-10.1526
▁diplomats	-10.1527
▁atmospher	-10.1527
▁canadian	-10.1527
▁recovery	-10.1533
▁kurdis	-10.1544
▁manufactur	-10.156
▁unclea	-10.1562
▁explod	-10.1565
▁mr	-10.1567
▁lt	-10.157
▁cultur	-10.1572
▁refuse	-10.1573
▁tear	-10.1579
▁vi	-10.1589
ersey	-10.1589
▁engine	-10.1592
ability	-10.161
ana	-10.1635
▁element	-10.1643
▁froze	-10.1644
▁plus	-10.1649
▁ru	-10.165
▁shortage	-10.1651
▁renew	-10.1653
▁guards	-10.166
enko	-10.1664
▁worse	-10.1665
▁devastat	-10.1666
▁improv	-10.1684
▁forum	-10.1688
▁dong	-10.1703
▁issu	-10.1708
▁pc	-10.1711
▁rang	-10.1724
▁sh	-10.1727
▁prepar	-10.1749
▁erupt	-10.1756
▁mars	-10.1758
▁unusual	-10.176
▁tomorrow	-10.176
▁debut	-10.176
▁agenda	-10.1761
▁diamond	-10.1761
▁mention	-10.1763
▁valley	-10.1763
▁section	-10.1763
▁purchase	-10.1765
▁eyes	-10.1767
▁sw	-10.1767
▁chemical	-10.1768
▁recruit	-10.1772
▁profile	-10.1773
▁payment	-10.1775
▁ride	-10.1785
▁bone	-10.179
▁expert	-10.1793
▁percentage	-10.1799
▁acknowledg	-10.1806
▁resources	-10.1806
▁polic	-10.1808
▁youth	-10.1816
▁heads	-10.1834
dai	-10.1836
▁indiana	-10.1838
across	-10.1839
imed	-10.1841
▁malaysia	-10.1861
▁pop	-10.1874
▁disappear	-10.1878
▁cleric	-10.1879
▁thomas	-10.1879
yongbyon	-10.1879
▁negative	-10.188
▁writing	-10.1885
▁elder	-10.1886
▁khan	-10.1888
arta	-10.1899
▁pe	-10.1907
rew	-10.1912
▁institution	-10.192
ional	-10.1923
▁apologize	-10.1924
ground	-10.193
▁basi	-10.1933
it	-10.1935
▁petr	-10.1938
▁rescuer	-10.1951
▁birds	-10.1952
▁thank	-10.1977
▁proper	-10.1979
▁disappoint	-10.1997
▁mccann	-10.2
▁studio	-10.2
▁bullet	-10.2
▁conspirac	-10.2
▁abdullah	-10.2001
▁nature	-10.2001
▁wedding	-10.2002
▁gap	-10.2002
▁strip	-10.2002
▁clinic	-10.2003
▁sort	-10.2019
▁rat	-10.2035
▁vessel	-10.2039
▁learned	-10.2051
olar	-10.2053
▁heading	-10.2058
mph	-10.207
▁locat	-10.2084
▁miami	-10.2122
▁toys	-10.2123
▁edition	-10.2123
ju	-10.2134
▁ang	-10.2142
▁listen	-10.2147
▁observer	-10.2158
▁ghaz	-10.2159
▁homeland	-10.216
▁crack	-10.2166
▁ticket	-10.2166
▁jak	-10.2175
▁benefits	-10.2175
▁sit	-10.2199
▁digital	-10.2203
ina	-10.222
▁collect	-10.2237
▁detect	-10.2239
di	-10.224
▁assets	-10.2244
▁darfur	-10.2245
▁error	-10.2245
▁succeed	-10.2245
▁alternative	-10.2245
▁radical	-10.2246
▁execution	-10.2248
▁boss	-10.2254
▁nominat	-10.2254
▁lowest	-10.2258
▁oppose	-10.226
▁venezuelan	-10.2266
▁boe	-10.2283
▁album	-10.2291
▁identit	-10.2295
▁restaurant	-10.2295
▁cool	-10.2297
▁hung	-10.23
▁cheer	-10.2305
▁landed	-10.2306
azir	-10.2307
▁southwest	-10.2332
▁retir	-10.2339
im	-10.2354
▁bureau	-10.2355
▁reduced	-10.2363
▁edwards	-10.2365
▁ver	-10.2368
ga	-10.2369
▁mortgage	-10.237
▁preliminar	-10.237
▁convoy	-10.237
▁yellow	-10.237
▁proud	-10.2371
▁gulf	-10.2371
▁hunt	-10.2372
▁maryland	-10.2372
▁dramatic	-10.238
▁joe	-10.2383
over	-10.2383
▁inflation	-10.2385
▁belong	-10.239
▁bottle	-10.2392
▁chair	-10.2421
▁closing	-10.2425
▁sean	-10.2428
▁soar	-10.2432
ican	-10.2444
▁knee	-10.2459
▁divorce	-10.2464
▁goods	-10.2486
▁operate	-10.249
▁marked	-10.2492
▁campus	-10.2492
▁strength	-10.2492
▁journey	-10.2497
▁youtube	-10.2497
▁method	-10.2497
▁assist	-10.2499
▁hezb	-10.25
▁bird	-10.25
▁prett	-10.2513
▁farm	-10.252
erson	-10.2523
▁pet	-10.2532
▁plead	-10.2533
▁rail	-10.2547
▁reading	-10.2551
▁corner	-10.2558
▁zealand	-10.2565
▁pace	-10.2566
▁notice	-10.2567
▁northwest	-10.2607
beth	-10.2608
▁pushing	-10.2614
▁desert	-10.2619
ville	-10.2622
fare	-10.2625
▁bangkok	-10.2625
▁client	-10.2625
▁sustain	-10.2625
madeleine	-10.2626
▁gallon	-10.2626
▁shrine	-10.2627
▁sentenc	-10.2635
▁gonzale	-10.2642
▁approve	-10.2653
▁shoe	-10.2664
▁fate	-10.2667
▁participate	-10.2682
body	-10.2686
▁woo	-10.2687
▁ill	-10.2688
▁lock	-10.2701
▁fatal	-10.2703
▁sponsor	-10.2706
▁clash	-10.2715
day	-10.2722
▁coordinat	-10.2722
▁falling	-10.2724
▁entering	-10.2732
▁alexand	-10.2751
▁pose	-10.2753
▁cloud	-10.2755
▁vacation	-10.2755
▁bottom	-10.2757
▁scot	-10.2768
▁restore	-10.2769
▁ha	-10.2776
▁effects	-10.2786
▁opponents	-10.2789
▁drew	-10.2794
▁hospitaliz	-10.2808
▁gathering	-10.281
▁ro	-10.2812
▁outbreak	-10.2824
▁stores	-10.2837
▁guns	-10.284
ious	-10.2845
▁ia	-10.2859
▁balance	-10.2862
llah	-10.2871
▁lama	-10.2876
▁weak	-10.2877
▁surround	-10.2884
▁select	-10.2885
▁captain	-10.2886
▁bilateral	-10.2887
▁engag	-10.2887
▁drove	-10.2887
▁pump	-10.2887
▁ballot	-10.2887
▁innocent	-10.2891
▁deployment	-10.2891
▁chrys	-10.2892
▁kang	-10.2892
▁hopeful	-10.2893
▁gains	-10.2897
▁firing	-10.2897
▁im	-10.2902
ches	-10.2906
▁chain	-10.2909
▁structure	-10.2927
▁roman	-10.2937
▁delivery	-10.2942
▁col	-10.2945
▁argentin	-10.2951
▁seal	-10.2957
▁benefit	-10.2962
▁waste	-10.2963
▁charit	-10.2967
work	-10.2985
▁shape	-10.2989
mi	-10.3001
▁holy	-10.3008
▁flee	-10.3009
arah	-10.3009
ling	-10.3014
▁nas	-10.3019
▁controversy	-10.302
▁tsunami	-10.302
▁truth	-10.3021
▁jesu	-10.3022
▁palm	-10.3023
▁palin	-10.3023
▁grew	-10.3023
▁vat	-10.3028
▁islamist	-10.3032
▁stability	-10.3033
hai	-10.3033
▁immigrat	-10.3034
▁oh	-10.3037
▁osam	-10.3038
▁afford	-10.3041
▁friendly	-10.3046
▁tall	-10.3049
▁acre	-10.305
ay	-10.3053
▁boom	-10.3074
▁grave	-10.3081
▁beating	-10.3082
water	-10.3094
▁metal	-10.3097
▁carrier	-10.311
ne	-10.3123
ta	-10.3135
▁weigh	-10.3141
▁write	-10.3142
ten	-10.3148
▁length	-10.315
▁affiliate	-10.3152
▁landslide	-10.3155
▁girlfriend	-10.3155
▁boston	-10.3155
aid	-10.3156
▁vast	-10.3157
▁shopping	-10.3159
ick	-10.316
▁weaken	-10.316
ez	-10.3165
▁peru	-10.3174
aeus	-10.3178
ehud	-10.3183
ural	-10.319
▁cable	-10.3194
▁damag	-10.3195
▁indonesian	-10.3198
▁handl	-10.3206
▁gore	-10.321
▁har	-10.3212
agan	-10.3218
▁participat	-10.322
ford	-10.3222
down	-10.3224
▁divers	-10.3225
▁tim	-10.3244
▁ye	-10.3248
▁predicted	-10.3252
▁survived	-10.3278
▁ally	-10.3284
▁invest	-10.3286
▁experiment	-10.3289
▁lab	-10.3289
▁convince	-10.3292
▁yonhap	-10.3292
▁pregnant	-10.3292
▁wildlife	-10.3292
▁corporation	-10.3292
▁plastic	-10.3292
ence	-10.3292
▁inspection	-10.3294
▁typical	-10.3294
▁dump	-10.3296
▁electora	-10.3298
▁atlantic	-10.33
▁bright	-10.3305
▁scott	-10.3321
▁battl	-10.3322
▁string	-10.3322
▁meaning	-10.3326
▁teachers	-10.3339
▁formed	-10.3344
▁tire	-10.3354
▁je	-10.336
▁tradition	-10.3376
▁detonat	-10.338
▁representative	-10.3385
▁teacher	-10.3392
bed	-10.3403
▁mayb	-10.3406
▁ka	-10.3411
▁serbia	-10.3413
▁kurd	-10.3417
▁islands	-10.342
▁vladimir	-10.342
▁barcelon	-10.3431
▁endanger	-10.3431
▁initiative	-10.3431
▁conversation	-10.3431
▁ultimate	-10.3431
▁rockets	-10.3432
▁numer	-10.3432
▁memory	-10.3433
▁temple	-10.3433
▁squad	-10.3433
▁neck	-10.3434
▁yard	-10.3435
▁defendant	-10.3436
▁collection	-10.3437
▁achieve	-10.3443
▁mate	-10.3459
ept	-10.3462
▁bound	-10.3463
▁stan	-10.3477
▁mur	-10.3479
▁dala	-10.3489
iya	-10.349
▁margin	-10.3499
▁younger	-10.3501
▁planes	-10.3507
▁restaurants	-10.3515
▁symbol	-10.3532
▁bond	-10.3545
▁yoo	-10.3553
▁restrict	-10.3565
▁drama	-10.3567
▁connect	-10.3571
▁knowledge	-10.3572
▁prospect	-10.3572
▁delhi	-10.3572
▁jordan	-10.3572
▁brazilian	-10.3573
upper	-10.3573
▁fox	-10.3583
▁character	-10.359
▁failing	-10.3601
▁lie	-10.363
▁wish	-10.3638
ny	-10.3641
▁responded	-10.3655
▁print	-10.366
▁crop	-10.366
▁settle	-10.3661
▁recommend	-10.367
▁glass	-10.3675
itting	-10.3684
▁abduct	-10.3704
▁dealing	-10.3709
▁par	-10.3711
▁abdul	-10.3714
▁participant	-10.3715
▁routine	-10.3715
▁buddhist	-10.3715
▁birthday	-10.3715
▁sample	-10.3716
▁stole	-10.3716
▁kerr	-10.3717
▁advertis	-10.3723
ejad	-10.3724
▁accord	-10.3726
kk	-10.3736
▁provinces	-10.3764
han	-10.3767
baki	-10.3773
▁stretch	-10.3779
▁tru	-10.378
▁barr	-10.3788
▁farc	-10.3793
ger	-10.3795
▁bi	-10.3803
▁warnings	-10.3803
▁excit	-10.3814
▁maxim	-10.3816
▁flag	-10.3817
▁demonstration	-10.3827
bility	-10.3828
▁clon	-10.3851
evin	-10.3853
▁requir	-10.3854
▁trains	-10.3856
▁publicly	-10.3856
▁hampshire	-10.3859
▁superdelegate	-10.3859
▁surrender	-10.3859
▁eliza	-10.386
▁illness	-10.3861
▁wage	-10.387
▁morgan	-10.3872
daq	-10.3872
▁veto	-10.3873
▁shang	-10.3884
chuan	-10.3884
▁feeling	-10.3905
▁pledg	-10.3911
▁ga	-10.3912
▁runway	-10.3919
▁pursu	-10.3926
▁abc	-10.3939
▁wins	-10.3955
▁beef	-10.3966
▁direction	-10.4
▁negotiat	-10.4004
▁airstrike	-10.4007
▁hawaii	-10.4007
▁michel	-10.4007
▁capacity	-10.4008
▁shirt	-10.4009
▁punishment	-10.4009
▁distance	-10.4009
▁peak	-10.401
▁fortune	-10.4012
▁shark	-10.4014
▁accusation	-10.4019
▁solve	-10.4022
▁rom	-10.4029
▁kenyan	-10.4036
▁ne	-10.4043
▁stories	-10.4045
▁striker	-10.407
▁conclude	-10.4078
▁somali	-10.4089
▁acknowledge	-10.4098
▁photo	-10.41
▁pirates	-10.4104
▁argue	-10.4104
▁featur	-10.4111
▁brutal	-10.4115
▁torture	-10.4122
▁photographer	-10.4124
▁celebrate	-10.4128
lor	-10.4135
▁worker	-10.4143
▁revolutionar	-10.4152
▁shoot	-10.4153
▁obvious	-10.4156
▁jack	-10.4156
▁cyclone	-10.4156
▁strict	-10.4156
▁genetic	-10.4158
▁columbia	-10.4158
▁messages	-10.4159
▁switch	-10.4162
▁v	-10.4171
▁briefing	-10.4172
▁chile	-10.4174
▁promot	-10.4178
▁sensitiv	-10.4178
▁philippines	-10.4195
employment	-10.42
pped	-10.4208
▁humans	-10.4217
▁note	-10.4221
▁jim	-10.4237
▁comfort	-10.424
▁skin	-10.4241
▁contests	-10.4247
▁caucuse	-10.425
▁commit	-10.4272
▁moderate	-10.4276
▁unity	-10.4277
witz	-10.4286
hattan	-10.4286
rey	-10.4286
▁highlight	-10.4289
▁spirit	-10.4307
▁coffee	-10.4307
▁scientific	-10.4307
▁dinner	-10.4308
▁arsenal	-10.4308
▁everybody	-10.431
▁congo	-10.431
▁urban	-10.4311
▁mental	-10.4314
▁native	-10.4315
▁comedy	-10.4325
▁celebrat	-10.433
ippi	-10.4336
owitz	-10.4337
▁lung	-10.4341
▁transferr	-10.4345
▁corps	-10.435
▁introduce	-10.4355
▁loh	-10.4359
▁ski	-10.436
ren	-10.4374
▁undergo	-10.4376
▁gmt	-10.4383
▁bell	-10.4394
ca	-10.4419
▁hospitals	-10.4427
▁cloth	-10.443
▁authoriz	-10.4432
▁eating	-10.4442
▁knock	-10.4446
▁react	-10.4453
▁whal	-10.4461
▁editor	-10.4461
▁sovereign	-10.4461
▁surveill	-10.4461
▁cease	-10.4461
ities	-10.4463
▁aids	-10.4464
▁sailor	-10.4464
▁bitter	-10.4465
▁expensive	-10.4465
▁successor	-10.4466
▁mississ	-10.4467
▁peacekeep	-10.4471
▁intense	-10.4472
▁text	-10.4473
▁views	-10.4478
▁dick	-10.4486
▁mouth	-10.449
iana	-10.4493
▁eat	-10.4516
▁nei	-10.4553
▁zar	-10.4555
▁maj	-10.4557
erry	-10.4583
▁compete	-10.4587
▁tool	-10.4589
▁hiv	-10.4591
▁depend	-10.4592
▁citizen	-10.4608
tah	-10.4609
▁steven	-10.4609
▁ordinar	-10.4614
▁dispatch	-10.4617
▁venue	-10.4617
▁watchdog	-10.4618
▁prepare	-10.4619
▁midnight	-10.4619
▁appointment	-10.4623
▁circumstances	-10.4636
▁pos	-10.4651
▁pr	-10.4663
▁du	-10.4668
▁gree	-10.4673
tiny	-10.4673
▁metropoli	-10.468
go	-10.4698
▁divide	-10.4701
▁pursue	-10.4703
▁earning	-10.4703
▁inquir	-10.4704
har	-10.4709
erland	-10.4744
▁ca	-10.4749
▁teen	-10.4751
▁emerged	-10.4758
▁explain	-10.476
▁disney	-10.4775
▁wreck	-10.4776
▁testimon	-10.4776
▁swiss	-10.4776
▁multiple	-10.4776
▁harsh	-10.4777
▁egyptian	-10.4777
▁owners	-10.4778
▁powers	-10.4778
▁federation	-10.478
▁rumor	-10.4781
▁regulator	-10.4781
▁bob	-10.4784
▁operator	-10.4787
▁debri	-10.4791
▁fun	-10.4794
▁realize	-10.4805
▁musical	-10.4806
▁henr	-10.4817
▁matche	-10.4833
▁guide	-10.4838
▁saving	-10.4844
▁conclud	-10.4861
▁historical	-10.4866
▁recognize	-10.4879
ular	-10.4879
▁polici	-10.4889
▁gul	-10.4897
▁stressed	-10.4909
▁bombers	-10.4909
ha	-10.4917
ch	-10.4918
▁jane	-10.4929
▁floods	-10.493
▁diplomat	-10.493
▁funeral	-10.4937
▁phoeni	-10.4937
▁quiet	-10.4937
▁dvd	-10.4938
▁crown	-10.4939
▁supposed	-10.4939
▁barrier	-10.494
▁chart	-10.494
▁castro	-10.4944
▁indication	-10.4946
▁cafe	-10.4948
▁bail	-10.4958
▁cave	-10.4966
▁bull	-10.4977
▁deny	-10.4977
armament	-10.4993
▁rod	-10.4996
▁appropriate	-10.4997
▁lights	-10.5001
▁moham	-10.5009
▁responsibilit	-10.5012
▁bowl	-10.5017
▁handle	-10.5018
▁diet	-10.5019
chi	-10.5021
▁survive	-10.5026
▁sch	-10.5036
▁rescued	-10.504
▁broadcaster	-10.5048
▁ta	-10.5049
▁ire	-10.5055
▁yi	-10.5056
▁liter	-10.5059
rs	-10.508
▁blaze	-10.5096
▁engage	-10.5097
▁conservation	-10.5098
▁faith	-10.5101
▁tobacco	-10.5101
▁verdict	-10.5101
▁mexican	-10.5101
▁shareholder	-10.5101
▁false	-10.5102
▁disable	-10.5103
▁fierce	-10.5104
▁explosive	-10.5108
▁window	-10.5108
▁accounts	-10.5113
▁apart	-10.5115
▁frame	-10.5115
▁pitt	-10.5115
▁continent	-10.5117
▁socialist	-10.512
▁sick	-10.5126
sumption	-10.5166
no	-10.5191
▁ge	-10.5207
▁hwan	-10.5214
▁civi	-10.5222
more	-10.5226
▁fat	-10.5227
ota	-10.5232
▁slipp	-10.525
▁infect	-10.5252
eath	-10.5267
▁confident	-10.5268
▁category	-10.5268
▁occupation	-10.5268
▁benchmark	-10.5268
▁joseph	-10.5268
▁boyfriend	-10.5268
▁amnes	-10.527
▁apply	-10.5271
▁careful	-10.5273
▁gross	-10.5275
▁televis	-10.5279
▁vital	-10.5281
▁willing	-10.5295
▁carlo	-10.53
▁paint	-10.5306
▁unknown	-10.531
▁correct	-10.5313
▁twin	-10.5329
confirmed	-10.5331
▁chad	-10.5334
▁somalia	-10.5343
▁villager	-10.5355
▁chest	-10.5357
light	-10.5359
▁ti	-10.5373
am	-10.5377
▁patric	-10.538
▁consult	-10.5402
▁austria	-10.5419
▁stimul	-10.542
▁negotiate	-10.5429
▁disrupt	-10.5432
▁mccorm	-10.5438
▁benedict	-10.5438
▁conclusion	-10.5438
▁uniform	-10.5438
▁stern	-10.5438
▁preparation	-10.5442
▁beaut	-10.5469
▁commerc	-10.547
▁pitch	-10.5472
▁hat	-10.5478
▁communit	-10.5487
▁chris	-10.549
▁stands	-10.5507
▁ar	-10.5513
▁cd	-10.5514
▁regions	-10.5517
▁sad	-10.552
bus	-10.5534
▁hub	-10.5537
wise	-10.5546
▁steel	-10.5549
ol	-10.5571
▁fay	-10.5571
▁hail	-10.5574
hood	-10.5575
ah	-10.5576
▁wine	-10.5576
▁classic	-10.5589
▁mal	-10.56
▁priva	-10.5609
▁czech	-10.561
▁unfortunate	-10.561
▁reconciliation	-10.561
▁blago	-10.561
▁clark	-10.561
▁typhoon	-10.561
▁repair	-10.5611
▁sweep	-10.5611
▁punish	-10.5611
▁cargo	-10.5614
▁sweet	-10.5619
▁specialist	-10.5621
▁tend	-10.5624
▁brad	-10.5625
▁trader	-10.5626
put	-10.5626
▁parent	-10.5627
▁absolutely	-10.5628
▁rebuild	-10.5629
▁entry	-10.5632
▁hug	-10.5637
▁copy	-10.5639
tv	-10.5639
▁captur	-10.5639
▁jin	-10.5644
▁antoni	-10.5649
▁cuban	-10.5649
▁familiar	-10.5651
▁custom	-10.5651
▁medal	-10.5655
efa	-10.5661
▁marks	-10.5663
▁toxic	-10.5674
house	-10.5685
▁cow	-10.5691
▁copie	-10.5692
▁believ	-10.571
w	-10.5716
▁wel	-10.5719
craft	-10.572
▁stephen	-10.5722
ent	-10.5744
▁painting	-10.5752
▁fires	-10.5752
ei	-10.5769
▁counts	-10.5777
▁grant	-10.5783
▁robot	-10.5783
▁secular	-10.5783
▁aggressive	-10.5785
▁breakthrough	-10.5785
▁laptop	-10.5785
▁striking	-10.5785
▁mar	-10.5785
▁legend	-10.5785
▁await	-10.5786
▁clock	-10.5786
▁separatist	-10.5786
▁concrete	-10.5786
▁petition	-10.5786
▁conviction	-10.5786
▁sheikh	-10.5786
luton	-10.5789
▁shield	-10.579
▁fta	-10.579
▁odd	-10.5793
▁zero	-10.5794
▁sri	-10.58
▁reference	-10.5803
▁substantial	-10.5804
▁variet	-10.5812
▁seize	-10.5819
▁paulo	-10.5822
▁camps	-10.5831
▁hero	-10.5833
▁overwhelming	-10.5833
▁scar	-10.5835
▁bolt	-10.5838
▁stable	-10.584
▁shore	-10.5845
▁prayer	-10.585
▁graduate	-10.5856
▁attacker	-10.586
▁athen	-10.5872
▁outrage	-10.5874
▁miner	-10.5886
▁sir	-10.5889
court	-10.5891
▁mary	-10.5895
▁partners	-10.5905
▁chun	-10.5912
▁rep	-10.5937
▁ryan	-10.5943
▁bo	-10.5944
▁spott	-10.5945
stance	-10.5956
▁chao	-10.596
▁volcano	-10.596
▁immigrant	-10.5964
▁imprison	-10.5964
▁tennesse	-10.5964
▁departure	-10.5964
▁motion	-10.5966
lin	-10.5966
erdog	-10.5966
▁assessment	-10.5966
▁mel	-10.5968
▁novel	-10.5969
▁glacier	-10.597
▁slave	-10.5971
▁mistake	-10.5979
▁contribute	-10.5984
▁inform	-10.5991
pending	-10.5995
ting	-10.5998
▁settlement	-10.6001
▁bigge	-10.6015
▁dam	-10.6019
▁athletes	-10.6028
▁shipp	-10.6032
▁kid	-10.6033
▁inch	-10.6046
▁aren	-10.6047
▁generate	-10.6054
▁retail	-10.6056
lanta	-10.6058
▁kyo	-10.6064
▁praise	-10.6078
▁hills	-10.609
▁convert	-10.6095
quo	-10.6095
▁rio	-10.6103
▁jeff	-10.6105
▁fame	-10.6106
▁polar	-10.611
▁tackle	-10.6117
▁complet	-10.6124
▁classifie	-10.6134
▁chong	-10.6135
▁except	-10.614
▁mourn	-10.614
▁referendum	-10.6146
▁muscle	-10.6146
▁compensation	-10.6146
▁impeach	-10.6146
▁roger	-10.6146
▁sentiment	-10.6146
▁contrast	-10.6147
▁buyer	-10.6155
▁kate	-10.6159
▁sole	-10.616
▁railway	-10.6161
▁rafa	-10.6164
▁kent	-10.6175
▁tsv	-10.6177
oney	-10.6188
▁delegate	-10.619
▁employee	-10.619
▁root	-10.6193
▁turnout	-10.6194
▁jae	-10.6208
▁greet	-10.622
mumba	-10.6222
evich	-10.623
▁oldest	-10.6244
▁airway	-10.6247
▁seconds	-10.6256
▁meter	-10.6261
▁soil	-10.6264
▁hang	-10.6276
▁organ	-10.6301
▁thinking	-10.6303
▁abus	-10.6307
▁libya	-10.6312
▁employ	-10.6314
▁uh	-10.6315
▁bangladesh	-10.6319
▁priorit	-10.632
▁spill	-10.6326
▁platform	-10.6331
▁caution	-10.6331
delphi	-10.6331
▁retain	-10.6331
▁laborator	-10.6331
▁darwin	-10.6331
▁huck	-10.6332
▁flash	-10.6332
▁orange	-10.6332
▁loyal	-10.6332
▁outcome	-10.6333
▁slump	-10.6334
▁essential	-10.6335
▁dust	-10.6335
▁float	-10.6339
▁moore	-10.6347
▁solid	-10.6352
▁stepp	-10.6362
▁wire	-10.637
iri	-10.637
fp	-10.6374
▁clothe	-10.6374
ada	-10.6381
▁whale	-10.6382
▁mis	-10.6383
▁propose	-10.6394
stein	-10.6418
▁resolv	-10.6436
dp	-10.6442
▁brun	-10.6448
▁introduc	-10.6461
▁garden	-10.6473
▁promotion	-10.6473
▁traffick	-10.6477
▁alex	-10.6498
▁restor	-10.6505
head	-10.6512
▁map	-10.6518
▁lobby	-10.6519
▁unrest	-10.6519
▁guerrilla	-10.652
▁quarterfinal	-10.652
▁transaction	-10.652
▁creature	-10.652
▁tunnel	-10.652
▁checkpoint	-10.652
▁rifle	-10.652
▁consequence	-10.652
▁donald	-10.652
▁impossible	-10.652
▁davis	-10.6523
▁roof	-10.6524
▁residence	-10.6529
▁teens	-10.6533
▁fleet	-10.6546
▁confrontation	-10.6558
nancy	-10.6564
▁crush	-10.6569
▁larr	-10.6571
▁revenue	-10.6573
▁sam	-10.6573
▁manage	-10.6577
▁anticipat	-10.6582
▁wheel	-10.6588
▁lea	-10.6588
▁securit	-10.6593
▁rd	-10.66
▁robber	-10.6601
▁hunter	-10.6609
gi	-10.661
▁sung	-10.6613
▁andrew	-10.6623
▁chant	-10.6634
zo	-10.6639
istan	-10.6657
▁lend	-10.6659
▁sand	-10.6659
▁si	-10.6664
▁towns	-10.6671
▁gambar	-10.6684
▁prior	-10.6692
▁lanka	-10.6693
▁starr	-10.6695
▁yo	-10.671
▁exposure	-10.6712
▁relocation	-10.6713
▁strategic	-10.6713
▁greenhouse	-10.6713
▁curb	-10.6713
▁doors	-10.6718
▁missou	-10.6719
▁phila	-10.672
▁stroke	-10.6722
mbled	-10.6723
▁ignor	-10.6733
▁yong	-10.6735
▁virgin	-10.6736
▁giv	-10.674
▁offender	-10.6745
▁electronics	-10.6745
▁villa	-10.6754
▁jon	-10.6762
▁worsen	-10.6768
▁rac	-10.6771
clusive	-10.6772
▁concept	-10.6772
▁household	-10.6776
▁breach	-10.678
▁undermine	-10.6791
▁tension	-10.6792
▁mi	-10.6795
▁intention	-10.6797
▁warner	-10.6799
▁divid	-10.6806
▁moral	-10.6815
▁fo	-10.6816
▁ousted	-10.6822
▁banner	-10.6822
▁advi	-10.6829
▁beer	-10.6832
▁criticize	-10.6833
▁legs	-10.6834
▁inspir	-10.6842
▁phase	-10.6843
▁liquid	-10.6848
▁hitt	-10.6856
▁pray	-10.6857
tar	-10.6859
▁impose	-10.6862
▁documentar	-10.6873
▁whit	-10.6886
▁mont	-10.6894
▁del	-10.6896
losi	-10.6901
cation	-10.6906
▁dictator	-10.6908
▁hybrid	-10.6908
▁minimum	-10.6908
▁qualify	-10.6908
▁administrative	-10.6908
▁merkel	-10.6908
▁technique	-10.6908
▁swimming	-10.6908
▁eve	-10.6908
▁hamid	-10.6908
▁panama	-10.6908
▁abortion	-10.6908
▁mohammad	-10.6909
▁alarm	-10.691
▁baseball	-10.6911
▁pattern	-10.6911
▁panda	-10.6911
▁respective	-10.6911
▁extraordinar	-10.6911
▁coca	-10.6912
▁timor	-10.6913
irai	-10.6913
▁dawn	-10.6913
▁runoff	-10.6916
▁centre	-10.6922
▁deadlie	-10.6923
▁please	-10.6934
▁pla	-10.6938
▁overcom	-10.6939
▁fever	-10.6941
▁ja	-10.6944
▁polan	-10.6956
▁colon	-10.6969
▁smash	-10.6973
▁trend	-10.6978
▁minorit	-10.6983
▁politician	-10.6984
rac	-10.6988
▁viewers	-10.7003
▁syrian	-10.7004
▁retailer	-10.7006
▁pat	-10.7013
▁quote	-10.7023
▁replac	-10.7024
▁hunting	-10.7025
▁upset	-10.7027
▁laugh	-10.7028
board	-10.7028
▁airports	-10.7032
▁dean	-10.7035
▁depressi	-10.7035
▁shell	-10.7038
▁golf	-10.7038
▁resist	-10.7047
ential	-10.7051
shore	-10.7053
ki	-10.7054
▁function	-10.706
▁plung	-10.7064
▁stick	-10.7065
▁mom	-10.7066
▁whales	-10.7072
▁submit	-10.7078
▁tropica	-10.7098
▁netherlands	-10.7108
▁giuli	-10.7108
▁testify	-10.7108
▁embryo	-10.7108
▁twenty	-10.7108
▁orlean	-10.7108
▁wildfire	-10.7108
▁slam	-10.7108
▁substance	-10.7109
▁newly	-10.7109
▁stuff	-10.7109
▁toilet	-10.7109
▁seattle	-10.7109
▁evacuation	-10.7109
▁amendment	-10.7109
▁duck	-10.711
▁greek	-10.711
▁wireless	-10.7111
▁serb	-10.7113
▁rodrigue	-10.7113
▁jungle	-10.7113
▁ioc	-10.7113
▁gear	-10.7116
▁freeze	-10.7121
▁emotional	-10.7121
▁portion	-10.7126
▁gray	-10.7128
▁hawk	-10.713
▁volunteers	-10.7134
oil	-10.7136
▁laid	-10.7138
▁gate	-10.7138
▁submitt	-10.7142
tion	-10.7145
▁compet	-10.7147
burg	-10.7154
▁murr	-10.7158
v	-10.7162
▁core	-10.7168
▁jo	-10.7191
▁laho	-10.7198
ated	-10.7203
▁breath	-10.7206
▁ambush	-10.7209
abee	-10.7217
▁rowl	-10.7221
▁amounts	-10.723
▁albert	-10.7231
▁plate	-10.7235
▁extremists	-10.7235
ball	-10.7247
▁shots	-10.7253
▁ok	-10.7275
▁revolution	-10.7301
▁latin	-10.7303
▁wal	-10.7304
▁mor	-10.7306
▁counsel	-10.7308
▁combin	-10.7309
held	-10.7311
▁detroit	-10.7312
▁aftershock	-10.7313
▁disappearance	-10.7314
▁launder	-10.7315
▁efficient	-10.7316
▁celebration	-10.732
burgh	-10.7321
▁yuan	-10.7324
▁trick	-10.7329
▁feed	-10.7332
▁leftist	-10.7333
▁icon	-10.7339
▁homeless	-10.7345
▁dec	-10.7348
▁rudd	-10.7358
▁euros	-10.7359
▁feb	-10.737
▁worry	-10.7385
▁nice	-10.739
▁bu	-10.7398
▁pav	-10.7399
▁nak	-10.7404
▁defending	-10.7415
que	-10.7416
▁attitude	-10.7416
▁endur	-10.7421
half	-10.7423
east	-10.7443
▁denounc	-10.7459
identified	-10.7459
▁mall	-10.746
▁wrapp	-10.7462
▁ir	-10.7482
▁flat	-10.7506
▁cheap	-10.7511
▁kuwait	-10.7511
▁isolat	-10.7512
▁anchor	-10.7516
▁infant	-10.752
▁luxur	-10.752
▁encounter	-10.752
▁relax	-10.752
▁swift	-10.752
▁capitol	-10.752
▁cigarette	-10.752
▁spiritual	-10.752
▁constant	-10.752
▁summon	-10.7521
▁fulfill	-10.7521
▁obligation	-10.7521
▁timetable	-10.7523
▁houston	-10.7523
▁bankruptcy	-10.7524
▁reward	-10.7526
▁inquest	-10.7527
▁maria	-10.7527
▁influ	-10.7528
▁meat	-10.7528
▁fin	-10.7534
▁revive	-10.754
▁spa	-10.7542
▁stag	-10.755
▁rum	-10.7551
▁simon	-10.7554
ze	-10.7558
▁shoulder	-10.7571
led	-10.7573
▁cartoon	-10.7573
▁shi	-10.7575
▁eric	-10.7581
ella	-10.7597
▁sao	-10.7597
▁winners	-10.7599
be	-10.7603
▁coal	-10.7604
▁bribe	-10.7613
▁faction	-10.7615
▁attach	-10.7623
▁bang	-10.7624
▁tale	-10.7626
▁investigations	-10.7637
▁sons	-10.7653
▁dat	-10.7658
standing	-10.7668
opec	-10.767
▁dry	-10.7701
▁cleve	-10.7723
▁semifinal	-10.7731
▁enterprise	-10.7733
▁voluntar	-10.7733
▁elephant	-10.7733
▁belief	-10.7733
▁offense	-10.7733
▁landmark	-10.7733
▁blanket	-10.7733
▁terminal	-10.7734
▁competitive	-10.7734
▁barbara	-10.7734
▁hint	-10.7734
▁priest	-10.7736
▁arabic	-10.774
▁compromise	-10.774
▁keb	-10.7742
▁granted	-10.7748
▁torn	-10.7752
▁presumpti	-10.7755
▁sin	-10.7755
▁pour	-10.7756
arctic	-10.7757
▁universal	-10.7758
▁shara	-10.7759
▁kansa	-10.7767
▁dop	-10.7769
▁escap	-10.7771
▁wales	-10.7776
sfeld	-10.7777
▁designer	-10.7777
dc	-10.7779
▁fi	-10.7781
▁execut	-10.7783
▁locate	-10.7785
▁flags	-10.7785
▁disclose	-10.7787
▁detainees	-10.7788
long	-10.7795
▁expos	-10.7797
▁peer	-10.7803
▁lion	-10.7806
▁uni	-10.7815
▁burst	-10.7832
uri	-10.7839
▁capabilit	-10.7857
▁advisor	-10.7864
▁trained	-10.7865
▁slamm	-10.7867
▁tay	-10.7871
▁kath	-10.7877
ov	-10.7878
hdi	-10.7881
▁cooper	-10.7886
▁habitat	-10.7896
▁decisions	-10.7899
▁gu	-10.7904
▁soo	-10.7908
the	-10.7912
▁apologiz	-10.7922
▁distribut	-10.7922
▁mandat	-10.7923
▁iron	-10.7924
▁hir	-10.7926
▁yel	-10.7927
wright	-10.7931
▁desire	-10.7942
▁confront	-10.7947
▁follower	-10.7949
▁consecutive	-10.7951
▁precaution	-10.7951
▁technologies	-10.7951
▁expansion	-10.7951
▁mortar	-10.7951
▁salmon	-10.7951
▁vitamin	-10.7951
ko	-10.7951
▁ballistic	-10.7952
▁suspicious	-10.7952
▁colonial	-10.7952
▁bei	-10.7953
▁tragedy	-10.7953
▁medication	-10.7953
▁prominent	-10.7954
▁turm	-10.7958
▁musician	-10.7958
▁thin	-10.7958
▁load	-10.7961
▁pole	-10.797
▁instance	-10.7974
▁dominate	-10.7977
ehouse	-10.7983
lum	-10.7984
▁chole	-10.7988
do	-10.7989
▁bars	-10.8008
▁gm	-10.8009
izu	-10.8018
▁pun	-10.802
▁ni	-10.8021
nnan	-10.8033
▁holder	-10.8069
▁discover	-10.8072
▁equit	-10.8079
sh	-10.8081
eva	-10.8081
iro	-10.8099
▁centur	-10.8108
precedent	-10.8109
▁lo	-10.8111
▁hasn	-10.8122
▁theft	-10.8125
▁demonstrate	-10.8129
▁breed	-10.8155
▁woods	-10.8156
▁industri	-10.8166
▁prohibit	-10.8167
▁reduc	-10.8168
▁deficit	-10.8173
▁disorder	-10.8173
▁ecuador	-10.8173
▁transplant	-10.8173
▁evolution	-10.8173
▁chapter	-10.8173
▁clinch	-10.8173
▁inauguration	-10.8173
▁admission	-10.8173
▁tornado	-10.8173
▁dissident	-10.8174
▁drill	-10.8174
▁gyeong	-10.8175
▁urgent	-10.8175
▁uncover	-10.8175
▁insult	-10.8176
▁empty	-10.8178
▁sweden	-10.8179
▁insurgenc	-10.818
▁amazon	-10.8181
▁proof	-10.8183
▁spray	-10.8184
▁ambition	-10.8186
▁exhibit	-10.8191
tsin	-10.8194
drew	-10.82
▁malaysian	-10.8208
▁proceedings	-10.8215
▁adam	-10.822
▁sang	-10.8224
▁scheme	-10.8229
▁cards	-10.8231
▁dominat	-10.8231
▁characters	-10.8239
▁ramo	-10.8241
cia	-10.8256
▁drawing	-10.8262
▁employment	-10.8263
▁geologic	-10.8264
ok	-10.8268
▁frontier	-10.8271
ors	-10.828
▁ron	-10.8292
▁passport	-10.8298
▁cooperate	-10.8304
▁circle	-10.8309
rut	-10.8309
▁libert	-10.8311
▁indicted	-10.8314
▁inde	-10.832
ius	-10.8321
▁mountains	-10.8321
▁vessels	-10.8326
▁oversee	-10.833
▁deliberate	-10.8344
▁stead	-10.8368
ological	-10.8383
▁diploma	-10.8383
▁denucleariz	-10.8384
▁lin	-10.8391
▁mart	-10.8391
▁yemen	-10.8394
▁confess	-10.8396
ek	-10.8399
▁concession	-10.84
▁genocid	-10.84
▁religion	-10.84
▁tabloid	-10.84
▁extensive	-10.84
▁telescope	-10.84
▁evil	-10.84
▁definite	-10.84
▁lewis	-10.84
▁pipeline	-10.8401
kovic	-10.8401
▁unfair	-10.8401
▁kanda	-10.8401
iscons	-10.8402
▁ibrahim	-10.8402
▁sight	-10.8402
▁tribute	-10.8403
▁chamber	-10.8405
▁hide	-10.8406
▁gerr	-10.8407
▁statue	-10.8407
▁creation	-10.841
▁background	-10.8413
ila	-10.8417
▁mac	-10.8418
▁dad	-10.842
▁loud	-10.842
▁milk	-10.842
▁happening	-10.8426
▁occasion	-10.8428
▁personally	-10.8445
▁suggestion	-10.8446
▁publication	-10.8451
viation	-10.8452
▁models	-10.8462
▁diya	-10.8462
▁visibl	-10.8462
▁motors	-10.8467
▁pool	-10.8469
▁ruler	-10.8476
lated	-10.8477
▁z	-10.8485
▁pointed	-10.8501
line	-10.8505
▁rodd	-10.8506
▁canal	-10.8509
▁impo	-10.8521
▁stepping	-10.8528
▁mer	-10.8537
▁principle	-10.8539
▁welcom	-10.8542
sul	-10.8548
▁fake	-10.8549
▁decid	-10.8551
▁clip	-10.8555
▁regret	-10.8559
▁tower	-10.856
et	-10.8561
▁permissi	-10.8584
▁flower	-10.8596
ison	-10.8603
▁occur	-10.8612
▁teenage	-10.8617
▁grab	-10.862
▁blog	-10.8626
▁wrap	-10.8627
▁reverse	-10.8628
▁ambulance	-10.8633
▁migrant	-10.8633
▁pepper	-10.8633
▁instant	-10.8633
▁jolie	-10.8633
▁suspension	-10.8633
▁lord	-10.8634
▁gaz	-10.8634
▁exclusive	-10.8634
▁consistent	-10.8635
▁snake	-10.8636
▁rebound	-10.8637
▁recommendation	-10.8637
▁dragg	-10.8638
▁replacement	-10.8644
▁grass	-10.8644
ntao	-10.8645
▁persuade	-10.8657
▁contractor	-10.8661
▁masters	-10.8676
▁escalat	-10.8691
▁trace	-10.8704
▁kyu	-10.8707
▁ahmad	-10.8711
▁pm	-10.8712
oding	-10.872
▁pan	-10.8729
▁rains	-10.8742
▁tomb	-10.8744
▁strand	-10.8746
▁automaker	-10.8782
ppp	-10.8783
▁ch	-10.8784
▁tickets	-10.8785
omar	-10.879
▁recognized	-10.8803
▁joy	-10.8805
▁crossing	-10.8841
▁philip	-10.8845
▁ker	-10.8846
dev	-10.8848
▁berna	-10.8851
▁nigeria	-10.8852
verish	-10.8859
▁thick	-10.886
▁primari	-10.8862
▁interpret	-10.8868
▁pilgrim	-10.8869
▁consensu	-10.8871
▁embarrass	-10.8871
▁predecessor	-10.8871
▁tissue	-10.8871
▁unacceptabl	-10.8871
▁volume	-10.8871
▁prosper	-10.8871
▁fault	-10.8871
▁destination	-10.8871
▁zawah	-10.8871
▁idol	-10.8872
▁download	-10.8872
▁katrin	-10.8872
▁partnership	-10.8873
▁respondent	-10.8873
▁possession	-10.8873
▁guideline	-10.8874
▁puert	-10.8875
▁resistance	-10.8875
▁contribution	-10.8875
▁occupie	-10.8876
▁emirate	-10.8877
▁everywhere	-10.8877
▁brigade	-10.8878
▁au	-10.8878
▁imagine	-10.8883
▁grenade	-10.8891
gt	-10.8894
▁tho	-10.8895
em	-10.89
▁pen	-10.8901
▁publisher	-10.8903
▁rent	-10.8914
ament	-10.8915
▁kitt	-10.8919
▁stream	-10.892
▁taxi	-10.8923
arachi	-10.8924
▁harv	-10.8924
▁sheet	-10.8931
▁goalkeep	-10.8941
her	-10.8942
▁exploit	-10.8945
▁plent	-10.8945
nke	-10.8951
▁secur	-10.8954
▁proceed	-10.8969
▁riding	-10.8978
▁universit	-10.8982
▁nazi	-10.8983
▁expire	-10.9015
pol	-10.903
fk	-10.9052
▁compare	-10.9055
▁hike	-10.9057
▁polluti	-10.9071
▁transform	-10.9089
hook	-10.9093
▁rivers	-10.9098
▁chip	-10.9102
▁yu	-10.9104
ucky	-10.9109
▁component	-10.9115
▁infrastructure	-10.9115
▁judiciar	-10.9115
▁oklahoma	-10.9115
▁skull	-10.9115
▁absence	-10.9115
▁videotape	-10.9115
▁vermont	-10.9115
▁extension	-10.9115
▁autonom	-10.9115
▁craig	-10.9115
▁incredibl	-10.9115
▁steep	-10.9115
▁entrance	-10.9115
▁overturn	-10.9115
▁desperate	-10.9115
▁interrogation	-10.9116
▁grace	-10.9118
▁outlook	-10.9119
▁kyung	-10.9122
▁ph	-10.9127
▁vien	-10.9128
▁torre	-10.9129
▁charter	-10.913
▁silence	-10.9134
sen	-10.9135
▁galaxy	-10.9136
▁dirt	-10.9138
▁plays	-10.9138
▁touris	-10.9141
▁mon	-10.9141
▁factors	-10.915
▁qu	-10.9159
min	-10.9167
▁mu	-10.9167
▁marking	-10.9174
dari	-10.9179
▁procedures	-10.9182
▁matters	-10.9182
der	-10.9197
▁pleas	-10.9207
bama	-10.9212
▁recording	-10.9217
▁lender	-10.9222
li	-10.9226
▁fred	-10.9254
▁hwa	-10.9263
▁nin	-10.927
▁classe	-10.9277
▁chase	-10.9282
math	-10.9285
▁sp	-10.9291
me	-10.9296
▁victoria	-10.9296
▁vision	-10.9303
▁hidd	-10.9308
ba	-10.9312
▁chancell	-10.9316
▁der	-10.9326
▁richards	-10.9328
▁telecom	-10.9361
▁depart	-10.9362
▁fundamental	-10.9362
judicial	-10.9364
▁afr	-10.9364
refore	-10.9365
▁superior	-10.9365
▁spaniard	-10.9365
▁maritime	-10.9365
▁economies	-10.9365
▁balloon	-10.9365
▁drown	-10.9365
▁wilson	-10.9365
▁chicken	-10.9366
▁shutdown	-10.9366
▁archaeologist	-10.9366
fer	-10.9366
▁honest	-10.9366
▁graham	-10.9367
▁midfielder	-10.9368
▁brick	-10.9368
▁endorsement	-10.9368
▁principal	-10.9369
▁pardon	-10.9369
▁steal	-10.9371
▁ahmed	-10.9372
▁legitimate	-10.9372
lets	-10.9376
▁statistics	-10.9378
▁walter	-10.9378
▁airplane	-10.938
▁commuter	-10.938
▁nair	-10.9384
▁afterward	-10.9386
▁melt	-10.9407
▁partial	-10.9408
▁bloom	-10.9415
indi	-10.9417
▁plea	-10.9418
▁clay	-10.9421
▁habit	-10.9429
obi	-10.9434
harto	-10.944
▁mask	-10.9469
▁dropping	-10.9469
▁brook	-10.9469
▁guan	-10.9474
▁headline	-10.948
▁examin	-10.9485
tada	-10.9518
▁sec	-10.9522
▁bow	-10.9529
pov	-10.9531
cut	-10.9532
ova	-10.9534
▁knight	-10.9537
▁orchestra	-10.9538
▁vaccine	-10.9547
▁abduction	-10.9547
▁massacre	-10.9548
▁univers	-10.9549
▁ke	-10.955
ell	-10.9551
▁nicole	-10.9551
▁infection	-10.9553
▁opponent	-10.9554
▁philippine	-10.9554
▁ju	-10.9554
▁procedure	-10.9555
▁kidnapp	-10.9568
▁cart	-10.9576
ean	-10.9581
▁achiev	-10.9591
▁manufacturers	-10.9593
▁violate	-10.9596
▁oct	-10.961
▁vulnerab	-10.9612
▁analysi	-10.9615
▁marathon	-10.9621
▁taxpayer	-10.9621
▁unexpected	-10.9621
▁volatil	-10.9621
▁legislature	-10.9621
▁bargain	-10.9621
▁gradual	-10.9621
▁monarch	-10.9621
▁enormous	-10.9621
▁distress	-10.9621
▁regain	-10.9621
▁mirror	-10.9622
▁biologist	-10.9622
▁expell	-10.9623
▁toyota	-10.9623
▁descend	-10.9623
▁height	-10.9624
▁burden	-10.9624
▁mrs	-10.9624
▁guild	-10.9625
▁poison	-10.9625
▁myspace	-10.9625
▁iphone	-10.9626
▁remarkable	-10.963
▁distribution	-10.9631
▁landscape	-10.9634
▁burial	-10.9638
▁filmmaker	-10.9638
▁victor	-10.9643
▁confirmation	-10.9644
▁endorse	-10.9646
▁astronomer	-10.9647
▁libyan	-10.9647
▁shake	-10.965
ari	-10.965
▁rad	-10.9658
▁theme	-10.9663
▁magic	-10.9663
▁plunge	-10.9679
tic	-10.9682
▁raped	-10.969
▁tanker	-10.9692
▁bacteria	-10.9701
▁nurse	-10.9704
ioxid	-10.971
most	-10.9716
▁abuses	-10.9736
phy	-10.9741
▁chan	-10.9751
▁bal	-10.9752
ino	-10.9754
tarian	-10.9759
▁deals	-10.9765
▁dismantl	-10.9767
▁predict	-10.9775
▁skills	-10.9792
▁roma	-10.9793
kara	-10.9795
▁ram	-10.9797
▁launching	-10.9798
▁button	-10.9798
▁christ	-10.98
▁mere	-10.9822
latter	-10.9826
▁clo	-10.9827
▁activist	-10.9827
▁emerg	-10.983
not	-10.9839
ware	-10.9843
▁contribut	-10.9846
▁preserve	-10.9849
▁glas	-10.9852
iest	-10.9857
▁uganda	-10.9864
▁craft	-10.9867
▁cape	-10.988
▁oxygen	-10.9884
▁dolphin	-10.9884
▁surprising	-10.9884
▁thirty	-10.9884
▁composite	-10.9884
▁campbell	-10.9884
▁registration	-10.9885
▁teeth	-10.9885
▁statistical	-10.9886
▁guang	-10.9886
▁combination	-10.9887
▁unique	-10.9887
▁pronounce	-10.9888
▁gender	-10.9889
▁pig	-10.989
▁pornograph	-10.9892
▁passage	-10.9892
▁coverage	-10.9895
▁closure	-10.9897
▁miller	-10.9898
▁mice	-10.99
sburg	-10.9904
col	-10.9908
▁medic	-10.9908
▁deepen	-10.9914
▁refusal	-10.9915
onna	-10.9917
▁embrace	-10.9918
▁serbian	-10.9921
▁hye	-10.9923
anamo	-10.9926
▁decrease	-10.9931
▁inmate	-10.9939
▁clue	-10.9941
▁rob	-10.9957
▁determin	-10.9959
▁hiding	-10.996
▁belgi	-10.9961
▁penn	-10.9962
▁cats	-10.9979
▁broker	-10.998
▁eggs	-10.9982
▁killer	-10.9983
▁tent	-10.9989
▁principles	-10.9992
▁zoe	-10.9992
▁jay	-10.9993
ad	-11
▁covering	-11.0009
▁comfortabl	-11.0026
▁sevill	-11.0035
▁dy	-11.0039
▁wash	-11.0046
▁ala	-11.0057
▁turns	-11.0058
▁forget	-11.0061
ev	-11.0065
▁discount	-11.0071
ington	-11.0074
▁bb	-11.0077
▁phil	-11.0084
▁harris	-11.0092
▁mud	-11.0096
▁prais	-11.01
▁amaz	-11.0101
vili	-11.0102
▁mistakes	-11.0102
mond	-11.0103
bow	-11.011
▁challeng	-11.0123
▁jets	-11.0124
▁dealers	-11.0126
▁repeat	-11.0131
▁accidental	-11.0133
▁endors	-11.0135
teen	-11.0136
▁fatalit	-11.0136
▁theory	-11.0136
▁prov	-11.0142
ou	-11.015
▁parade	-11.0154
▁benjamin	-11.0154
▁curfew	-11.0154
▁indefinite	-11.0154
▁coincide	-11.0154
▁beautiful	-11.0154
▁escort	-11.0154
▁retreat	-11.0155
▁harbor	-11.0155
▁gunshot	-11.0155
▁prestig	-11.0155
▁talent	-11.0155
▁probation	-11.0155
▁reopen	-11.0156
▁slip	-11.0156
▁installation	-11.0157
▁examination	-11.0157
▁manipulation	-11.0157
ral	-11.0158
▁audio	-11.0158
remlin	-11.0159
▁romantic	-11.016
▁albanian	-11.0161
▁guess	-11.0161
▁engagement	-11.0162
▁ferg	-11.0165
▁jobless	-11.0167
▁gesture	-11.0167
▁brian	-11.0167
▁em	-11.0168
▁subway	-11.0169
▁smart	-11.017
▁selection	-11.0172
▁publicist	-11.0174
▁finger	-11.0178
▁alan	-11.0183
▁master	-11.0185
ebay	-11.0186
▁minne	-11.0198
▁dallas	-11.0205
▁refuge	-11.0209
inho	-11.0216
▁elaborate	-11.0228
▁armor	-11.0236
liberation	-11.0236
▁arrang	-11.0244
▁fift	-11.025
▁bears	-11.025
▁sink	-11.025
ribe	-11.0251
▁update	-11.0252
▁joke	-11.0258
▁shap	-11.0265
▁thus	-11.0299
med	-11.0303
▁fare	-11.0306
▁unna	-11.031
▁jewel	-11.0311
▁wav	-11.0311
ked	-11.0313
ugher	-11.0323
▁displac	-11.0332
sley	-11.0336
▁hindu	-11.0353
▁venture	-11.0359
▁remark	-11.0366
▁suk	-11.037
▁ranch	-11.0371
▁swor	-11.0373
▁mir	-11.0374
ishu	-11.0375
▁tip	-11.038
▁admit	-11.0381
▁complicat	-11.0395
som	-11.0402
▁permit	-11.0402
▁rigg	-11.0404
▁portray	-11.0425
▁sect	-11.043
▁comprehensive	-11.0432
▁encouraging	-11.0432
▁expense	-11.0432
▁cautious	-11.0432
▁oregon	-11.0432
▁aspect	-11.0432
▁intervention	-11.0432
▁casino	-11.0432
▁prophet	-11.0432
▁optimistic	-11.0433
▁unanimous	-11.0433
▁unpopular	-11.0433
▁elevator	-11.0433
▁mutual	-11.0433
▁pyeong	-11.0433
▁mercur	-11.0433
▁ibm	-11.0434
▁prolong	-11.0434
▁yield	-11.0435
▁moga	-11.0436
▁mood	-11.0437
▁comply	-11.0437
▁objective	-11.0441
▁castle	-11.0441
▁silver	-11.0445
▁attraction	-11.0452
▁plac	-11.0458
▁kaes	-11.046
▁yourself	-11.0461
▁manner	-11.0464
▁revis	-11.0465
if	-11.0469
▁luis	-11.0471
▁harr	-11.0485
ably	-11.0499
▁panic	-11.0501
▁troubl	-11.0519
▁atlant	-11.0519
▁taste	-11.0522
▁sha	-11.0528
orry	-11.0536
▁defender	-11.0536
▁scrap	-11.0539
▁te	-11.054
▁forecaster	-11.0542
▁micro	-11.0547
▁lunch	-11.0554
▁cult	-11.0566
▁bhut	-11.057
▁argentine	-11.0576
▁prostitute	-11.0577
▁defin	-11.0578
athrow	-11.0578
▁fence	-11.0589
▁diseases	-11.0615
nell	-11.0621
▁kun	-11.0631
stone	-11.0635
▁reiterat	-11.0638
▁eas	-11.0646
▁radi	-11.0647
▁swing	-11.0651
▁bur	-11.0652
▁sept	-11.0653
▁usa	-11.0662
▁twist	-11.0669
▁nov	-11.0672
▁posting	-11.0674
▁volunteer	-11.0681
▁shah	-11.0682
space	-11.0684
▁argument	-11.0688
▁rev	-11.0688
▁ag	-11.0691
▁matt	-11.0696
ullah	-11.0696
▁ratings	-11.0701
▁branch	-11.0707
▁linds	-11.0707
▁deteriorat	-11.0707
prom	-11.0711
▁financ	-11.0712
com	-11.0714
▁consum	-11.0714
▁adjust	-11.0715
▁danc	-11.0717
▁asteroid	-11.0718
▁crocodile	-11.0718
▁episode	-11.0718
▁incumbent	-11.0718
▁citigroup	-11.0718
▁dinosaur	-11.0718
▁crocker	-11.0718
▁eager	-11.0718
▁eligib	-11.0718
▁reputation	-11.0718
▁surf	-11.0718
▁reconstruction	-11.0719
▁mammal	-11.0719
▁basket	-11.0719
▁pirac	-11.0719
▁kidney	-11.072
▁acid	-11.072
ronto	-11.072
▁extinction	-11.0721
▁proliferat	-11.0723
▁bahama	-11.0723
▁captor	-11.0723
▁disruption	-11.0726
▁grabb	-11.0735
▁circulat	-11.0736
▁observation	-11.0741
▁juan	-11.0743
▁tries	-11.0748
▁ku	-11.0755
mo	-11.0761
dong	-11.0775
▁amy	-11.0775
▁teaching	-11.078
il	-11.0781
▁cheong	-11.0783
▁chat	-11.0788
▁opposit	-11.0794
ade	-11.0815
▁fe	-11.0827
ka	-11.0829
awat	-11.0835
▁mc	-11.0839
▁examine	-11.0847
egger	-11.0847
▁nose	-11.0849
▁hol	-11.0849
▁fisher	-11.0857
▁wo	-11.0858
▁intervene	-11.0863
elite	-11.0864
ago	-11.0871
going	-11.0877
▁ideal	-11.0883
ward	-11.0886
▁burm	-11.0895
▁ac	-11.0895
▁hostil	-11.0907
▁explode	-11.0913
▁purchas	-11.0913
▁hanging	-11.0931
▁br	-11.0931
▁wu	-11.0932
▁signing	-11.0939
sky	-11.0944
▁user	-11.0948
stream	-11.0949
prime	-11.0951
▁presum	-11.0968
nba	-11.0976
▁gift	-11.098
▁alli	-11.0982
▁reviv	-11.0985
ampa	-11.0989
went	-11.0992
front	-11.0993
▁connecti	-11.1004
▁pitts	-11.1008
▁spectac	-11.1011
▁counterfeit	-11.1012
▁greenpeace	-11.1012
▁schwarz	-11.1012
▁shrink	-11.1012
▁dakota	-11.1012
▁motorcycle	-11.1012
▁ultra	-11.1012
▁carpet	-11.1012
▁slogan	-11.1012
▁bolster	-11.1012
▁epicenter	-11.1012
▁twel	-11.1013
▁approximate	-11.1013
▁bedroom	-11.1013
droe	-11.1013
▁motive	-11.1013
▁deadlock	-11.1013
▁tripoli	-11.1013
▁rhetoric	-11.1013
▁strategist	-11.1013
▁borrow	-11.1013
▁zap	-11.1014
▁foster	-11.1014
▁assess	-11.1014
oprah	-11.1016
▁ripp	-11.1016
my	-11.1016
▁detective	-11.1017
▁survival	-11.1017
▁fertil	-11.1018
mpson	-11.1023
▁alien	-11.1026
▁ivor	-11.1028
fire	-11.1028
▁requirement	-11.1031
▁rawal	-11.1033
▁spur	-11.1034
▁recycl	-11.1035
▁ear	-11.1037
▁personalit	-11.1039
▁useful	-11.1039
▁pollut	-11.1041
▁tea	-11.1042
▁ignore	-11.1046
▁automatic	-11.1047
▁slaughter	-11.1047
▁boxes	-11.1049
▁smil	-11.1052
▁brave	-11.1053
▁atlanti	-11.1061
▁marry	-11.1061
olla	-11.1062
▁academic	-11.1065
▁publish	-11.1084
won	-11.1088
▁coin	-11.1088
▁allen	-11.1093
▁pure	-11.1094
▁christians	-11.1117
▁install	-11.1119
nt	-11.1122
▁challenger	-11.1122
▁indict	-11.1126
▁dismantle	-11.1144
▁rocky	-11.1155
▁ads	-11.1158
▁nationalist	-11.1164
▁enable	-11.1172
▁hire	-11.118
▁tighten	-11.1187
▁sat	-11.1197
cher	-11.1208
rry	-11.121
▁contenders	-11.1214
▁posts	-11.1216
▁patriot	-11.1221
port	-11.1231
▁tai	-11.1238
tt	-11.1239
cheon	-11.1239
▁minds	-11.124
fall	-11.1252
piece	-11.1254
▁tears	-11.1256
person	-11.1256
▁rash	-11.1264
▁populat	-11.1265
▁tactic	-11.1285
ood	-11.1291
▁cambodia	-11.1296
▁hud	-11.1298
▁opt	-11.13
band	-11.13
fish	-11.1303
▁widen	-11.1304
▁antarctic	-11.1305
▁accompani	-11.1307
▁musa	-11.1309
▁shak	-11.1313
▁accompany	-11.1315
▁equivalent	-11.1315
▁imminent	-11.1315
▁instrument	-11.1315
▁sprawl	-11.1315
▁denmark	-11.1315
▁incentive	-11.1315
▁incursion	-11.1315
▁strait	-11.1315
▁loot	-11.1315
▁confine	-11.1316
▁saint	-11.1316
▁excessive	-11.1316
▁pension	-11.1316
▁outdoor	-11.1316
▁classroom	-11.1317
▁broadway	-11.1317
▁bernard	-11.1319
▁revision	-11.1321
▁serge	-11.1321
▁bruce	-11.1324
▁utilit	-11.1324
▁divert	-11.1325
▁pregnancy	-11.1327
▁ethiopian	-11.1327
▁branches	-11.1328
▁anybody	-11.1328
▁freez	-11.1329
▁assume	-11.1353
▁limb	-11.1359
▁worri	-11.1361
▁nikk	-11.1364
tified	-11.138
▁shouted	-11.1384
▁noon	-11.1386
▁bold	-11.1389
▁tap	-11.1393
▁lane	-11.1402
▁mas	-11.1407
▁eliminat	-11.1411
▁slide	-11.1418
▁interviewed	-11.1426
▁automakers	-11.143
▁winf	-11.1439
▁deposit	-11.145
au	-11.1459
▁experienc	-11.147
▁stalin	-11.1477
rmed	-11.1477
ves	-11.1482
▁slum	-11.1489
▁parker	-11.149
bo	-11.1496
awi	-11.15
▁therap	-11.1503
▁hack	-11.1509
▁installed	-11.1511
yodo	-11.1527
▁scrambl	-11.1551
▁racial	-11.1554
skirt	-11.1562
▁rid	-11.1568
▁advanc	-11.1588
ega	-11.1589
ul	-11.159
care	-11.1601
▁remind	-11.1603
▁billionaire	-11.1605
▁prefer	-11.1607
▁sympath	-11.1608
▁mp	-11.1616
▁depict	-11.1623
▁tr	-11.1623
▁disagree	-11.1625
▁hip	-11.1625
▁adapt	-11.1626
▁applications	-11.1627
▁caribbean	-11.1628
▁invitation	-11.1628
▁mammoth	-11.1628
▁overhaul	-11.1628
▁pichushkin	-11.1628
▁revenge	-11.1628
▁unsuccessful	-11.1628
▁wrongdoing	-11.1628
▁crunch	-11.1628
▁administrator	-11.1628
▁animated	-11.1628
▁cardinal	-11.1628
▁expedition	-11.1628
▁anonymous	-11.1628
▁stronghold	-11.1628
▁abolish	-11.1629
akash	-11.1629
▁legislator	-11.163
▁haul	-11.163
▁candidacy	-11.1631
▁spell	-11.1631
▁assertion	-11.1633
▁achievement	-11.1635
▁ambitio	-11.1635
▁pride	-11.1638
residential	-11.1639
zhei	-11.164
▁eruption	-11.164
horta	-11.1641
▁starts	-11.1641
lmand	-11.1641
▁mumm	-11.1648
▁hometown	-11.1651
▁yasu	-11.1662
▁surgeon	-11.1663
▁phenomen	-11.1664
▁intent	-11.1667
▁shooter	-11.1668
▁consideration	-11.1668
▁petrole	-11.1669
▁aig	-11.1673
▁leap	-11.1676
▁geu	-11.168
▁assured	-11.1684
room	-11.1687
▁ri	-11.1694
▁advocate	-11.1698
▁deck	-11.1711
▁topic	-11.1712
ron	-11.1723
▁expanding	-11.1723
▁inspire	-11.1723
▁tae	-11.1724
▁amin	-11.1732
▁returns	-11.1738
▁bonds	-11.1742
mura	-11.1742
▁lesson	-11.1745
wear	-11.1765
▁ab	-11.1766
▁exporter	-11.1772
ible	-11.1773
▁luc	-11.1777
▁retire	-11.1783
▁developer	-11.1785
ho	-11.1786
▁cole	-11.1792
▁menu	-11.1796
cef	-11.1803
▁opera	-11.1808
how	-11.1822
▁surpass	-11.1824
pa	-11.1828
▁stopp	-11.1837
overt	-11.184
bourne	-11.1841
▁eliminate	-11.1857
ster	-11.1858
world	-11.1858
tra	-11.1863
mann	-11.1863
▁springs	-11.1869
ver	-11.1877
▁hui	-11.1908
lisa	-11.1914
ida	-11.1918
▁canne	-11.1919
▁advise	-11.1925
▁ash	-11.1926
▁endeavo	-11.1931
▁digit	-11.1938
▁haiti	-11.1939
▁cyber	-11.1941
allah	-11.1942
▁surg	-11.1943
▁rove	-11.1944
cal	-11.1944
▁exam	-11.1946
▁extinct	-11.1946
children	-11.1948
▁mini	-11.195
▁explanation	-11.195
▁pyramid	-11.195
▁tragic	-11.195
▁aquarium	-11.195
▁anthem	-11.195
▁thorough	-11.195
▁depth	-11.195
▁fingerprint	-11.195
▁tumor	-11.195
▁crater	-11.195
▁lynch	-11.195
▁bathroom	-11.195
▁breakfast	-11.195
▁diabet	-11.195
▁boast	-11.1951
▁application	-11.1951
▁steam	-11.1951
▁physician	-11.1951
▁restart	-11.1951
▁random	-11.1951
▁echo	-11.1951
▁hamper	-11.1951
▁facebook	-11.1951
sterol	-11.1952
▁madoff	-11.1952
▁citizenship	-11.1952
▁rampage	-11.1952
▁pact	-11.1953
▁painful	-11.1953
▁hun	-11.1954
▁merger	-11.1955
▁gibbon	-11.1956
▁defector	-11.1957
▁drunk	-11.1961
▁belgian	-11.1962
ee	-11.1963
▁pad	-11.1965
▁wayne	-11.1965
▁operative	-11.1966
▁symptoms	-11.1967
▁defect	-11.1969
▁empir	-11.1971
▁jean	-11.1973
▁sack	-11.1975
▁cristian	-11.1979
▁provider	-11.198
▁ya	-11.1982
▁hearts	-11.1984
▁asset	-11.1986
▁arguments	-11.1995
ture	-11.1995
mao	-11.1996
▁archive	-11.1997
▁soul	-11.2
▁oust	-11.2004
▁luna	-11.2004
▁lucky	-11.2015
▁rada	-11.202
▁passes	-11.202
q	-11.2032
▁supplier	-11.2037
▁agreements	-11.2042
▁rider	-11.2049
▁attribut	-11.2052
ook	-11.2054
▁patroll	-11.2062
▁tala	-11.2062
▁beside	-11.2065
▁spare	-11.2066
abao	-11.2076
▁rings	-11.2078
▁shim	-11.2081
▁caps	-11.2081
▁sacrifice	-11.2082
▁sail	-11.2087
▁designat	-11.2092
▁dispos	-11.2099
lando	-11.2109
▁bath	-11.211
▁donations	-11.2124
ubble	-11.2131
▁resum	-11.2136
die	-11.2145
rotti	-11.216
▁happens	-11.2167
▁biolog	-11.2173
he	-11.2179
▁sum	-11.2186
mouth	-11.219
▁hate	-11.2191
▁anim	-11.22
tti	-11.2204
hou	-11.221
▁stewar	-11.2213
▁emi	-11.2232
▁provision	-11.2239
▁combine	-11.2248
▁cathedral	-11.2256
▁fif	-11.2257
▁designate	-11.2258
▁coat	-11.2258
▁measur	-11.2259
▁nur	-11.2263
▁thrill	-11.2269
tanbu	-11.2272
▁dun	-11.2276
fected	-11.2277
▁buzz	-11.2277
▁automobile	-11.2283
▁fossil	-11.2283
▁margaret	-11.2283
▁norwegian	-11.2283
▁shepherd	-11.2283
▁sophisticat	-11.2283
▁subsequent	-11.2283
▁verify	-11.2283
▁silent	-11.2284
▁hazard	-11.2284
▁nixon	-11.2284
▁mercedes	-11.2284
▁website	-11.2284
▁judgment	-11.2284
▁scatter	-11.2284
▁graphic	-11.2284
▁samarra	-11.2284
▁implication	-11.2285
▁tribunal	-11.2286
▁disagreement	-11.2287
▁quell	-11.2287
▁polish	-11.2287
▁equipp	-11.2287
▁tayyi	-11.2289
▁blitz	-11.2289
cious	-11.229
▁consultation	-11.2291
▁autops	-11.2291
▁warehouse	-11.2292
▁brush	-11.2292
▁modest	-11.2297
▁monkey	-11.2297
like	-11.2298
nold	-11.2298
▁wheat	-11.2299
▁edward	-11.2299
▁practical	-11.2302
▁fujimo	-11.2304
can	-11.2304
▁soft	-11.2304
▁lifetime	-11.2305
▁objection	-11.2305
▁assert	-11.2307
▁favorable	-11.2308
▁mccart	-11.231
▁mitt	-11.2312
▁belonging	-11.2313
▁cri	-11.2314
▁alter	-11.2316
our	-11.2316
▁denial	-11.2317
▁smuggling	-11.2319
▁donor	-11.232
▁fl	-11.2322
▁conscious	-11.2328
▁pf	-11.2334
▁knowing	-11.2334
▁shouting	-11.2338
▁plott	-11.2342
▁tips	-11.2343
bar	-11.2345
▁fisc	-11.235
▁shattered	-11.2353
▁projection	-11.2353
▁electrical	-11.2362
ich	-11.2372
▁cm	-11.2373
▁rely	-11.239
▁lit	-11.2392
apped	-11.2401
mon	-11.2402
▁laser	-11.2406
▁caucus	-11.2411
right	-11.2413
▁lov	-11.2425
▁generat	-11.2438
kat	-11.2442
wai	-11.2447
▁format	-11.2452
▁matsu	-11.2454
▁advis	-11.2456
▁nud	-11.246
▁cook	-11.2461
▁immun	-11.2462
▁slim	-11.2481
station	-11.2484
▁bind	-11.2488
▁grade	-11.2492
▁stones	-11.2507
▁smile	-11.2517
bani	-11.2525
▁formula	-11.2533
tuck	-11.2537
▁proto	-11.2543
▁communicate	-11.2553
▁bae	-11.2557
▁evacuate	-11.2562
gged	-11.2563
munition	-11.2565
▁mandate	-11.2573
▁battles	-11.2576
▁bel	-11.2582
▁futures	-11.2585
▁gus	-11.2588
▁med	-11.2588
▁aging	-11.2588
▁productiv	-11.2595
▁stripp	-11.2601
▁visual	-11.2603
▁widow	-11.2606
▁hi	-11.2607
▁sued	-11.2607
▁dedicat	-11.2619
▁fernand	-11.262
war	-11.2622
▁dance	-11.2622
ello	-11.2624
▁recogni	-11.2626
▁scream	-11.2626
▁triumph	-11.2628
▁disturb	-11.2628
elecommunication	-11.2628
▁artificial	-11.2628
▁automotive	-11.2628
▁consortium	-11.2628
▁nervous	-11.2628
▁substitute	-11.2628
▁swallow	-11.2628
▁blind	-11.2628
▁convey	-11.2628
▁consent	-11.2628
▁mitchell	-11.2628
▁throat	-11.2628
▁conceal	-11.2628
▁prescription	-11.2628
▁lieutenant	-11.2629
▁pursuit	-11.2629
▁layoff	-11.263
▁outpost	-11.2632
▁croatia	-11.2633
▁retirement	-11.2634
▁shopper	-11.2636
▁desk	-11.2638
▁atrocit	-11.2638
▁wazir	-11.264
quba	-11.2641
▁disabl	-11.2644
▁purported	-11.2645
▁coll	-11.2647
hy	-11.2647
▁sank	-11.2648
▁presentation	-11.2648
▁arti	-11.2653
▁horse	-11.2658
aro	-11.2661
▁om	-11.2664
▁sideline	-11.2665
▁supervisor	-11.2665
▁austrian	-11.2667
▁bron	-11.2667
▁intensifie	-11.2675
▁matte	-11.2681
▁keen	-11.2682
▁marie	-11.2682
try	-11.2687
▁ethical	-11.2689
gen	-11.2692
▁dave	-11.2693
▁screening	-11.2694
▁ak	-11.2695
pec	-11.2696
▁explained	-11.2699
▁yan	-11.2699
▁territories	-11.2701
▁strange	-11.2703
▁ethan	-11.2705
▁wang	-11.2706
▁tu	-11.271
▁stunning	-11.2712
▁bever	-11.2735
hip	-11.2738
llery	-11.2739
ke	-11.2745
▁cla	-11.275
▁sav	-11.2751
▁joon	-11.2758
ck	-11.2796
▁agenc	-11.2803
▁stabilize	-11.2807
▁pipe	-11.2809
raul	-11.282
▁punch	-11.2821
▁farms	-11.2831
russel	-11.2853
▁spots	-11.2863
▁slid	-11.2869
▁anna	-11.288
▁lance	-11.288
tage	-11.2882
▁lope	-11.289
▁congratulat	-11.2891
▁antho	-11.2893
▁briton	-11.2905
▁lure	-11.2921
▁bon	-11.2921
▁transit	-11.2928
stock	-11.2932
▁ethic	-11.2937
▁skeptic	-11.2938
teria	-11.2951
▁jam	-11.2961
▁loose	-11.2967
▁ward	-11.2973
▁kidnap	-11.2974
▁jihad	-11.2975
▁treasure	-11.2979
▁psycholog	-11.2985
lie	-11.2985
▁crystal	-11.2985
▁epidemic	-11.2985
▁okinawa	-11.2985
▁pistol	-11.2985
▁douglas	-11.2985
▁homosexual	-11.2985
▁ceiling	-11.2986
▁bishop	-11.2986
▁ankle	-11.2986
▁textbook	-11.2986
▁mcdonald	-11.2986
▁epic	-11.2986
▁nfl	-11.2986
▁predominant	-11.2986
▁dignity	-11.2986
▁evaluation	-11.2986
▁nelson	-11.2986
▁laureate	-11.2987
▁uprising	-11.2988
▁humor	-11.2988
▁ownership	-11.2988
▁deserve	-11.2991
▁aggression	-11.2991
▁hydro	-11.2991
▁hormone	-11.2992
▁jeong	-11.2992
gan	-11.2993
▁bryan	-11.2993
▁happiness	-11.2993
▁aziz	-11.2993
▁creative	-11.2994
▁fernando	-11.2994
▁susan	-11.2994
▁oak	-11.2995
▁legac	-11.3
▁impression	-11.3
▁acquire	-11.3001
▁steer	-11.3002
▁pink	-11.3004
▁greenland	-11.3005
▁removal	-11.301
▁passion	-11.3011
▁guin	-11.3011
aska	-11.3016
▁swed	-11.3016
iness	-11.3017
▁sprint	-11.302
▁drought	-11.3022
▁pastor	-11.3023
▁arena	-11.3023
▁pants	-11.3023
lene	-11.3027
▁beatles	-11.3029
away	-11.3034
▁jacque	-11.3036
▁expression	-11.3038
▁marc	-11.3049
▁ramp	-11.3049
ir	-11.3051
▁kell	-11.3052
penh	-11.3065
▁antibiotics	-11.3066
▁cage	-11.3068
▁christi	-11.3068
▁investments	-11.3068
▁embezzle	-11.3068
▁shia	-11.3071
▁clos	-11.3079
works	-11.3084
nebr	-11.3085
▁dar	-11.3087
▁inner	-11.3088
▁rating	-11.3089
cantil	-11.3104
▁hijack	-11.3123
ego	-11.3124
▁ken	-11.3126
▁lu	-11.3135
air	-11.3145
lo	-11.3152
▁tumbl	-11.3161
▁jaz	-11.3163
▁anne	-11.3175
wa	-11.318
arade	-11.319
▁postpone	-11.3202
▁johnsto	-11.3207
rich	-11.3211
ail	-11.3213
▁exceed	-11.3214
erald	-11.3217
▁hits	-11.3219
▁kiss	-11.3225
▁captives	-11.3228
ran	-11.323
▁mill	-11.3234
▁households	-11.3235
▁hassan	-11.3238
▁appli	-11.3243
ya	-11.3249
dom	-11.3254
wine	-11.3261
▁fisherm	-11.3262
ssett	-11.3275
til	-11.3277
▁shutt	-11.329
jiang	-11.3294
▁files	-11.3296
▁grounds	-11.3299
bank	-11.33
▁captiv	-11.33
▁arth	-11.3301
hasa	-11.3306
▁scare	-11.3327
▁refer	-11.3337
▁mode	-11.3344
▁flick	-11.3344
▁donors	-11.3349
▁columb	-11.3351
▁vigil	-11.3355
▁catastroph	-11.3356
▁discharge	-11.3356
▁junior	-11.3356
▁paparazz	-11.3356
▁starbuck	-11.3356
▁surplus	-11.3356
▁travolta	-11.3356
▁aborigin	-11.3356
▁refrain	-11.3356
▁brothel	-11.3356
▁domain	-11.3356
▁sierra	-11.3356
▁tentative	-11.3356
▁throne	-11.3356
▁mystery	-11.3356
▁johannes	-11.3356
▁breast	-11.3357
▁kofi	-11.3357
▁ftse	-11.3357
▁intensive	-11.3357
▁propagand	-11.3357
▁pocket	-11.3357
▁bosnia	-11.3357
▁impass	-11.3357
▁niger	-11.3358
▁milestone	-11.3358
▁fahr	-11.3358
▁mediator	-11.3359
▁knife	-11.3359
▁transmission	-11.3359
▁constitute	-11.3359
▁dementi	-11.336
▁assign	-11.336
▁trademark	-11.336
▁weakness	-11.3361
dale	-11.3361
▁dug	-11.3361
▁trash	-11.3361
▁exhibition	-11.3362
▁reluctant	-11.3364
ties	-11.3364
▁prefecture	-11.3364
▁minus	-11.3365
▁restructur	-11.3365
▁bride	-11.3368
▁antarctica	-11.3369
▁heighten	-11.3369
▁outline	-11.337
▁jenni	-11.3371
▁ferry	-11.3374
▁cheaper	-11.3374
▁jiang	-11.3377
viel	-11.3378
▁cambodian	-11.3379
▁rick	-11.338
▁kwang	-11.338
▁tenn	-11.3381
▁rover	-11.3381
▁inventor	-11.3384
▁hosts	-11.3384
▁java	-11.3384
▁reasonable	-11.3386
▁massage	-11.3391
▁annually	-11.3393
▁stemm	-11.3395
▁patien	-11.3398
attle	-11.341
▁premiere	-11.3419
▁preserv	-11.3422
manuel	-11.3423
▁mines	-11.3426
▁gangs	-11.3433
▁symbolic	-11.3434
▁subsidiar	-11.3447
▁manufacturer	-11.3447
▁rig	-11.3467
▁dense	-11.3473
ola	-11.3473
let	-11.3478
eta	-11.3478
▁unemploy	-11.348
tten	-11.3485
▁raw	-11.3486
titude	-11.3492
llo	-11.3495
▁mild	-11.3505
▁balti	-11.3513
▁meals	-11.3517
▁mous	-11.3523
▁easter	-11.3525
▁bok	-11.3538
▁carl	-11.3539
▁fines	-11.3542
▁contra	-11.3548
▁relevan	-11.3585
▁neil	-11.3589
▁cub	-11.3592
▁roy	-11.3596
▁surveys	-11.3597
▁stamp	-11.3602
enhei	-11.3603
▁reli	-11.3603
▁shipments	-11.3609
▁mega	-11.361
▁tribes	-11.3612
▁till	-11.3617
▁guid	-11.3621
▁feeding	-11.3622
▁cop	-11.3627
▁discriminat	-11.3631
▁wat	-11.3637
▁dies	-11.3651
▁roots	-11.3658
erial	-11.3662
dium	-11.3663
▁optimis	-11.3664
disclos	-11.3666
▁rubb	-11.367
▁sooner	-11.3672
▁intens	-11.3677
▁kam	-11.3686
pover	-11.3689
kansa	-11.3691
nic	-11.3698
▁propell	-11.3699
intend	-11.3701
▁rahm	-11.3709
▁bench	-11.3719
enos	-11.3723
▁intercept	-11.3733
▁sway	-11.3735
▁audit	-11.3736
nati	-11.3736
▁grat	-11.3736
▁addict	-11.374
▁brilliant	-11.374
▁condolence	-11.374
▁historian	-11.374
▁jirga	-11.374
▁obstacle	-11.374
▁pioneer	-11.374
▁plummet	-11.374
▁simultaneous	-11.374
▁kazakhstan	-11.374
▁kuznetsov	-11.374
▁script	-11.374
▁oath	-11.374
▁cousin	-11.3741
▁grandfather	-11.3741
▁curious	-11.3741
▁yankee	-11.3741
▁monster	-11.3741
▁decree	-11.3741
▁deutsch	-11.3742
▁circuit	-11.3742
▁psychologist	-11.3742
▁mastermind	-11.3742
▁servant	-11.3742
▁editorial	-11.3743
▁pageant	-11.3743
▁glori	-11.3743
▁conglomerate	-11.3743
▁cinc	-11.3744
▁holland	-11.3744
▁awake	-11.3745
▁attractive	-11.3745
▁robotic	-11.3745
▁elb	-11.3745
▁phillip	-11.3746
▁poul	-11.3748
▁segment	-11.3748
▁knut	-11.3749
▁slush	-11.375
▁rita	-11.3752
▁contestant	-11.3752
▁restraint	-11.3752
▁scrapp	-11.3752
▁transparent	-11.3755
via	-11.3756
ita	-11.3757
▁setback	-11.3757
tearn	-11.3757
arian	-11.3761
▁stud	-11.3762
▁outlaw	-11.3763
▁drum	-11.3765
▁nick	-11.3768
▁falluja	-11.3768
▁nigerian	-11.3772
▁formation	-11.3778
▁zan	-11.378
rbil	-11.3781
▁distribute	-11.3781
▁mob	-11.3781
▁ourselves	-11.3782
▁tropic	-11.3786
▁linda	-11.3789
▁shame	-11.3794
▁cor	-11.3806
▁ranger	-11.3806
▁silv	-11.3808
ider	-11.3809
▁pus	-11.381
some	-11.381
▁capt	-11.3812
▁spitz	-11.3813
▁popp	-11.3814
▁shelves	-11.3816
▁arts	-11.3823
▁tuck	-11.3826
▁manipulat	-11.3831
bu	-11.3832
▁lots	-11.3833
▁enhance	-11.3834
▁cycle	-11.3837
▁glen	-11.3838
▁scan	-11.3845
▁terra	-11.385
▁chess	-11.3856
▁pile	-11.386
▁spice	-11.3861
▁sk	-11.3866
itis	-11.387
▁oscars	-11.3878
▁sponsors	-11.3888
▁gala	-11.389
▁choi	-11.3894
bel	-11.3902
▁injure	-11.3904
▁programm	-11.3907
▁filing	-11.3907
▁gi	-11.3911
▁rath	-11.3919
▁terr	-11.392
rell	-11.3927
▁corn	-11.3929
▁ugl	-11.3936
ara	-11.394
▁gambl	-11.3941
▁lev	-11.3948
▁mess	-11.3952
lateral	-11.3958
os	-11.3962
▁sacr	-11.3972
ning	-11.3977
▁container	-11.3981
▁emphasiz	-11.3983
shi	-11.3984
▁lotte	-11.3986
▁folks	-11.399
▁inspect	-11.3997
oli	-11.4005
▁vers	-11.4011
▁tut	-11.4012
onica	-11.4025
henin	-11.4032
▁cab	-11.4034
▁wan	-11.4039
ala	-11.4051
▁eta	-11.4056
▁pri	-11.4062
▁organize	-11.4062
furt	-11.4064
▁bearing	-11.4073
▁heal	-11.4078
appropriate	-11.4079
hal	-11.4081
vy	-11.4093
ged	-11.4094
tor	-11.41
▁moneta	-11.4105
▁instruct	-11.4108
▁chill	-11.4112
hn	-11.4114
▁swim	-11.4116
▁choos	-11.4121
▁construct	-11.413
▁swap	-11.4132
▁rehabilitati	-11.4133
▁tin	-11.4136
▁sensitivit	-11.4136
caust	-11.4136
▁possess	-11.4137
▁enact	-11.4137
▁guitar	-11.4139
▁excess	-11.4139
▁psychiatr	-11.414
▁lincoln	-11.414
▁reaffirm	-11.414
▁tattoo	-11.414
▁vegetable	-11.414
▁kilogram	-11.414
▁tremendous	-11.414
▁applicant	-11.414
▁sibling	-11.414
▁grim	-11.414
▁rhode	-11.414
▁monument	-11.4141
▁vista	-11.4141
▁premature	-11.4141
▁memories	-11.4141
▁premium	-11.4141
▁inhabit	-11.4141
▁overthrow	-11.4141
▁frog	-11.4141
▁railroad	-11.4141
▁notorious	-11.4141
▁nerve	-11.4141
▁downturn	-11.4141
▁parole	-11.4141
▁smell	-11.4141
▁donkey	-11.4141
▁copper	-11.4141
▁thwart	-11.4142
▁decisive	-11.4142
▁orthodox	-11.4142
▁shadow	-11.4142
▁transcript	-11.4142
▁observe	-11.4142
▁streak	-11.4142
▁libby	-11.4142
▁psychological	-11.4142
▁bloc	-11.4142
▁respirator	-11.4143
▁contingent	-11.4143
▁faithful	-11.4143
▁sugar	-11.4143
▁cairo	-11.4144
▁pearl	-11.4144
▁lenno	-11.4144
▁laura	-11.4144
▁leonard	-11.4146
▁unchang	-11.4146
▁disperse	-11.4146
▁martyr	-11.4147
▁arson	-11.4147
▁hammer	-11.4147
▁grammy	-11.4149
▁muq	-11.4149
▁ub	-11.4152
▁progressive	-11.4152
vacu	-11.4154
kdo	-11.4154
soo	-11.4155
▁representation	-11.4158
▁sensor	-11.4159
▁indoor	-11.4161
▁dominica	-11.4161
ustin	-11.4164
▁romance	-11.4166
▁explorer	-11.4169
▁gravit	-11.4169
▁din	-11.4178
▁santi	-11.418
▁zimbabwean	-11.4192
ura	-11.4195
▁frustrat	-11.4202
▁slain	-11.4203
▁exten	-11.421
▁wy	-11.4211
▁roar	-11.4214
▁op	-11.4222
▁salt	-11.4224
▁span	-11.4226
▁tours	-11.4229
ospi	-11.4233
▁burg	-11.4239
▁pal	-11.4241
ot	-11.4247
▁chos	-11.4256
▁belt	-11.426
▁reunifi	-11.426
▁obes	-11.4283
waz	-11.4286
▁trans	-11.4287
▁sars	-11.4296
▁bil	-11.4299
▁aero	-11.4303
uk	-11.4307
▁gil	-11.4312
▁surviv	-11.4314
▁paralyz	-11.4319
▁suppress	-11.4321
oon	-11.4322
▁steadi	-11.4327
oo	-11.4328
▁barry	-11.4338
val	-11.4345
▁counterterroris	-11.4348
saka	-11.4351
▁outlets	-11.4353
ido	-11.4371
▁uncertaint	-11.4376
apping	-11.4381
▁chairs	-11.4382
▁pres	-11.4382
shire	-11.4385
▁steppe	-11.4388
rk	-11.4393
▁julie	-11.4402
pei	-11.4412
▁arrange	-11.4417
▁rein	-11.4421
▁impos	-11.4426
▁harve	-11.4429
▁disarm	-11.443
▁pin	-11.4437
ett	-11.4437
▁choices	-11.4442
▁retrieve	-11.4459
▁retaliati	-11.4463
▁drastic	-11.4466
versh	-11.4481
▁cooperat	-11.4482
▁cry	-11.4483
▁suits	-11.4485
cliff	-11.4495
tz	-11.4499
▁smooth	-11.4501
▁revise	-11.4505
borne	-11.4509
ants	-11.4509
suf	-11.4512
top	-11.4513
▁bat	-11.4529
ux	-11.4531
▁emerge	-11.4534
▁transparen	-11.4541
▁contend	-11.4543
▁q	-11.4546
▁reign	-11.4546
ario	-11.4554
▁avenue	-11.4557
▁certificate	-11.4557
▁competitor	-11.4557
▁genuine	-11.4557
▁reckless	-11.4557
▁sufficient	-11.4557
▁bmw	-11.4557
▁kashmir	-11.4557
▁coroner	-11.4557
▁qassam	-11.4557
▁vault	-11.4557
▁misdemeanor	-11.4557
▁irregularities	-11.4557
▁absent	-11.4557
▁disgrace	-11.4557
▁whistle	-11.4557
▁nightclub	-11.4557
▁potato	-11.4557
▁lodge	-11.4557
▁profound	-11.4557
▁consist	-11.4557
▁negro	-11.4557
▁harper	-11.4557
▁venus	-11.4558
▁sequence	-11.4558
▁veterinarian	-11.4558
▁hatred	-11.4558
▁tomato	-11.4558
▁lyric	-11.4558
rogge	-11.4559
▁colonel	-11.4559
gow	-11.4559
▁concentration	-11.4559
▁boris	-11.456
▁rift	-11.456
▁jamie	-11.4561
▁gwan	-11.4561
▁addiction	-11.4562
▁sheep	-11.4562
▁flin	-11.4562
▁terrible	-11.4563
▁isolation	-11.4563
▁distan	-11.4564
▁flaw	-11.4565
▁devil	-11.4566
▁precise	-11.4566
▁mechanical	-11.4566
▁drain	-11.4567
▁amend	-11.4567
▁dock	-11.4572
▁isolate	-11.4573
▁beam	-11.4573
▁diagnosed	-11.4574
▁belov	-11.4577
▁laurea	-11.4578
▁carmaker	-11.458
▁observ	-11.4585
▁warship	-11.4586
▁garb	-11.4588
▁tube	-11.459
▁couch	-11.4591
▁speculat	-11.4594
xvi	-11.4594
▁mikh	-11.4598
▁lecture	-11.46
▁brig	-11.4603
▁aug	-11.4605
▁comb	-11.4606
▁slot	-11.4611
▁gp	-11.4611
▁rear	-11.4612
wang	-11.4617
▁div	-11.4623
itz	-11.4625
▁genes	-11.4634
▁duk	-11.4637
ja	-11.4639
▁blessing	-11.4643
▁outfit	-11.4644
▁roles	-11.4644
▁bother	-11.4646
▁fruit	-11.4649
arity	-11.4658
nshine	-11.4659
oster	-11.4665
▁hawa	-11.4666
▁yog	-11.4674
wc	-11.4674
▁improvement	-11.4675
▁truc	-11.4685
▁cac	-11.469
▁crying	-11.4696
conscious	-11.4698
▁informal	-11.4707
▁luck	-11.4709
▁feelings	-11.4714
▁rak	-11.4718
▁vol	-11.4719
▁jer	-11.4721
ini	-11.4741
ions	-11.4742
▁kph	-11.475
▁tense	-11.475
▁fuku	-11.4755
▁cleaner	-11.4762
▁sees	-11.4763
▁sincere	-11.4763
▁difficulty	-11.4793
ette	-11.4801
ists	-11.4814
io	-11.4815
▁ross	-11.4828
▁unite	-11.4833
▁spike	-11.4838
▁mori	-11.4839
▁infiltrat	-11.4852
▁gre	-11.4854
adilla	-11.4858
▁kil	-11.4873
▁prostitut	-11.4881
▁hank	-11.4897
rmal	-11.4903
▁commemorate	-11.4906
▁assassinat	-11.4907
zed	-11.4911
▁lamp	-11.4912
▁reunit	-11.4926
▁nori	-11.4928
▁architect	-11.4929
active	-11.4938
▁medi	-11.4938
▁origin	-11.495
▁appreciate	-11.4952
▁digg	-11.4956
▁ports	-11.4958
▁recep	-11.4963
▁horses	-11.4967
▁justin	-11.4969
▁estonia	-11.4973
▁monkeys	-11.4979
▁midwest	-11.4981
▁harmon	-11.4987
▁exclud	-11.4991
▁courage	-11.4992
▁bizarre	-11.4992
▁caretaker	-11.4992
▁chocolate	-11.4992
▁gadget	-11.4992
▁ingredient	-11.4992
▁maradona	-11.4992
▁peanut	-11.4992
▁satisfie	-11.4992
▁acquisition	-11.4992
▁cricket	-11.4992
▁definition	-11.4992
▁blunt	-11.4992
▁minneapolis	-11.4992
▁oversight	-11.4992
▁fidel	-11.4992
▁mysterious	-11.4992
▁introduction	-11.4992
▁bulk	-11.4992
▁tamil	-11.4993
▁harass	-11.4993
▁lugg	-11.4993
▁alfred	-11.4993
▁click	-11.4994
▁signature	-11.4994
▁bonuses	-11.4994
▁cancellation	-11.4994
▁fortress	-11.4994
▁exploration	-11.4995
▁applie	-11.4995
▁dili	-11.4995
▁array	-11.4996
▁irresponsible	-11.4996
▁powder	-11.4996
▁slugg	-11.4997
▁logistic	-11.4997
▁collective	-11.4997
▁injection	-11.4997
▁stunt	-11.4997
▁geit	-11.4998
▁squid	-11.4998
▁delight	-11.4999
▁ipod	-11.5
▁chunk	-11.5001
▁titan	-11.5001
▁rico	-11.5003
▁blogger	-11.5004
▁kwon	-11.5008
▁siege	-11.5011
▁guardian	-11.5013
▁iceland	-11.5014
▁accurate	-11.5016
▁fantas	-11.5018
▁adequate	-11.5018
▁spurr	-11.5022
yama	-11.5026
▁marr	-11.5029
oid	-11.5032
▁organic	-11.5035
▁lp	-11.5036
▁gifts	-11.5039
▁sach	-11.5041
▁hell	-11.5041
▁kle	-11.5043
▁zhang	-11.5043
▁examiner	-11.5043
▁cecil	-11.5043
▁comic	-11.5046
▁portal	-11.505
▁cher	-11.5051
▁philli	-11.5063
▁tooth	-11.5065
▁demonstrat	-11.5069
▁flexib	-11.5073
▁mat	-11.5074
▁vest	-11.5076
▁faye	-11.5077
▁baker	-11.5087
▁ci	-11.5087
▁kara	-11.5088
▁dire	-11.5089
▁authorize	-11.5089
▁bio	-11.5091
▁scenario	-11.5094
▁gib	-11.5099
mus	-11.5099
▁protein	-11.5102
▁carac	-11.5107
▁bodyguard	-11.5111
▁alleg	-11.5119
▁dama	-11.5127
▁ruin	-11.513
▁identifi	-11.5133
olo	-11.5139
chum	-11.5141
▁nest	-11.5142
▁chips	-11.5144
▁employers	-11.5161
elling	-11.5163
▁hon	-11.5169
▁cooking	-11.517
▁emphasize	-11.5172
▁linger	-11.5172
witt	-11.5174
nan	-11.5175
ber	-11.5177
▁farming	-11.5178
scus	-11.5181
▁scholars	-11.5214
▁ramad	-11.5216
▁yea	-11.5219
ted	-11.5224
▁rattl	-11.5225
▁fre	-11.5236
eng	-11.5237
▁networking	-11.5244
▁define	-11.5249
▁dismiss	-11.5249
ith	-11.5249
per	-11.5251
▁municipal	-11.5258
▁nis	-11.5258
▁flare	-11.5259
kuni	-11.526
set	-11.5262
▁sighting	-11.5262
▁meh	-11.5262
▁cel	-11.5264
▁characteriz	-11.5265
lena	-11.527
▁extremis	-11.527
▁poses	-11.5272
king	-11.5276
ative	-11.5287
▁contents	-11.5289
▁accomplish	-11.5291
▁rag	-11.5296
che	-11.53
hill	-11.5302
▁uncle	-11.531
▁rap	-11.5311
▁les	-11.5318
▁bodyguards	-11.5323
va	-11.5329
▁stunn	-11.5339
▁browne	-11.5346
▁prodi	-11.5367
▁hurl	-11.5368
chang	-11.5378
ponte	-11.5381
▁permitt	-11.5382
strong	-11.5386
about	-11.539
red	-11.5395
▁bobb	-11.5395
▁slash	-11.5395
▁ratio	-11.54
folk	-11.54
▁lean	-11.5404
▁guatemala	-11.5426
▁romania	-11.5429
▁rib	-11.5429
▁va	-11.5432
▁ridicul	-11.5432
▁neutral	-11.5437
▁pond	-11.5438
▁acquitt	-11.5439
▁archaeolog	-11.5443
▁imperial	-11.5445
nprofit	-11.5446
▁abrupt	-11.5446
▁intellectual	-11.5446
▁portrait	-11.5446
▁stomach	-11.5446
▁junichi	-11.5447
▁recount	-11.5447
▁database	-11.5447
aking	-11.5447
▁kitchen	-11.5447
▁tenure	-11.5447
▁perception	-11.5447
▁maoist	-11.5447
▁interstate	-11.5447
▁excuse	-11.5447
▁dependent	-11.5448
▁reception	-11.5448
▁rehab	-11.5448
▁taint	-11.5448
▁cluster	-11.5448
▁informant	-11.5448
▁contentious	-11.5448
▁convene	-11.5449
▁fantastic	-11.5449
▁confidential	-11.5449
▁comedian	-11.5449
▁ukrainian	-11.545
▁ismail	-11.545
▁serena	-11.545
▁consultant	-11.5451
▁infantry	-11.5451
▁frustration	-11.5451
▁yale	-11.5451
▁cabin	-11.5452
▁wield	-11.5452
▁slavery	-11.5453
▁drunken	-11.5453
▁creator	-11.5454
▁mccon	-11.5454
▁glow	-11.5454
▁hick	-11.5455
▁ledger	-11.5455
▁quarte	-11.5456
▁harvest	-11.5457
▁deem	-11.5457
▁hover	-11.5458
▁bicycle	-11.5458
▁disappointment	-11.5459
▁bulgarian	-11.5459
▁gene	-11.5462
▁bread	-11.5462
▁costume	-11.5464
▁showdown	-11.5465
▁loom	-11.5465
▁measurement	-11.5468
▁defi	-11.547
mandu	-11.5471
▁innocen	-11.5474
▁instruction	-11.548
▁wii	-11.5481
▁bible	-11.5481
▁glimpse	-11.5482
▁rejection	-11.5485
▁val	-11.5489
▁collins	-11.5491
▁neal	-11.5491
▁nasr	-11.5493
▁barely	-11.5497
▁dual	-11.5504
▁karl	-11.5515
▁procession	-11.5517
onia	-11.5521
▁bp	-11.5525
▁conceded	-11.5525
▁vanco	-11.5525
▁impressi	-11.5526
▁basin	-11.5526
▁gonn	-11.553
▁performer	-11.5531
▁fitt	-11.5534
▁fal	-11.5535
▁interesting	-11.5535
▁veni	-11.5536
▁semi	-11.554
▁jun	-11.5541
▁gran	-11.5544
▁countryside	-11.5548
▁drag	-11.5556
▁beck	-11.5563
▁ferrer	-11.5565
▁toddler	-11.5579
nga	-11.558
▁nah	-11.5594
▁casualt	-11.5595
eera	-11.5598
▁allege	-11.5599
▁suv	-11.5609
▁settl	-11.5615
▁humiliat	-11.5621
yman	-11.5623
▁ashle	-11.5624
ira	-11.563
▁smoker	-11.5641
▁triple	-11.5646
▁wool	-11.5647
▁uncertain	-11.5648
▁adventure	-11.5655
▁nk	-11.5657
win	-11.5678
▁bog	-11.5678
▁pit	-11.5683
▁bout	-11.5687
▁relieve	-11.5694
▁item	-11.5695
▁pills	-11.5696
▁cl	-11.5699
▁barak	-11.5712
▁xu	-11.5712
▁observat	-11.5712
lima	-11.5713
▁dorm	-11.5714
▁skinn	-11.5726
▁pave	-11.5733
▁courts	-11.574
▁spin	-11.5741
▁melan	-11.5761
▁seller	-11.5764
▁buck	-11.5778
▁execute	-11.5783
nce	-11.5793
amine	-11.58
▁finals	-11.5801
▁staffer	-11.5814
udh	-11.5823
ston	-11.5826
▁resemble	-11.5828
▁presid	-11.5836
▁bore	-11.5838
▁concentrate	-11.5839
▁bran	-11.5839
place	-11.5842
▁bark	-11.5844
aker	-11.5848
▁meteor	-11.585
▁topple	-11.5852
▁explaining	-11.5852
▁proven	-11.5854
▁sta	-11.5856
point	-11.5858
specifi	-11.5858
▁ministr	-11.5859
decided	-11.5862
▁occasional	-11.5864
▁realiz	-11.5866
▁pl	-11.5867
▁poster	-11.5868
▁grandm	-11.5868
▁memorab	-11.5871
▁climber	-11.588
▁inaugura	-11.5881
aw	-11.5883
▁queens	-11.5902
▁ethiopia	-11.5904
▁scrutin	-11.5914
▁wipe	-11.5915
▁categori	-11.5915
▁grip	-11.5915
▁koo	-11.5916
▁contradict	-11.5916
▁recess	-11.592
▁ham	-11.5921
▁column	-11.5921
▁extract	-11.5922
▁arroyo	-11.5923
▁artifact	-11.5923
▁cosmonaut	-11.5923
▁efficienc	-11.5923
▁inflict	-11.5923
▁magistrate	-11.5923
▁pharmaceutical	-11.5923
▁quarantine	-11.5923
▁seafood	-11.5923
▁sumatra	-11.5923
▁umbrella	-11.5923
▁librar	-11.5923
▁provocative	-11.5923
▁anxiet	-11.5923
▁mislead	-11.5923
▁diminish	-11.5923
▁seizure	-11.5923
▁boulder	-11.5923
▁copyright	-11.5923
▁greenspan	-11.5923
▁brink	-11.5923
▁levinson	-11.5923
▁federline	-11.5924
▁flock	-11.5924
▁blake	-11.5924
▁dictatorship	-11.5924
▁workforce	-11.5924
▁solomon	-11.5924
▁derail	-11.5924
▁shwe	-11.5925
▁cinema	-11.5925
▁piano	-11.5925
▁wander	-11.5925
▁interaction	-11.5926
▁salarie	-11.5926
▁overweight	-11.5927
▁workplace	-11.5928
▁basque	-11.5928
▁handgun	-11.5929
▁interrupt	-11.5931
berra	-11.5932
▁dragon	-11.5932
▁roug	-11.5933
▁facial	-11.5933
▁honey	-11.5933
▁rubber	-11.5936
tact	-11.5937
▁staple	-11.5939
▁glad	-11.594
rbach	-11.5943
▁gallery	-11.5945
▁nail	-11.5946
nintend	-11.5949
▁ol	-11.595
▁seasonal	-11.5956
▁priorities	-11.5956
▁juror	-11.5958
onga	-11.596
▁qualifier	-11.5961
ping	-11.5963
▁pelo	-11.5963
▁keat	-11.5966
▁upgrade	-11.5969
▁leone	-11.5969
▁helpful	-11.5973
▁batch	-11.5975
▁economically	-11.5979
rkele	-11.5987
▁pu	-11.5988
▁ark	-11.599
▁utter	-11.5994
▁highlights	-11.5998
hi	-11.5998
▁claren	-11.6001
▁lucas	-11.6002
▁hid	-11.6005
▁reserved	-11.6008
aho	-11.6016
▁lump	-11.6017
▁nu	-11.6019
aware	-11.602
▁caffein	-11.6023
cade	-11.6028
▁liu	-11.603
▁coordinate	-11.6046
▁lak	-11.6046
▁mong	-11.6049
▁khali	-11.6059
▁denounce	-11.6065
▁airliner	-11.6067
▁tongue	-11.607
▁cannon	-11.6073
oma	-11.6074
▁commodit	-11.6074
shima	-11.6086
▁intel	-11.6087
▁dig	-11.6099
▁layer	-11.6099
ssif	-11.61
gang	-11.6101
▁contender	-11.6101
▁pirate	-11.6101
row	-11.6102
▁plain	-11.611
iling	-11.6116
▁arrangements	-11.6117
▁assurance	-11.6117
bound	-11.6122
▁postpon	-11.6126
▁tribe	-11.6127
pp	-11.6131
▁pic	-11.6132
▁gro	-11.6136
▁jimm	-11.614
▁shipment	-11.614
▁trailer	-11.614
▁slope	-11.6141
▁holed	-11.615
▁skill	-11.6152
ut	-11.6153
rway	-11.6156
▁tag	-11.616
▁org	-11.616
▁stalinis	-11.616
unch	-11.6161
▁shocking	-11.6163
▁tone	-11.6166
ywhere	-11.6169
▁guarded	-11.6178
▁confusi	-11.6185
hen	-11.6185
▁supervis	-11.6188
▁edit	-11.6194
▁superb	-11.6198
▁contaminat	-11.6206
▁provok	-11.6207
▁troph	-11.6213
▁franc	-11.6224
unes	-11.6229
▁analyze	-11.6232
▁wings	-11.6244
▁hart	-11.6244
▁plains	-11.6251
▁lover	-11.6252
▁ze	-11.6254
▁stockpile	-11.6256
▁fur	-11.6265
▁explor	-11.6268
egu	-11.6269
ato	-11.6273
▁dann	-11.6279
will	-11.6283
▁franchise	-11.6284
▁overwhelm	-11.6286
bala	-11.6293
▁subsid	-11.6303
▁sketch	-11.6308
hand	-11.6312
▁dell	-11.6321
▁mem	-11.633
▁riders	-11.6342
power	-11.6348
▁applau	-11.6348
▁frost	-11.6349
▁necessar	-11.6355
▁societ	-11.6356
▁vo	-11.6357
▁russe	-11.6359
▁forth	-11.6359
wealth	-11.6361
shift	-11.6362
planes	-11.6362
ilia	-11.6365
▁bust	-11.6368
▁rotat	-11.6373
oka	-11.6374
▁watcher	-11.6378
▁bump	-11.64
▁algeria	-11.6404
▁foe	-11.6404
▁valid	-11.6406
▁deport	-11.6407
▁behead	-11.6413
▁inject	-11.6417
▁ideolog	-11.6422
pollo	-11.6422
▁abraham	-11.6423
▁biofuel	-11.6423
▁engulf	-11.6423
▁excerpt	-11.6423
▁fragil	-11.6423
▁gossip	-11.6423
▁illicit	-11.6423
▁implant	-11.6423
▁juvenile	-11.6423
▁merchant	-11.6423
▁newcastle	-11.6423
▁stalemate	-11.6423
▁tycoon	-11.6423
▁curator	-11.6423
▁exxon	-11.6423
▁lesbian	-11.6423
▁eleven	-11.6423
▁chapel	-11.6423
▁negligen	-11.6423
▁wrist	-11.6423
▁nickname	-11.6423
▁fitzg	-11.6423
▁frontrunner	-11.6423
▁himalaya	-11.6423
▁disclosure	-11.6423
▁persistent	-11.6423
▁malawi	-11.6423
▁keith	-11.6423
▁fiber	-11.6423
▁hispanic	-11.6423
▁anxious	-11.6424
▁verification	-11.6424
▁snack	-11.6425
▁deportation	-11.6425
▁reinforcement	-11.6425
iora	-11.6425
▁atleti	-11.6426
erran	-11.6426
▁cruel	-11.6426
▁grain	-11.6426
▁logo	-11.6428
▁headache	-11.6429
▁overlook	-11.6431
▁cordon	-11.6432
▁dealer	-11.6432
cc	-11.6433
▁prediction	-11.6434
▁conservationist	-11.6434
▁tenor	-11.6434
▁auditor	-11.6434
▁griffi	-11.6435
▁djo	-11.6436
▁citi	-11.6437
▁whipp	-11.6439
▁ufo	-11.6439
▁kiev	-11.6439
▁playoff	-11.6439
▁avert	-11.644
▁str	-11.644
▁owen	-11.644
▁inspiration	-11.6441
▁kt	-11.6443
▁readers	-11.6443
ility	-11.6445
▁thriller	-11.6446
▁establishment	-11.6452
▁launche	-11.6453
▁franco	-11.6454
▁liais	-11.6454
ket	-11.6455
▁preferr	-11.6457
▁spann	-11.6457
itive	-11.6461
▁ferrar	-11.6461
▁wag	-11.6463
▁nec	-11.6465
▁expresse	-11.6466
▁tender	-11.6466
▁fold	-11.6466
▁monet	-11.6471
otic	-11.6473
gm	-11.6478
▁phu	-11.6485
cha	-11.6487
ancy	-11.6489
▁sens	-11.6497
▁jp	-11.6498
▁coerc	-11.6504
nin	-11.6506
▁alma	-11.6506
▁keeper	-11.6507
▁accelerate	-11.651
▁motivat	-11.6511
▁vincen	-11.6511
▁lawn	-11.6512
▁evans	-11.6517
▁filling	-11.6521
▁fier	-11.6523
▁yell	-11.6525
▁winger	-11.6525
▁gorillas	-11.6538
▁explore	-11.6539
ives	-11.6539
▁hacker	-11.6541
ulous	-11.6552
▁wip	-11.6552
mz	-11.6559
▁laute	-11.6565
▁ravag	-11.6566
▁dwindl	-11.6571
▁tapes	-11.6584
nbar	-11.6585
▁homicide	-11.6598
▁bend	-11.6603
▁addresses	-11.6606
ito	-11.661
ate	-11.6614
ow	-11.6618
enver	-11.6619
sef	-11.6627
used	-11.6631
▁extremist	-11.6636
▁napoli	-11.6637
▁petro	-11.6639
▁neo	-11.665
▁kg	-11.6655
▁captive	-11.6655
▁passports	-11.6655
▁monte	-11.6657
▁tolerate	-11.6657
▁underst	-11.6663
▁horn	-11.6663
▁trac	-11.6673
▁tam	-11.6676
▁fann	-11.6676
▁mann	-11.6681
▁chased	-11.6682
tano	-11.6682
gb	-11.6682
▁folk	-11.6683
▁companion	-11.6688
om	-11.6689
▁enhanc	-11.6695
▁comet	-11.6696
▁raj	-11.6699
▁bern	-11.6699
▁sim	-11.6707
▁por	-11.6708
▁bros	-11.6712
▁nash	-11.6713
ap	-11.6715
▁discs	-11.6718
▁seeming	-11.6719
▁amo	-11.6728
▁claus	-11.6734
▁tun	-11.6741
lloy	-11.6758
▁kay	-11.6761
▁bor	-11.6762
▁nurs	-11.6762
▁bounce	-11.6767
▁hae	-11.6775
▁scratch	-11.6777
▁entr	-11.6793
uda	-11.6797
▁galla	-11.68
▁cord	-11.6801
▁den	-11.6806
▁gh	-11.6812
▁disk	-11.6817
▁bol	-11.6818
zel	-11.6823
ww	-11.6824
▁julia	-11.6833
▁reinstate	-11.6834
▁cope	-11.6834
af	-11.684
tha	-11.6842
afa	-11.6844
esi	-11.6849
ethane	-11.6851
▁fu	-11.6851
qaw	-11.6855
▁horrifi	-11.6856
▁depriv	-11.6859
oming	-11.686
▁zu	-11.6865
▁chronic	-11.6868
ef	-11.6872
▁hamburg	-11.6878
ud	-11.688
▁dot	-11.6881
▁shoulders	-11.6886
▁owe	-11.6888
▁absolute	-11.6893
▁borne	-11.6896
grid	-11.6898
▁greg	-11.6899
▁dodge	-11.691
▁interfer	-11.6913
made	-11.6921
what	-11.6926
▁acquir	-11.6926
▁jos	-11.6927
▁jamaica	-11.693
▁authentic	-11.6935
▁restrain	-11.6936
▁perin	-11.6938
scope	-11.694
ai	-11.6946
▁barricade	-11.6949
▁battalion	-11.6949
▁calendar	-11.6949
▁convincing	-11.6949
▁emperor	-11.6949
▁external	-11.6949
▁gorbachev	-11.6949
▁hectare	-11.6949
▁kangaroo	-11.6949
▁mechanism	-11.6949
▁parallel	-11.6949
▁prototype	-11.6949
▁rwanda	-11.6949
▁wheelchair	-11.6949
▁eacute	-11.6949
▁evangelical	-11.6949
▁unlawful	-11.6949
▁jacob	-11.6949
▁technician	-11.6949
▁robust	-11.6949
▁steroid	-11.6949
▁antiquit	-11.6949
▁clerk	-11.6949
▁confederation	-11.6949
▁dentist	-11.6949
▁unofficial	-11.6949
▁forensic	-11.6949
▁unilateral	-11.6949
▁timing	-11.6949
▁helmet	-11.6949
▁monaster	-11.6949
▁millenni	-11.6949
▁storage	-11.695
▁zheng	-11.695
▁consulate	-11.695
▁differ	-11.695
▁furni	-11.695
▁collaboration	-11.695
▁vocal	-11.695
▁comparison	-11.695
▁trap	-11.695
▁supermarket	-11.695
▁calorie	-11.695
bhumi	-11.6951
▁constructive	-11.6951
▁revelation	-11.6951
▁maneuver	-11.6951
▁rhino	-11.6951
▁beverage	-11.6951
▁manual	-11.6952
▁chadian	-11.6952
▁predator	-11.6952
▁foley	-11.6952
dwin	-11.6953
▁instructor	-11.6953
▁gibb	-11.6953
▁spiel	-11.6953
▁bypass	-11.6954
▁garner	-11.6954
▁fiction	-11.6954
▁uncomm	-11.6955
▁picket	-11.6955
▁soften	-11.6957
arov	-11.6957
▁contemporar	-11.6957
▁kasp	-11.6957
yi	-11.6957
▁bare	-11.6958
▁spouse	-11.6958
▁bias	-11.6959
▁soap	-11.696
▁spen	-11.696
▁privilege	-11.6961
▁medit	-11.6962
▁township	-11.6962
▁mullah	-11.6962
▁cameroon	-11.6963
▁courthouse	-11.6965
▁acceptance	-11.6965
▁pois	-11.6966
▁drift	-11.6968
▁avail	-11.6968
▁beache	-11.6969
▁doom	-11.6972
▁noise	-11.6974
▁leather	-11.6979
▁trek	-11.6979
▁vick	-11.698
▁carla	-11.6987
▁lyon	-11.6987
▁thi	-11.6988
▁craz	-11.6993
▁composer	-11.6995
spoke	-11.6998
▁warhead	-11.6999
▁charr	-11.7
rosa	-11.7001
▁rack	-11.7001
uki	-11.7006
cca	-11.7006
▁tail	-11.7008
▁bidd	-11.7009
ano	-11.701
▁sid	-11.7014
▁andrea	-11.7016
▁underscore	-11.7021
▁mai	-11.7023
▁qala	-11.7027
▁heir	-11.7027
▁applaud	-11.7028
▁colomb	-11.7028
▁gust	-11.7028
lary	-11.7033
▁extraditi	-11.7034
▁bleed	-11.704
▁sharon	-11.7048
▁maha	-11.7054
rod	-11.7056
▁prizes	-11.7056
▁destabilize	-11.7058
rin	-11.7058
▁scuffle	-11.7059
▁karim	-11.706
▁bamb	-11.7061
▁lim	-11.7078
▁soda	-11.7078
fa	-11.7086
nder	-11.7087
kia	-11.709
▁costa	-11.7094
fc	-11.7097
van	-11.7098
▁infections	-11.7102
con	-11.7109
bin	-11.7111
▁brake	-11.7117
▁regulate	-11.7123
▁excite	-11.7123
hem	-11.7129
▁helen	-11.7131
stitution	-11.7132
▁thoughts	-11.7135
amount	-11.7135
▁unhapp	-11.7136
▁conventional	-11.7148
lick	-11.7151
▁hood	-11.7151
▁kissing	-11.7154
▁blockbuster	-11.7157
bright	-11.7158
▁swear	-11.7161
▁cartel	-11.7167
▁ensur	-11.7175
▁towers	-11.7175
afford	-11.7176
▁entitl	-11.7176
▁torrent	-11.7176
▁solo	-11.7182
▁bayer	-11.7182
▁slowing	-11.7184
▁bru	-11.7184
ries	-11.7191
▁finalize	-11.7191
xel	-11.7194
ock	-11.7197
iers	-11.7198
▁math	-11.7199
▁ivanov	-11.7205
▁ignit	-11.7207
▁lander	-11.7211
▁foods	-11.7213
▁infringe	-11.7213
ision	-11.7216
▁clippe	-11.7218
ndra	-11.7221
▁breathe	-11.7224
▁roj	-11.7225
and	-11.7235
att	-11.7238
uma	-11.724
aki	-11.7241
ature	-11.7241
ill	-11.7241
cna	-11.7244
capri	-11.7245
▁intelligent	-11.7245
▁campaigner	-11.7248
▁pub	-11.7254
▁collaps	-11.7262
▁cycl	-11.7273
▁seeker	-11.7281
ire	-11.7289
▁metro	-11.7292
kov	-11.7307
ab	-11.7311
lash	-11.7312
▁separat	-11.732
ories	-11.7321
▁winston	-11.7323
etic	-11.7325
rative	-11.7327
▁hom	-11.7341
shed	-11.7343
▁revenues	-11.7346
▁tune	-11.7359
▁frighten	-11.736
▁henri	-11.7365
ndrome	-11.7365
▁gad	-11.7367
▁pur	-11.738
bali	-11.7381
▁fla	-11.7386
▁mos	-11.7387
play	-11.7395
▁bet	-11.7397
▁substanti	-11.7407
eful	-11.7412
▁offend	-11.7416
sterda	-11.7419
▁dod	-11.7424
him	-11.7424
▁munic	-11.7425
▁nh	-11.7432
gio	-11.7433
▁cu	-11.7434
▁christin	-11.7439
jab	-11.7441
▁assure	-11.7442
▁hak	-11.7442
▁erect	-11.7446
box	-11.7446
▁speculate	-11.7452
▁mobil	-11.7452
▁dish	-11.7454
▁physic	-11.7456
ox	-11.7456
rank	-11.7463
cover	-11.747
veral	-11.747
▁expose	-11.7471
▁snapp	-11.7471
olmer	-11.7474
▁planner	-11.7478
▁favorites	-11.7482
▁goh	-11.7483
▁stir	-11.7486
▁significan	-11.7489
▁loya	-11.749
▁lakes	-11.7494
cute	-11.7496
▁kumar	-11.7497
▁micke	-11.75
course	-11.7502
▁veterinar	-11.7504
▁compatriot	-11.7505
▁crawford	-11.7505
▁demilitariz	-11.7505
▁fatigue	-11.7505
▁immense	-11.7505
▁intensify	-11.7505
▁perspective	-11.7505
▁precinct	-11.7505
▁reprocess	-11.7505
▁ritual	-11.7505
▁unauthori	-11.7505
▁unconditional	-11.7505
▁machete	-11.7505
▁mismanage	-11.7505
▁multinational	-11.7505
▁parachute	-11.7505
▁pretend	-11.7505
▁spree	-11.7505
▁bipartisan	-11.7505
▁solving	-11.7505
▁miracle	-11.7505
▁oxford	-11.7505
▁spiral	-11.7505
▁keynote	-11.7505
▁staunch	-11.7505
▁splash	-11.7505
▁litvin	-11.7505
▁norris	-11.7505
▁abdel	-11.7505
▁gauge	-11.7505
▁horror	-11.7505
▁baggage	-11.7505
▁premise	-11.7505
▁rogue	-11.7505
▁proclaim	-11.7505
▁feud	-11.7505
▁lugo	-11.7506
▁reservation	-11.7506
▁lifestyle	-11.7506
▁spider	-11.7506
▁jefferson	-11.7506
▁collar	-11.7506
▁embark	-11.7507
▁meteorologist	-11.7507
▁valuable	-11.7507
▁ancestor	-11.7508
▁brent	-11.7508
▁centimeter	-11.7508
▁trump	-11.7508
▁salary	-11.7508
▁plug	-11.7509
▁emanuel	-11.7509
▁cream	-11.751
▁distributor	-11.751
▁sadden	-11.751
▁miserable	-11.751
claren	-11.7511
▁referee	-11.7511
▁unbeat	-11.7511
▁downplay	-11.7512
▁lobbyist	-11.7512
▁coastline	-11.7512
▁vary	-11.7512
▁barrage	-11.7514
▁weird	-11.7514
▁quest	-11.7515
▁youngster	-11.7515
▁cruz	-11.7515
▁nike	-11.7516
▁boot	-11.7516
▁chimp	-11.7517
▁marij	-11.7518
▁leaf	-11.7518
▁confession	-11.7518
▁alcoholic	-11.7518
▁foil	-11.7519
▁volcani	-11.7519
▁tick	-11.7521
▁detector	-11.7523
▁jang	-11.7525
tel	-11.7525
▁inning	-11.7526
▁hog	-11.7527
▁swat	-11.7529
▁trainer	-11.7531
cular	-11.7532
▁policymaker	-11.7533
▁festiv	-11.7534
▁sai	-11.7534
▁spectators	-11.7535
esco	-11.7536
dorf	-11.7539
▁plume	-11.7539
▁temp	-11.754
▁usher	-11.754
▁cure	-11.7541
▁liga	-11.7549
yushch	-11.755
▁nichol	-11.7551
▁stricke	-11.7555
bane	-11.7555
mont	-11.7557
▁persi	-11.7559
▁bart	-11.756
▁hook	-11.7572
▁roller	-11.7575
▁hostilit	-11.7578
ima	-11.7586
eon	-11.7589
▁smuggle	-11.759
▁gram	-11.7591
lese	-11.7593
▁forgot	-11.7606
▁kean	-11.7609
▁graz	-11.7623
▁prey	-11.7628
▁arabian	-11.763
▁irritat	-11.7632
ped	-11.7636
po	-11.764
ge	-11.7643
▁ears	-11.7645
▁penguins	-11.7653
▁skipp	-11.7653
bs	-11.7657
rous	-11.7668
▁cred	-11.7671
phis	-11.7672
▁gamba	-11.7673
▁gill	-11.7675
▁conscien	-11.7679
ks	-11.7681
▁attribute	-11.7684
descent	-11.7688
▁qud	-11.7691
▁doll	-11.7696
▁serial	-11.7696
▁floren	-11.7699
hrai	-11.7708
▁serv	-11.7709
▁marin	-11.7713
▁carve	-11.7716
▁mus	-11.7716
ua	-11.772
▁analyz	-11.7721
nese	-11.7725
▁dear	-11.7729
▁bent	-11.7738
▁internationally	-11.7741
▁mour	-11.7746
▁depos	-11.7748
▁lashe	-11.776
▁disc	-11.7769
▁hut	-11.7772
▁sacred	-11.7781
lan	-11.7785
▁outage	-11.7788
▁outbreaks	-11.779
▁qualifi	-11.7792
vich	-11.7796
ique	-11.7797
▁glove	-11.7799
▁bot	-11.7807
▁lucian	-11.7817
▁compos	-11.7817
▁cancell	-11.7818
▁edg	-11.7818
▁rud	-11.7826
▁haniy	-11.7826
▁clap	-11.7832
nnis	-11.7835
▁ivan	-11.7836
▁interfere	-11.7842
▁ful	-11.7845
▁invade	-11.7846
tina	-11.7847
▁sore	-11.7858
tta	-11.7858
▁cliff	-11.7864
adic	-11.7866
▁shaf	-11.788
▁facilitate	-11.7887
ide	-11.7887
ula	-11.7893
eira	-11.7894
print	-11.7895
▁billy	-11.7899
▁dose	-11.7901
ology	-11.7906
▁lovers	-11.7908
ize	-11.7911
break	-11.7911
sud	-11.7912
▁juli	-11.7913
bon	-11.7917
atic	-11.792
▁cott	-11.792
▁dissolve	-11.7922
▁wheels	-11.7924
▁hoi	-11.793
▁ste	-11.7939
▁improvements	-11.7956
jo	-11.7957
▁evolv	-11.7958
▁distinct	-11.7962
nc	-11.7963
hmer	-11.7971
▁amuse	-11.7973
mates	-11.7973
ac	-11.7988
▁exception	-11.7995
tech	-11.7995
▁hari	-11.7995
▁sci	-11.7998
▁accelerat	-11.8006
grade	-11.801
ise	-11.8021
acas	-11.8022
▁intimidat	-11.8023
▁bands	-11.8028
▁stumbl	-11.8029
fi	-11.8029
▁nominate	-11.803
▁concede	-11.8032
▁orchestrat	-11.8034
▁comput	-11.8042
▁chuck	-11.8043
▁nichols	-11.8044
▁chok	-11.8049
▁scam	-11.805
mmy	-11.8053
▁vin	-11.8057
map	-11.806
▁valen	-11.8061
▁bre	-11.8063
thy	-11.8065
uous	-11.8076
▁donate	-11.8077
uana	-11.8084
▁peta	-11.8085
ochi	-11.8086
▁distort	-11.8087
▁porn	-11.8088
▁assum	-11.8088
▁blank	-11.8092
▁embargo	-11.8093
▁hamilton	-11.8093
▁integrity	-11.8093
▁jupiter	-11.8093
▁mbeki	-11.8093
▁messenger	-11.8093
▁quebec	-11.8093
▁skyscraper	-11.8093
▁subpoena	-11.8093
▁technological	-11.8093
▁athletic	-11.8093
▁bahrain	-11.8093
▁dynast	-11.8093
▁pedestrian	-11.8093
▁tikrit	-11.8093
▁dormitor	-11.8093
▁heaven	-11.8093
▁cemeter	-11.8093
▁delicate	-11.8093
▁humpback	-11.8093
▁improper	-11.8093
▁dmitr	-11.8093
▁renown	-11.8093
▁evasion	-11.8093
▁luft	-11.8093
▁definitive	-11.8093
▁translator	-11.8093
▁ailment	-11.8093
▁fabio	-11.8093
▁ditch	-11.8093
▁defence	-11.8093
▁thunder	-11.8093
▁noodle	-11.8093
▁safeguard	-11.8093
▁appall	-11.8093
▁stint	-11.8093
▁translation	-11.8093
▁globo	-11.8094
▁armenian	-11.8094
▁darling	-11.8094
▁commentator	-11.8094
▁jerem	-11.8094
orenst	-11.8094
▁advertisement	-11.8094
▁hutchins	-11.8094
lroo	-11.8095
▁cough	-11.8095
▁landfall	-11.8095
▁lavish	-11.8096
▁gator	-11.8096
▁floodwater	-11.8097
▁francois	-11.8097
uver	-11.8097
▁feat	-11.8097
▁fritz	-11.8097
▁considerably	-11.8098
▁outrageous	-11.8098
▁persist	-11.8098
▁installment	-11.8099
▁kaka	-11.8099
▁davyd	-11.81
▁rim	-11.81
▁canyon	-11.81
▁xp	-11.81
▁debat	-11.8101
▁canoe	-11.8102
▁memo	-11.8102
vinen	-11.8102
▁therapist	-11.8103
▁zahi	-11.8103
▁sheik	-11.8104
▁odi	-11.8105
▁complication	-11.8107
▁seminar	-11.8107
▁magnetic	-11.8108
▁sampl	-11.8108
▁scientolog	-11.8109
▁sultan	-11.8109
▁sicken	-11.811
▁khala	-11.8112
▁console	-11.8116
▁baton	-11.8118
rasmus	-11.8118
▁independents	-11.8118
▁bubble	-11.8119
▁passionate	-11.812
▁woke	-11.812
▁cake	-11.8121
▁kor	-11.8123
▁boil	-11.8124
tis	-11.8129
▁lag	-11.8132
▁jaw	-11.8132
▁pancreati	-11.8135
▁stranger	-11.8137
▁lawless	-11.8144
▁cheat	-11.8146
▁lynn	-11.815
▁stair	-11.8156
▁depressed	-11.8165
▁ip	-11.8167
▁samba	-11.817
▁doo	-11.8174
pe	-11.8179
yuz	-11.8181
▁prop	-11.8183
ulu	-11.8185
oi	-11.8185
▁perch	-11.8186
▁toppl	-11.8189
▁males	-11.8201
▁assassinate	-11.821
▁crippl	-11.8214
lit	-11.8222
▁verifi	-11.823
▁masa	-11.8233
ife	-11.8233
▁starv	-11.8234
▁pric	-11.824
awa	-11.8241
▁liqu	-11.8249
ement	-11.8254
▁snap	-11.8256
▁rub	-11.8268
▁recommends	-11.8273
ition	-11.8277
▁rust	-11.8285
tting	-11.8292
rine	-11.8294
▁bury	-11.8294
▁hyper	-11.8303
wick	-11.8307
▁rem	-11.8308
▁devot	-11.831
▁jud	-11.8311
▁stabiliz	-11.8313
▁chae	-11.8314
▁emotions	-11.8316
▁detonate	-11.832
▁morocc	-11.832
▁wise	-11.8333
▁cre	-11.8336
▁pine	-11.8343
▁suz	-11.8345
napoli	-11.8345
eong	-11.8347
▁trauma	-11.8347
▁pedr	-11.8353
jani	-11.8354
▁sue	-11.8354
▁blade	-11.8355
▁credibl	-11.836
ateur	-11.8363
▁mates	-11.8366
▁provoke	-11.8368
▁partisan	-11.8372
▁fuse	-11.8373
▁corpse	-11.8383
▁retract	-11.8383
▁pill	-11.8389
rwin	-11.8398
▁corre	-11.8405
oria	-11.8411
▁iranians	-11.8414
ference	-11.8421
och	-11.8425
▁kyong	-11.8429
▁serie	-11.8435
schne	-11.8437
▁educat	-11.8439
eh	-11.8442
▁troubles	-11.8455
▁sala	-11.8461
zi	-11.8465
▁brac	-11.8479
▁donation	-11.849
gar	-11.8495
▁snatch	-11.8496
▁barks	-11.8497
▁entit	-11.8501
▁berk	-11.8519
▁maru	-11.8521
▁doubl	-11.8521
dominant	-11.8543
▁ruins	-11.8548
ik	-11.8548
▁genom	-11.8549
kto	-11.8551
▁tipp	-11.8553
onda	-11.8558
old	-11.8567
▁beard	-11.8571
▁ros	-11.8579
we	-11.8594
▁collid	-11.8594
inous	-11.8603
odor	-11.8606
▁levi	-11.8612
▁blackmail	-11.862
▁philosoph	-11.862
▁kh	-11.8624
▁dip	-11.8626
▁arl	-11.8626
▁candle	-11.8629
▁sensation	-11.8632
▁boycotted	-11.8632
▁intentional	-11.8633
▁gigg	-11.8643
▁bris	-11.8647
beat	-11.8652
▁compil	-11.8653
niste	-11.8654
▁shower	-11.8656
continent	-11.8656
cheong	-11.8657
▁jams	-11.8658
deal	-11.8659
scale	-11.866
▁admitt	-11.8662
kawa	-11.8662
▁skip	-11.8667
▁donat	-11.8672
nom	-11.8676
stair	-11.8681
ew	-11.8687
▁blues	-11.8689
ky	-11.8694
pate	-11.8697
▁fundrais	-11.8697
uart	-11.8699
due	-11.87
aron	-11.87
ecd	-11.8701
▁veer	-11.8705
eval	-11.8709
▁cur	-11.871
▁albatross	-11.8718
▁archbishop	-11.8718
▁archipelag	-11.8718
▁azerbaijan	-11.8718
▁centrifuge	-11.8718
▁diarrhea	-11.8718
▁eagle	-11.8718
▁fragment	-11.8718
▁mosquito	-11.8718
▁nutrient	-11.8718
▁temblor	-11.8718
▁wizard	-11.8718
▁corridor	-11.8718
▁firearm	-11.8718
▁sanctuar	-11.8718
▁sculpture	-11.8718
▁exaggerat	-11.8718
▁mogul	-11.8718
▁paramilitar	-11.8718
▁vendor	-11.8718
▁resurgen	-11.8718
▁abnormal	-11.8718
▁standstill	-11.8718
▁inherit	-11.8718
▁pandemic	-11.8718
▁gloom	-11.8718
▁adjourn	-11.8718
▁clown	-11.8718
▁chemist	-11.8718
▁rhythm	-11.8718
▁roadblock	-11.8718
▁rooftop	-11.8718
▁lehman	-11.8718
▁overshadow	-11.8718
▁siberia	-11.8718
▁elegan	-11.8718
▁heavyweight	-11.8718
▁slaying	-11.8718
▁abram	-11.8718
▁stump	-11.8719
▁halloween	-11.8719
▁enron	-11.8719
▁disband	-11.8719
atero	-11.8719
▁description	-11.8719
▁feather	-11.8719
▁robinson	-11.8719
▁estrange	-11.872
▁gerald	-11.872
▁overdose	-11.872
▁courageous	-11.872
▁forthcoming	-11.872
▁jacket	-11.8721
▁tan	-11.8721
▁conner	-11.8721
▁interactive	-11.8721
▁gangster	-11.8722
▁blacksburg	-11.8722
▁cigar	-11.8722
▁newborn	-11.8724
▁alvar	-11.8725
▁waiver	-11.8725
▁coloss	-11.8726
▁foul	-11.8727
▁checkup	-11.8728
▁dismissal	-11.8728
▁elector	-11.8728
▁reef	-11.8728
▁moroccan	-11.8728
▁gripp	-11.873
▁nile	-11.873
▁consolidat	-11.873
▁carriage	-11.8731
▁transformation	-11.8731
▁hardship	-11.8731
▁rever	-11.8732
▁zambia	-11.8732
▁crest	-11.8734
▁backward	-11.8734
▁portrayal	-11.8734
▁roland	-11.8736
▁yemeni	-11.8737
▁kook	-11.8737
▁scorch	-11.8739
▁algerian	-11.8742
zvo	-11.8745
▁fisheries	-11.8746
▁squeez	-11.8748
bye	-11.875
▁fledg	-11.8755
uc	-11.8758
▁plantation	-11.8759
▁mineral	-11.8766
rimp	-11.8766
▁patch	-11.8766
▁qara	-11.8767
▁bund	-11.8768
▁vanish	-11.8769
▁valentin	-11.8771
▁wishes	-11.8773
▁assembl	-11.8774
▁vera	-11.8774
▁kel	-11.8775
▁capitalist	-11.8777
▁moss	-11.8777
formed	-11.8786
shmi	-11.8788
▁buyout	-11.8788
nam	-11.8792
▁maul	-11.8792
ci	-11.8792
▁gue	-11.8803
vin	-11.8804
▁cle	-11.8811
▁um	-11.8812
▁particles	-11.8825
diaz	-11.8833
idf	-11.8836
▁forbidd	-11.8844
vian	-11.8847
▁klo	-11.8848
▁orient	-11.8848
state	-11.8856
▁nano	-11.886
▁pap	-11.8862
▁inflammat	-11.8863
▁naf	-11.8864
▁tortur	-11.8866
▁sabotage	-11.8866
▁merit	-11.8878
▁congratulate	-11.8887
▁inhal	-11.8888
ram	-11.8888
▁mag	-11.889
errill	-11.8892
law	-11.8896
▁emergenc	-11.8897
▁leaning	-11.8903
▁zin	-11.8905
▁unifi	-11.8909
▁stoke	-11.8909
▁mari	-11.8929
▁aut	-11.8932
▁bounc	-11.8942
coni	-11.8951
ink	-11.8951
ix	-11.896
▁invad	-11.8991
▁rage	-11.9004
pping	-11.9005
asha	-11.9005
▁bash	-11.9016
▁clan	-11.9018
rek	-11.9028
ken	-11.9038
▁tian	-11.9038
▁funn	-11.9039
ali	-11.9039
▁sau	-11.9043
▁maure	-11.9046
▁scholar	-11.905
mun	-11.9051
▁lighter	-11.9056
eparation	-11.9061
▁rand	-11.9064
▁para	-11.9066
▁lap	-11.9067
▁robbe	-11.9071
riza	-11.9071
ylan	-11.9073
▁spat	-11.9074
italia	-11.9077
▁zo	-11.9077
▁hano	-11.9088
▁manufacture	-11.9098
▁espi	-11.9104
▁pak	-11.9121
chen	-11.9124
▁lett	-11.9126
▁pod	-11.9126
▁reinforce	-11.9127
aria	-11.913
▁undermin	-11.9132
trick	-11.9136
aiss	-11.9137
take	-11.9148
fax	-11.9149
▁holm	-11.9153
▁crumbl	-11.9153
▁za	-11.9156
▁todd	-11.916
▁naga	-11.9163
▁dependenc	-11.9163
▁raz	-11.9166
▁cy	-11.9169
▁tur	-11.9171
▁repli	-11.9174
teau	-11.9178
ague	-11.9179
▁deb	-11.9181
▁devote	-11.9187
▁deer	-11.9189
rada	-11.919
▁motivate	-11.919
▁arise	-11.9191
▁relocate	-11.9198
mble	-11.9202
▁eva	-11.9204
ovic	-11.9205
▁correction	-11.9207
zawa	-11.9209
anda	-11.9218
▁stre	-11.9229
▁wilder	-11.9232
abel	-11.9244
▁stabb	-11.9245
▁extradit	-11.9249
wi	-11.926
related	-11.9264
▁balk	-11.9266
ngdu	-11.9274
nnie	-11.9276
▁mario	-11.928
▁wie	-11.9281
ires	-11.9286
ngue	-11.9291
▁arch	-11.9297
▁killers	-11.9301
▁ruth	-11.9307
nis	-11.9308
▁persuad	-11.9316
earby	-11.9316
are	-11.9321
▁emm	-11.9322
constitutional	-11.9323
▁neuro	-11.9326
▁kn	-11.9335
ied	-11.9348
▁hawkin	-11.9348
▁renounce	-11.9352
▁polit	-11.9358
▁bless	-11.936
▁drinker	-11.936
nver	-11.9362
▁bulgaria	-11.9366
pisco	-11.9366
▁capita	-11.9371
▁clemen	-11.9373
▁cana	-11.9374
▁bruis	-11.9378
▁heath	-11.938
iquit	-11.9381
anana	-11.9383
lihood	-11.9383
hansa	-11.9384
▁charisma	-11.9384
▁affidavit	-11.9384
▁charlotte	-11.9384
▁defensive	-11.9384
▁dissatisf	-11.9384
▁explicit	-11.9384
▁paraguay	-11.9384
▁reconsider	-11.9384
▁unleash	-11.9384
▁unnecessar	-11.9384
▁bystander	-11.9384
▁surname	-11.9384
▁unearth	-11.9384
▁vomit	-11.9384
▁overheat	-11.9384
▁gorge	-11.9384
▁sherpa	-11.9384
▁vinci	-11.9384
▁filipino	-11.9385
▁johansson	-11.9385
▁justify	-11.9385
▁warlord	-11.9385
▁dynamic	-11.9385
▁provocation	-11.9385
▁wholesale	-11.9385
▁grocer	-11.9385
▁memoir	-11.9385
▁skeleton	-11.9385
▁excellent	-11.9385
▁adj	-11.9385
▁rebuke	-11.9385
▁theatre	-11.9385
▁coffin	-11.9385
▁falter	-11.9385
▁clamp	-11.9385
▁meltdown	-11.9385
▁email	-11.9385
▁hanaro	-11.9386
▁orphanage	-11.9386
▁spacewalk	-11.9386
▁roam	-11.9386
▁stroll	-11.9386
▁disturbance	-11.9387
▁adolescent	-11.9387
▁bennett	-11.9387
▁absorb	-11.9388
▁swamp	-11.9388
▁shortfall	-11.9389
▁deterrent	-11.9389
▁dignitar	-11.939
▁regiment	-11.939
▁peel	-11.939
▁scout	-11.939
▁cramp	-11.939
▁martial	-11.939
▁inevitabl	-11.939
▁kirk	-11.9391
▁battlefield	-11.9393
▁benoi	-11.9395
dysse	-11.9395
▁defiant	-11.9395
▁facto	-11.9399
iko	-11.9399
▁farmland	-11.9399
acent	-11.94
▁mali	-11.9404
▁reap	-11.9404
▁classmate	-11.9405
▁rental	-11.9405
jeon	-11.9406
▁pot	-11.9408
▁anymore	-11.9408
▁char	-11.9408
▁hy	-11.9409
▁budd	-11.9409
▁slapp	-11.9409
▁olive	-11.941
▁desir	-11.9411
▁jogg	-11.9412
▁teach	-11.9412
▁hugh	-11.9415
▁swam	-11.9415
▁brewer	-11.9415
▁amber	-11.9415
▁feli	-11.9415
▁pleasure	-11.9416
▁horribl	-11.9425
▁swarm	-11.9425
▁buffet	-11.9426
▁thorn	-11.9429
luster	-11.9432
▁ameli	-11.9436
▁max	-11.9436
▁cox	-11.9437
▁reminder	-11.9438
▁reminiscen	-11.9439
ilo	-11.9441
▁soak	-11.9442
▁listing	-11.9444
bert	-11.9448
▁merc	-11.9448
▁eco	-11.945
▁stray	-11.9451
▁esta	-11.9451
▁mint	-11.9452
▁ghan	-11.9453
▁compile	-11.9456
▁reassure	-11.9456
▁rupe	-11.9457
▁showcase	-11.9459
▁complicate	-11.946
▁doming	-11.946
▁motivation	-11.9463
▁wrestl	-11.9465
▁freezer	-11.9466
▁fog	-11.947
▁pesh	-11.947
▁reproducti	-11.9474
▁reel	-11.9475
▁valeri	-11.9475
▁walkout	-11.9475
▁nabi	-11.9479
▁gere	-11.9479
▁ger	-11.9485
▁nap	-11.9486
▁blackout	-11.9487
maker	-11.9491
▁nett	-11.9494
▁tackl	-11.9495
▁vip	-11.9505
▁refiner	-11.9507
crates	-11.9512
▁tide	-11.9513
ery	-11.9514
▁hen	-11.9524
▁kb	-11.953
hk	-11.9534
▁seo	-11.9536
▁quota	-11.9536
▁reviews	-11.9536
agen	-11.9548
irming	-11.9551
▁accommodate	-11.9552
▁hijacker	-11.9554
hwa	-11.9554
▁dash	-11.9557
▁cam	-11.9565
iffe	-11.9566
diac	-11.9573
▁reiterate	-11.9576
ax	-11.9578
▁precedent	-11.9582
▁vaccines	-11.9585
▁resistan	-11.9589
inal	-11.9591
▁dodg	-11.9596
▁receiver	-11.9599
▁rode	-11.9604
▁butter	-11.9605
zemi	-11.9607
▁cheon	-11.9607
cent	-11.9607
eigh	-11.9624
sif	-11.9624
▁gum	-11.9632
▁hend	-11.964
▁tier	-11.9642
battle	-11.9646
▁barb	-11.9647
▁sword	-11.965
▁pul	-11.9651
▁xi	-11.9671
eba	-11.9674
thur	-11.9674
enna	-11.9674
▁waterway	-11.9677
▁lago	-11.9678
▁mandel	-11.9683
▁disciplin	-11.9684
nction	-11.9699
▁casp	-11.9699
acks	-11.9705
▁roo	-11.9709
▁fascinat	-11.9713
▁pas	-11.9717
▁zhu	-11.9722
▁spect	-11.973
▁bernie	-11.9735
▁interven	-11.9739
ica	-11.9741
▁kan	-11.9752
▁marco	-11.9752
▁enabl	-11.9754
▁closet	-11.976
▁crossings	-11.9769
▁relation	-11.9773
lain	-11.9788
bes	-11.9789
▁outlet	-11.979
▁reliev	-11.979
▁dome	-11.9791
ailing	-11.9791
▁reliabl	-11.9792
dson	-11.9807
▁quantit	-11.9808
op	-11.9809
▁sanit	-11.9813
▁cal	-11.9814
lula	-11.9816
▁periodic	-11.9819
▁burk	-11.9828
▁dav	-11.9834
unt	-11.9835
▁wil	-11.9842
pi	-11.9843
▁recogniz	-11.9846
▁casual	-11.9847
▁yama	-11.9854
sule	-11.9855
▁cris	-11.9859
ark	-11.9867
▁anticipate	-11.9872
reva	-11.9873
▁belly	-11.9874
▁lunche	-11.9875
▁sag	-11.9875
▁calculate	-11.9885
▁morale	-11.9894
▁initiat	-11.991
▁insider	-11.9912
onso	-11.9918
▁accessor	-11.9923
▁pra	-11.993
▁embezzl	-11.9932
▁jav	-11.9943
ji	-11.9943
▁trapp	-11.9948
▁xian	-11.995
▁translate	-11.9967
gue	-11.9968
kin	-11.9969
▁compensate	-11.9973
▁duja	-11.9987
▁integrate	-11.9993
▁zi	-11.9995
alkati	-11.9997
▁hal	-12.0005
▁jess	-12.0005
fan	-12.0006
▁destructi	-12.0007
▁proportion	-12.0014
gate	-12.0021
istic	-12.0021
▁default	-12.0023
▁litter	-12.0024
▁von	-12.0024
▁hoon	-12.0025
▁gunfi	-12.0031
drop	-12.0035
frame	-12.0037
model	-12.0037
secretary	-12.0038
morning	-12.0038
morgan	-12.0041
sman	-12.0041
gomer	-12.0048
▁domini	-12.0048
▁heel	-12.0048
ologist	-12.0049
▁revers	-12.0054
▁vil	-12.0055
▁mediate	-12.0056
▁pale	-12.0058
▁deserves	-12.0061
stability	-12.0063
▁squeeze	-12.0064
▁tele	-12.0064
▁ib	-12.0065
heim	-12.0067
▁shau	-12.0072
ffen	-12.0075
▁scho	-12.0075
ti	-12.0081
roads	-12.0082
▁reluctan	-12.0083
▁envelope	-12.0085
▁laund	-12.0091
▁spawn	-12.0094
▁evacu	-12.0095
▁corrupt	-12.0095
▁conspir	-12.0096
▁orphan	-12.0097
▁pediatric	-12.0098
tana	-12.0098
▁acclaim	-12.0099
▁accumulate	-12.0099
▁barclay	-12.0099
▁fugitive	-12.0099
▁gondola	-12.0099
▁jaguar	-12.0099
▁jurisdiction	-12.0099
▁lithuania	-12.0099
▁malfunction	-12.0099
▁motorbike	-12.0099
▁nephew	-12.0099
▁ossuar	-12.0099
▁rainforest	-12.0099
▁rendition	-12.0099
▁ritchie	-12.0099
▁sanchez	-12.0099
▁specify	-12.0099
▁curtain	-12.0099
▁evident	-12.0099
▁fortunate	-12.0099
▁relegat	-12.0099
▁reshuffl	-12.0099
▁tariff	-12.0099
▁telegraph	-12.0099
▁pneum	-12.0099
▁thumb	-12.0099
▁submarine	-12.0099
▁superstar	-12.0099
▁dupre	-12.0099
▁muhammad	-12.0099
▁foreclosure	-12.0099
▁gilbert	-12.0099
▁minimiz	-12.0099
▁enlist	-12.0099
▁minimal	-12.0099
▁blanchett	-12.0099
▁freud	-12.0099
▁envision	-12.0099
▁reunion	-12.0099
▁hajj	-12.0099
▁textile	-12.0099
▁emmanuel	-12.0099
▁lawrence	-12.0099
▁cyberspace	-12.0099
▁expulsion	-12.0099
▁throng	-12.0099
▁eduard	-12.0099
▁redeployment	-12.01
▁blacklist	-12.01
▁hoop	-12.01
▁tread	-12.01
▁felon	-12.01
▁crab	-12.01
▁annoy	-12.01
▁physicist	-12.01
▁imagination	-12.01
▁exert	-12.01
▁orientation	-12.01
▁perpetrator	-12.0101
▁frantic	-12.0101
▁elbow	-12.0101
▁footprint	-12.0101
▁notify	-12.0101
▁imam	-12.0101
▁nickel	-12.0101
▁leverage	-12.0101
▁yoko	-12.0101
▁zebra	-12.0101
▁phrase	-12.0101
▁rejoin	-12.0102
▁ideological	-12.0102
▁invention	-12.0102
▁racist	-12.0103
▁verbal	-12.0103
▁systematic	-12.0103
▁derby	-12.0103
▁thigh	-12.0103
▁jihadist	-12.0104
▁pilgrimage	-12.0104
▁adaptation	-12.0105
▁fundamentalist	-12.0105
▁swimmer	-12.0105
▁migration	-12.0106
▁tran	-12.0106
▁lenient	-12.0106
▁peek	-12.0107
▁interpretation	-12.0107
▁nightmare	-12.0107
▁billboard	-12.0108
▁luther	-12.0108
▁deaf	-12.0108
▁emitt	-12.0109
▁chopper	-12.0109
▁zeb	-12.0111
▁hideout	-12.0112
▁hinder	-12.0114
▁sulli	-12.0114
▁foment	-12.0114
▁matchup	-12.0114
fo	-12.0115
▁steelers	-12.0115
▁homeowner	-12.0115
▁trench	-12.0117
lis	-12.0118
ritis	-12.0119
▁wrestler	-12.0119
▁irra	-12.0122
▁jamaican	-12.0125
▁tenth	-12.0126
▁hogan	-12.0127
▁ridge	-12.0131
▁combatant	-12.0131
▁camero	-12.0131
▁everton	-12.0131
▁meyer	-12.0131
▁rug	-12.0131
▁crane	-12.0134
▁jem	-12.0135
rgency	-12.0136
▁incit	-12.0137
▁conductor	-12.0137
ft	-12.0138
▁mock	-12.015
una	-12.0155
▁fried	-12.0156
▁humane	-12.0157
▁bri	-12.0158
ite	-12.0167
text	-12.0167
uez	-12.0167
▁grove	-12.0168
▁impressed	-12.0169
▁cove	-12.0171
▁dipped	-12.0172
▁oz	-12.0175
▁philipp	-12.0179
▁stil	-12.0185
▁eli	-12.0186
thic	-12.0188
▁enthusiastic	-12.0188
▁zay	-12.0194
▁interviewer	-12.0195
▁alme	-12.0213
▁hik	-12.0215
▁salam	-12.0225
▁bro	-12.0227
gs	-12.0232
▁paradi	-12.0232
ore	-12.0242
▁exceptional	-12.0243
▁stam	-12.0246
pl	-12.0249
▁pir	-12.0249
▁bureaucrat	-12.025
▁slice	-12.0252
▁underline	-12.0253
▁fend	-12.0254
▁adel	-12.0256
▁chau	-12.0257
▁masse	-12.0257
▁secretari	-12.0257
▁yun	-12.0259
▁communicat	-12.0261
▁offset	-12.0261
safe	-12.0263
▁shre	-12.0264
xis	-12.0267
toff	-12.0268
yev	-12.0275
ico	-12.0277
hita	-12.0279
▁tile	-12.0281
▁dancer	-12.0281
awar	-12.0282
reze	-12.0283
oval	-12.0287
▁decorat	-12.0289
▁enforc	-12.0292
▁mason	-12.0293
nants	-12.0296
aved	-12.0307
▁gra	-12.031
▁defuse	-12.0313
▁audiences	-12.0317
▁gotte	-12.0317
▁kas	-12.0324
▁ryo	-12.0329
▁regrett	-12.0335
▁mul	-12.034
fraction	-12.0343
ue	-12.035
▁lah	-12.0352
▁integrati	-12.0358
▁fosse	-12.0364
▁claudi	-12.0367
▁qui	-12.0373
▁timo	-12.0376
▁prosecut	-12.0377
riel	-12.0382
▁paw	-12.0385
▁exhaust	-12.0387
▁fle	-12.039
▁bir	-12.0394
anxi	-12.0405
▁lan	-12.0412
ehan	-12.0419
▁deplor	-12.0419
tte	-12.0422
abo	-12.0444
▁robin	-12.0449
▁gard	-12.045
▁kha	-12.0455
▁kati	-12.0465
pot	-12.047
bola	-12.0473
▁retaliat	-12.0476
▁rout	-12.0483
▁pizz	-12.0485
▁gamble	-12.0496
▁suite	-12.05
illa	-12.0501
▁hatch	-12.0503
▁fam	-12.0522
uz	-12.0523
▁viag	-12.0528
zone	-12.0529
ersen	-12.0537
uso	-12.0563
▁alg	-12.0564
▁jitter	-12.0565
▁vent	-12.0566
▁finn	-12.0574
▁mcc	-12.0579
▁burt	-12.0579
▁gag	-12.0586
▁daw	-12.059
▁supervisi	-12.0592
▁credi	-12.0597
▁mm	-12.0598
▁coaster	-12.0608
action	-12.0609
▁transmitt	-12.0612
horn	-12.0613
glasses	-12.0614
▁rocker	-12.0617
eaten	-12.0634
▁stockhol	-12.0635
illy	-12.0645
▁cro	-12.0649
▁malign	-12.0669
sang	-12.0674
egas	-12.0677
▁jab	-12.0684
▁forge	-12.0688
▁territori	-12.0694
nstein	-12.07
▁harle	-12.0706
voi	-12.0709
▁dora	-12.0712
▁censor	-12.0712
hang	-12.0714
▁lis	-12.0721
sibility	-12.0723
errez	-12.0729
▁prest	-12.0741
▁render	-12.0741
▁colli	-12.0744
▁darre	-12.0745
▁aggravate	-12.0746
▁seasons	-12.0747
▁stirr	-12.0758
▁vacan	-12.0759
▁firefight	-12.0769
liga	-12.0775
erber	-12.0778
▁deter	-12.0779
kind	-12.0792
▁graves	-12.0792
niya	-12.0792
▁boni	-12.0795
▁strapp	-12.0801
▁galax	-12.0802
look	-12.0806
together	-12.0807
▁boundar	-12.0807
around	-12.0807
▁associates	-12.0808
▁seeds	-12.081
res	-12.081
roll	-12.0812
four	-12.0813
▁disclos	-12.0819
▁continuous	-12.082
▁logg	-12.082
▁clutch	-12.0822
▁bun	-12.0823
▁freight	-12.0825
hurt	-12.0826
▁bibl	-12.0826
▁ump	-12.0829
▁messag	-12.0831
▁extinguish	-12.0834
▁braun	-12.0836
▁laborer	-12.0837
▁undern	-12.0839
reau	-12.0847
life	-12.0852
▁cull	-12.0855
▁bite	-12.0857
▁blend	-12.0858
▁emphasi	-12.086
▁cite	-12.0863
▁builder	-12.0865
▁administer	-12.0868
▁aggregate	-12.0868
▁chimpanzee	-12.0868
▁clarify	-12.0868
▁convenience	-12.0868
▁eyewitness	-12.0868
▁frequenc	-12.0868
▁insufficient	-12.0868
▁mathematic	-12.0868
▁neglect	-12.0868
▁plaintiff	-12.0868
▁salvador	-12.0868
▁scooter	-12.0868
▁resurrect	-12.0868
▁sporadic	-12.0868
▁comrade	-12.0868
▁warrior	-12.0868
▁ecosystem	-12.0868
▁erotic	-12.0868
▁mauritania	-12.0868
▁leopard	-12.0868
▁polanski	-12.0868
▁knox	-12.0868
▁smurf	-12.0868
▁barroso	-12.0868
▁sermon	-12.0868
▁delaware	-12.0868
▁bimbo	-12.0868
▁anglican	-12.0868
▁ceasefire	-12.0869
▁rope	-12.0869
▁annul	-12.0869
▁cedar	-12.0869
▁thieves	-12.0869
▁celtic	-12.0869
▁bachelor	-12.087
▁volley	-12.087
▁garrison	-12.087
▁discard	-12.087
misunderstanding	-12.087
▁salute	-12.087
▁spotlight	-12.087
▁collaborator	-12.0871
▁ginger	-12.0871
▁insight	-12.0871
▁flatten	-12.0871
▁characteristic	-12.0871
▁rabbit	-12.0871
▁elvi	-12.0872
▁fool	-12.0872
▁compell	-12.0872
▁marble	-12.0872
▁abdomen	-12.0872
▁quinn	-12.0872
▁legitima	-12.0872
ussain	-12.0873
▁unfold	-12.0873
▁reptile	-12.0873
▁gown	-12.0873
▁canister	-12.0874
ukov	-12.0875
▁purse	-12.0875
▁pupp	-12.0875
▁frenz	-12.0876
▁normalization	-12.0876
▁intimate	-12.0876
▁kennel	-12.0878
▁breakdown	-12.0878
▁heroic	-12.0878
▁roche	-12.0878
immer	-12.088
▁shotgun	-12.088
▁deliberation	-12.0881
▁feast	-12.0882
▁authoritarian	-12.0882
▁disneyland	-12.0882
▁qin	-12.0882
▁baptist	-12.0882
▁refineries	-12.0882
▁prohibition	-12.0882
▁assignment	-12.0883
▁wagon	-12.0883
guet	-12.0884
kanit	-12.0884
▁barney	-12.0884
▁chef	-12.0884
▁collector	-12.0885
▁liberia	-12.0886
▁calder	-12.0888
▁nutrition	-12.0888
▁cypr	-12.0889
▁shootout	-12.0889
▁rip	-12.089
▁spaceship	-12.0892
▁molest	-12.0895
▁hillside	-12.0896
heddin	-12.0897
▁modifie	-12.0898
▁montrea	-12.0899
▁flies	-12.0904
▁entertainer	-12.0904
kins	-12.0904
▁coward	-12.0905
▁startup	-12.0905
▁reconn	-12.0906
▁affection	-12.0908
▁degrad	-12.091
▁balco	-12.0911
▁versa	-12.0911
▁libi	-12.0913
▁adventurer	-12.0914
▁skidd	-12.0915
aire	-12.0915
rov	-12.0916
▁clone	-12.0916
▁myth	-12.0918
▁evaluate	-12.0918
▁stimulate	-12.092
▁meal	-12.0922
▁hallway	-12.0923
▁stark	-12.0925
▁wong	-12.0925
▁lat	-12.0929
▁stack	-12.0929
▁trev	-12.0932
▁plagu	-12.0933
▁dogged	-12.0934
▁participati	-12.0935
▁downer	-12.0939
▁defy	-12.0943
atus	-12.0943
▁shall	-12.0945
▁cultivat	-12.0948
▁lari	-12.0948
ites	-12.0951
▁fax	-12.0953
▁relian	-12.0955
▁programme	-12.0959
▁proportional	-12.096
▁berl	-12.0962
▁abn	-12.0963
▁raft	-12.0963
caul	-12.0964
▁lexi	-12.0965
ushi	-12.0965
▁dresse	-12.0965
▁banker	-12.0966
▁wei	-12.0966
▁exercis	-12.0966
asso	-12.0967
▁schult	-12.0967
▁packs	-12.0969
▁provisional	-12.0974
▁mona	-12.0978
▁industrializ	-12.0981
▁exo	-12.0987
▁buff	-12.0989
▁ounces	-12.0994
aewoo	-12.0995
▁creditor	-12.1
iband	-12.1001
▁concentrat	-12.1002
▁reut	-12.1007
▁stirring	-12.101
ski	-12.1014
▁munition	-12.1015
▁pier	-12.1016
▁charl	-12.1019
▁disapprov	-12.102
▁ann	-12.1021
▁elde	-12.1022
enza	-12.1027
▁nawa	-12.1029
yu	-12.103
ake	-12.1047
ncy	-12.1048
▁gam	-12.1052
ph	-12.1054
▁influen	-12.1063
pb	-12.1064
▁armis	-12.1071
▁popul	-12.1076
oc	-12.1079
▁sake	-12.1081
▁hans	-12.1084
▁shaky	-12.1085
ama	-12.1088
▁hindus	-12.1098
wp	-12.11
▁toshi	-12.1103
▁bucking	-12.1104
ussi	-12.1104
▁watt	-12.1113
▁lime	-12.112
▁oman	-12.1122
▁dori	-12.1129
▁freeway	-12.113
▁pools	-12.113
▁crist	-12.1131
▁cling	-12.1135
▁stevens	-12.1139
▁collide	-12.114
▁mono	-12.1143
nian	-12.1148
▁uphold	-12.1148
all	-12.1156
▁beak	-12.1161
▁seon	-12.1162
▁qua	-12.1162
▁papa	-12.1167
▁confus	-12.1167
emory	-12.1175
▁sup	-12.1176
▁scal	-12.1191
ipped	-12.1194
elhof	-12.1196
uster	-12.1199
▁clause	-12.12
ahn	-12.1207
oppo	-12.1209
▁fetch	-12.1214
rgen	-12.1214
▁leno	-12.1219
▁nim	-12.1221
▁interrogat	-12.1221
▁geo	-12.1222
grow	-12.123
▁astonish	-12.1244
▁pett	-12.1248
▁sights	-12.1254
dell	-12.1254
bur	-12.1254
than	-12.1258
ouf	-12.1265
▁finaliz	-12.1267
▁estra	-12.1269
▁outlin	-12.1272
▁thriv	-12.1273
ears	-12.1274
ines	-12.1274
workers	-12.1279
▁lal	-12.1286
iz	-12.1289
▁advisors	-12.1298
▁biograph	-12.1301
▁dive	-12.1304
▁governors	-12.1305
▁highland	-12.1305
eb	-12.131
kee	-12.1311
▁tumble	-12.1317
nsu	-12.1322
rjee	-12.1324
▁hungar	-12.1325
clara	-12.133
matic	-12.1337
▁webb	-12.1339
▁discipline	-12.134
▁shells	-12.1346
saw	-12.1348
▁preach	-12.1348
▁lips	-12.1354
▁ic	-12.1357
▁opener	-12.1358
▁gase	-12.1361
▁dill	-12.1369
▁resource	-12.1373
▁arrangement	-12.1373
▁prosecute	-12.1374
▁dh	-12.1375
▁dim	-12.1378
▁albums	-12.139
▁rafi	-12.1397
tun	-12.1398
▁lang	-12.1403
ria	-12.1403
▁schum	-12.1404
▁shout	-12.1407
▁compuls	-12.1415
ru	-12.1418
▁def	-12.142
▁gabriel	-12.1422
saki	-12.1425
▁leve	-12.1426
▁pol	-12.1429
▁tangib	-12.1431
unting	-12.1448
▁stat	-12.1454
rap	-12.1463
▁seale	-12.1475
dida	-12.1475
velt	-12.1478
▁maid	-12.1479
zak	-12.148
▁mobiliz	-12.1483
▁dai	-12.1495
▁origins	-12.1505
▁dian	-12.1514
dian	-12.1515
sville	-12.1518
umn	-12.1521
▁vai	-12.1528
oke	-12.1528
▁compris	-12.1538
▁log	-12.1539
▁flavor	-12.1546
acio	-12.1546
▁cate	-12.1554
▁appreciat	-12.1561
▁silic	-12.1569
iji	-12.1583
▁litera	-12.1598
▁josh	-12.1604
▁patt	-12.1605
▁chatt	-12.1606
▁norm	-12.161
decent	-12.1633
nutrition	-12.1638
sleep	-12.1641
zio	-12.1642
rose	-12.1642
foot	-12.1643
▁meteorolog	-12.1644
eads	-12.1647
▁saga	-12.1649
▁advoca	-12.1652
▁normaliz	-12.1668
▁roth	-12.167
ging	-12.1674
marked	-12.1675
cer	-12.1681
▁albania	-12.1683
▁lava	-12.1684
▁viewing	-12.1685
ctic	-12.1686
▁integrat	-12.1687
▁bike	-12.1689
▁clint	-12.1694
▁flip	-12.1694
▁schn	-12.1697
ating	-12.1697
mpact	-12.1698
▁abdulla	-12.1699
▁happi	-12.17
▁worship	-12.1701
▁betray	-12.1701
▁palestin	-12.1701
▁awkward	-12.1701
▁alejandr	-12.1701
▁avalanche	-12.1701
▁cantaloupe	-12.1701
▁carnival	-12.1701
▁cockpit	-12.1701
▁constituenc	-12.1701
▁juventu	-12.1701
▁leisure	-12.1701
▁overflow	-12.1701
▁pavilion	-12.1701
▁precondition	-12.1701
▁rockefeller	-12.1701
▁scowcroft	-12.1701
▁skyrocket	-12.1701
▁tarmac	-12.1701
▁trinidad	-12.1701
▁ultimatum	-12.1701
▁upheaval	-12.1701
▁adolf	-12.1701
▁caesar	-12.1701
▁outnumber	-12.1701
▁aurora	-12.1701
▁voyage	-12.1701
▁specimen	-12.1701
▁namdaemu	-12.1701
▁thymus	-12.1701
▁cheetah	-12.1701
▁sindh	-12.1701
▁blackberr	-12.1701
▁jalal	-12.1701
▁quadruple	-12.1701
▁superjumbo	-12.1701
▁mujah	-12.1701
▁flank	-12.1701
▁identical	-12.1701
▁desktop	-12.1702
▁embroi	-12.1702
▁suitcase	-12.1702
▁prevail	-12.1702
▁unify	-12.1702
▁creek	-12.1702
▁patern	-12.1702
▁abdom	-12.1702
▁vague	-12.1702
▁intoxicat	-12.1702
omaha	-12.1702
▁cesar	-12.1702
▁forehand	-12.1702
▁crouch	-12.1702
▁complicit	-12.1702
▁faint	-12.1702
▁cubic	-12.1703
▁mixture	-12.1703
▁analog	-12.1703
▁muddy	-12.1703
▁gym	-12.1703
▁workshop	-12.1704
▁enrollment	-12.1704
▁boulo	-12.1704
lender	-12.1705
▁headphone	-12.1705
eille	-12.1705
▁primate	-12.1705
▁bulldozer	-12.1705
▁shunn	-12.1705
▁ricard	-12.1705
▁guti	-12.1705
▁psychiatrist	-12.1705
▁architecture	-12.1705
▁bradley	-12.1706
▁feline	-12.1706
▁fabrication	-12.1707
zan	-12.1707
ehr	-12.1707
▁marshall	-12.1707
▁calculation	-12.1708
▁aisle	-12.1708
▁feminin	-12.1709
▁iceberg	-12.1709
▁compatible	-12.171
▁innovation	-12.171
ollea	-12.1712
▁downgrade	-12.1713
▁hopkin	-12.1713
▁multimillion	-12.1713
▁depiction	-12.1714
▁thaw	-12.1714
▁void	-12.1714
▁weightless	-12.1715
▁windsor	-12.1715
▁balkan	-12.1715
▁colorful	-12.1716
▁turkmen	-12.1716
▁burri	-12.1716
▁dimensional	-12.1716
▁barber	-12.1717
oir	-12.1718
▁cement	-12.1719
clusion	-12.172
▁kwan	-12.172
▁counselor	-12.172
▁sniper	-12.172
▁diwa	-12.1721
achi	-12.1721
▁mountainside	-12.1722
▁sniff	-12.1722
aah	-12.1723
ane	-12.1723
▁woodland	-12.1723
▁petrol	-12.1724
▁downward	-12.1724
▁clement	-12.1726
▁hoff	-12.1727
wadd	-12.1728
▁pegg	-12.173
▁motorist	-12.1731
▁claw	-12.1732
▁temper	-12.1732
▁escalator	-12.1735
▁sunny	-12.1737
▁hospitalization	-12.174
▁flexibilit	-12.1742
▁worm	-12.1742
dah	-12.1744
▁realistic	-12.1745
▁biting	-12.1745
▁hernan	-12.1748
enberg	-12.1756
▁ascend	-12.1761
▁decent	-12.1761
▁succession	-12.1762
▁overture	-12.1763
fest	-12.1763
lept	-12.1767
▁lament	-12.177
▁allocat	-12.1778
▁indirect	-12.178
sour	-12.1784
▁arche	-12.1784
cheema	-12.1786
▁camill	-12.1786
▁processor	-12.1787
nnah	-12.1788
▁heft	-12.1793
▁candid	-12.1793
▁mili	-12.1794
▁charm	-12.1794
worth	-12.1796
▁bra	-12.1798
▁cald	-12.1803
▁nia	-12.1804
eem	-12.1809
chon	-12.1815
▁skeptical	-12.1818
▁optim	-12.1821
▁gaul	-12.1823
▁prob	-12.1824
tty	-12.1825
▁tsa	-12.1829
cb	-12.1832
chemical	-12.1836
moto	-12.1837
rup	-12.1837
bee	-12.184
cini	-12.1841
▁booster	-12.1843
ttle	-12.1845
▁finalists	-12.1845
libu	-12.1848
▁viru	-12.1856
lett	-12.1857
▁ent	-12.1857
abad	-12.1857
▁hugg	-12.1859
▁minded	-12.1866
▁porter	-12.1868
▁fr	-12.1869
era	-12.1871
▁controller	-12.1874
▁shorten	-12.1875
▁interfa	-12.1882
▁rec	-12.1885
▁mot	-12.1885
▁alexandr	-12.1887
ahab	-12.1893
▁exchang	-12.1894
▁commando	-12.1897
pache	-12.1903
▁attendants	-12.1903
▁cr	-12.1905
▁exhausted	-12.1909
wn	-12.1909
▁egg	-12.1916
of	-12.1916
▁consolidate	-12.1917
bol	-12.1919
▁nuts	-12.1925
▁gal	-12.1927
▁consume	-12.1928
ii	-12.1929
▁wade	-12.1933
▁yass	-12.1935
▁shank	-12.1935
wau	-12.1936
rei	-12.1937
▁machi	-12.1945
mother	-12.1947
▁slashing	-12.1961
▁riches	-12.1963
▁hilar	-12.1967
▁georgian	-12.1972
▁educate	-12.1981
▁levee	-12.1992
▁readi	-12.1992
▁ruba	-12.1994
riq	-12.1994
▁dedicate	-12.1998
trust	-12.2011
▁tro	-12.2011
▁dare	-12.2022
▁solt	-12.2022
▁generators	-12.2025
▁flo	-12.2026
say	-12.2041
▁notion	-12.2046
▁naha	-12.2052
▁tri	-12.2062
itu	-12.2064
▁usage	-12.2064
▁obstruct	-12.2066
▁sund	-12.2067
cla	-12.2072
▁cp	-12.2074
▁justifi	-12.2077
ili	-12.2083
ob	-12.2084
yah	-12.2086
▁quant	-12.2086
▁cater	-12.2098
▁lars	-12.21
dullah	-12.2102
▁joan	-12.2111
▁tightening	-12.2112
▁mirr	-12.2114
tikh	-12.2114
▁kerch	-12.2123
vo	-12.2131
▁lip	-12.2137
igat	-12.2147
▁eisen	-12.2148
▁excavat	-12.2149
▁preced	-12.2151
▁xiao	-12.2159
▁saba	-12.2167
▁taj	-12.2169
▁seas	-12.2173
▁arabs	-12.2175
oni	-12.2178
▁vill	-12.2187
▁prescrib	-12.2192
▁hur	-12.2195
▁kc	-12.2196
▁grad	-12.2199
▁emotion	-12.2213
▁champ	-12.2213
yar	-12.2218
▁bong	-12.2225
▁alba	-12.2226
▁lash	-12.2227
▁disma	-12.2232
▁bearer	-12.2237
vani	-12.2238
hry	-12.2245
▁admir	-12.2253
bal	-12.2262
▁eurosta	-12.2268
▁generator	-12.2271
rc	-12.2281
▁athlete	-12.2282
▁whiske	-12.2292
▁trends	-12.2296
▁armi	-12.2301
mill	-12.2307
lumin	-12.2313
▁intrigu	-12.2317
▁employer	-12.2326
pinning	-12.2326
▁fey	-12.2328
bury	-12.2335
▁dece	-12.2336
▁reads	-12.2337
▁intentions	-12.2349
ven	-12.2351
believ	-12.2354
▁kat	-12.2354
ndell	-12.236
▁maps	-12.2361
cak	-12.2363
bul	-12.2363
lynn	-12.2367
▁fuji	-12.2373
elli	-12.2381
▁thrive	-12.2384
▁beg	-12.2391
▁kana	-12.2392
▁wow	-12.2393
▁fabr	-12.2397
uci	-12.2403
anga	-12.241
pt	-12.241
▁convict	-12.2416
ame	-12.2417
▁shatter	-12.2422
▁ana	-12.2431
▁nat	-12.2433
sch	-12.2442
retz	-12.2449
▁agrees	-12.245
▁recorder	-12.2458
▁settlements	-12.2459
cry	-12.2465
harmonic	-12.2469
▁commute	-12.247
▁gentle	-12.2474
dog	-12.2485
uck	-12.2485
▁yeon	-12.249
▁ele	-12.2496
▁collud	-12.2498
▁forgive	-12.2516
▁ironic	-12.2517
▁sour	-12.2524
▁kad	-12.2532
▁suf	-12.2533
▁intra	-12.2534
cker	-12.2537
phone	-12.2537
lusive	-12.2539
fayette	-12.2544
schle	-12.2546
▁revel	-12.2549
conduct	-12.2549
smith	-12.2551
media	-12.2552
league	-12.2553
awful	-12.2559
▁jen	-12.256
chai	-12.2563
hallow	-12.2563
tu	-12.2566
hold	-12.257
wf	-12.257
yeh	-12.257
▁server	-12.2573
▁invent	-12.2579
▁incorporat	-12.2582
▁bras	-12.2582
log	-12.2585
▁profession	-12.2587
rgis	-12.259
▁jeopard	-12.2593
▁mechanic	-12.2596
▁boon	-12.2597
▁uncla	-12.26
▁protester	-12.2602
▁divisi	-12.2602
▁strategi	-12.2602
▁interact	-12.2604
▁wacho	-12.2604
▁ansa	-12.2606
▁innovati	-12.2606
▁tribun	-12.2607
▁obsess	-12.2609
moon	-12.261
▁buoy	-12.261
▁kazakh	-12.261
▁accomplice	-12.261
▁appetite	-12.261
▁audiotape	-12.261
▁ayurved	-12.261
▁berezovsky	-12.261
▁bodlander	-12.261
▁brawl	-12.261
▁crawl	-12.261
▁culprit	-12.261
▁demographic	-12.261
▁demolish	-12.261
▁disqualifi	-12.261
▁djamena	-12.261
▁enclave	-12.261
▁erratic	-12.261
▁fowler	-12.261
▁futurist	-12.261
▁grylls	-12.261
▁gwen	-12.261
▁jetliner	-12.261
▁memorandum	-12.261
▁ordinance	-12.261
▁panmunj	-12.261
▁portfolio	-12.261
▁rethink	-12.261
▁swirl	-12.261
▁tanzania	-12.261
▁yugoslav	-12.261
▁clergy	-12.261
▁dreamliner	-12.261
▁namibia	-12.261
▁souvenir	-12.261
▁unhcr	-12.261
▁backpack	-12.261
▁connor	-12.261
▁mistreat	-12.261
▁snapshot	-12.261
▁steadfast	-12.261
▁contagio	-12.261
▁abstain	-12.261
▁trunk	-12.261
▁curtail	-12.261
▁antenna	-12.261
▁fraudulent	-12.261
▁biometric	-12.2611
▁encrypt	-12.2611
▁seismic	-12.2611
▁unwilling	-12.2611
▁grape	-12.2611
▁paleontologist	-12.2611
▁glory	-12.2611
▁minivan	-12.2611
▁ericsson	-12.2611
lana	-12.2611
▁empower	-12.2611
▁preview	-12.2611
▁refund	-12.2611
▁juice	-12.2611
▁diaries	-12.2611
▁charismatic	-12.2611
▁mafia	-12.2611
▁categorical	-12.2611
▁resemblance	-12.2611
▁unreasonabl	-12.2611
▁qualification	-12.2611
▁goddess	-12.2611
▁ecsta	-12.2611
▁evict	-12.2611
▁specialize	-12.2611
▁infra	-12.2611
▁crescent	-12.2611
▁tigr	-12.2611
▁fertilizer	-12.2611
▁breez	-12.2611
▁mcqu	-12.2611
▁hedge	-12.2612
▁refrigerator	-12.2612
▁fetus	-12.2612
atorium	-12.2612
▁edmund	-12.2612
▁hosseini	-12.2612
▁realign	-12.2612
▁revoke	-12.2612
▁tusk	-12.2613
▁motel	-12.2613
▁anthropolog	-12.2613
▁patent	-12.2613
▁racket	-12.2613
▁stalk	-12.2613
▁snowfall	-12.2613
▁churn	-12.2613
▁lieber	-12.2613
▁airlift	-12.2613
▁yuko	-12.2614
▁meadow	-12.2614
▁elliot	-12.2614
▁latitude	-12.2614
▁dynamit	-12.2615
▁straw	-12.2615
▁bandit	-12.2615
▁zhe	-12.2615
▁stoppage	-12.2615
▁freak	-12.2616
▁luke	-12.2616
▁module	-12.2616
▁thankful	-12.2617
▁educator	-12.2618
▁artwork	-12.2619
▁valve	-12.262
▁cogniti	-12.262
▁interruption	-12.262
▁elisa	-12.262
▁pew	-12.2621
▁adjustment	-12.2621
▁relate	-12.2622
▁pierce	-12.2623
▁jorge	-12.2623
▁fab	-12.2624
▁electorate	-12.2625
▁chew	-12.2626
▁lame	-12.2626
▁stiff	-12.2627
▁crusader	-12.2628
▁esp	-12.2628
▁parliamentarian	-12.2631
▁perez	-12.2631
▁groom	-12.2632
▁flush	-12.2632
▁terrifi	-12.2634
steps	-12.2634
▁banana	-12.2634
▁affiliat	-12.2635
▁fein	-12.2635
▁accompanie	-12.2636
▁nova	-12.2637
▁kraus	-12.2638
▁fundraiser	-12.2641
▁condon	-12.2642
▁solicit	-12.2644
▁ngo	-12.2645
trapped	-12.2646
▁sham	-12.2646
▁airship	-12.2647
▁carat	-12.2656
▁pinn	-12.2657
▁induce	-12.2657
▁equalise	-12.2658
▁deflect	-12.2659
▁wend	-12.266
▁clever	-12.2661
▁lapse	-12.2664
▁endeavor	-12.2666
▁maldiv	-12.2666
▁flagg	-12.2667
▁aaa	-12.2667
▁upward	-12.2668
▁gins	-12.2669
▁scann	-12.267
▁burre	-12.2671
▁loosen	-12.2672
▁mortal	-12.2672
▁indicator	-12.2673
▁blanc	-12.2677
kka	-12.2678
▁lagg	-12.268
▁certifi	-12.268
▁camel	-12.268
▁capitalism	-12.2682
▁fist	-12.2682
▁iq	-12.2685
▁helms	-12.2685
▁ratifi	-12.2688
▁cram	-12.2689
▁seinfeld	-12.269
▁fabric	-12.2691
▁commun	-12.2692
▁zane	-12.2693
roy	-12.2695
▁mcnam	-12.2697
▁reno	-12.27
▁garr	-12.2701
▁syndicate	-12.271
▁mistaken	-12.2721
▁tablet	-12.2721
▁sreb	-12.2723
▁casa	-12.2724
▁enroll	-12.2724
▁frig	-12.2727
▁saber	-12.2731
▁simulate	-12.2733
tner	-12.2735
▁messi	-12.2736
lamin	-12.2738
tze	-12.2744
▁lynd	-12.2744
▁gwang	-12.2745
▁borg	-12.2745
▁oliver	-12.2748
ovi	-12.2748
emptive	-12.2749
▁rajas	-12.2749
▁aggravat	-12.2757
choles	-12.2758
erous	-12.2758
alban	-12.2759
▁roos	-12.276
▁jeon	-12.2761
estero	-12.2766
▁publicize	-12.2769
▁blazer	-12.2769
▁repressi	-12.2777
▁hydra	-12.2779
zuma	-12.2785
▁eras	-12.2788
ddy	-12.2789
▁icr	-12.2798
nson	-12.2801
stable	-12.2803
▁imp	-12.2809
eur	-12.2813
soon	-12.2814
hiko	-12.2815
▁intimidati	-12.2821
▁jessi	-12.2827
ieu	-12.283
▁retriev	-12.2833
oda	-12.2836
▁giro	-12.2837
▁conciliat	-12.2843
▁lied	-12.2843
▁admire	-12.2849
stra	-12.285
▁giz	-12.2851
irna	-12.2851
ruz	-12.2852
▁predicts	-12.2855
▁heroin	-12.2862
▁relocat	-12.2869
▁lai	-12.287
▁header	-12.2872
▁withstand	-12.288
▁dissolv	-12.2885
rat	-12.2893
▁calculat	-12.2895
▁pitcher	-12.2896
▁abilit	-12.2904
▁julian	-12.2905
▁gunn	-12.2905
▁verge	-12.2908
▁pessimist	-12.2908
▁gome	-12.2924
▁incorporate	-12.2924
▁supplements	-12.2932
▁yah	-12.2949
▁pi	-12.295
ast	-12.2952
▁displace	-12.2952
▁mao	-12.2954
hu	-12.2958
▁tutori	-12.2961
▁missionar	-12.2965
▁perish	-12.2966
▁lav	-12.2971
▁remed	-12.2972
▁shand	-12.2973
▁cosmo	-12.298
▁tract	-12.2983
▁footballer	-12.2984
ott	-12.2987
llan	-12.299
▁divin	-12.2991
pon	-12.2992
▁rile	-12.2992
jaf	-12.3003
▁expir	-12.3005
ically	-12.3017
lar	-12.3022
▁covert	-12.3024
▁liberate	-12.3027
▁flourish	-12.3028
▁hadn	-12.303
▁jamm	-12.303
lines	-12.3031
▁vet	-12.3031
bbie	-12.3032
▁fen	-12.3035
trophy	-12.3036
dis	-12.3039
sche	-12.3048
▁prai	-12.3051
diane	-12.3062
▁zealander	-12.3063
▁soli	-12.3066
▁poke	-12.3067
▁ripple	-12.307
▁pont	-12.307
▁notable	-12.3074
omi	-12.3079
▁grill	-12.308
▁af	-12.308
vi	-12.3087
▁printer	-12.3088
rai	-12.3091
▁mobilize	-12.3093
▁sting	-12.3095
▁birdie	-12.3103
▁chungchon	-12.3113
▁infring	-12.3115
▁attache	-12.3116
▁bait	-12.3132
▁sto	-12.3134
▁gir	-12.3135
▁adventures	-12.3143
oom	-12.3147
hart	-12.3154
dero	-12.3157
▁snipe	-12.3163
▁zai	-12.3165
▁sequel	-12.3166
▁ferri	-12.3167
▁mae	-12.3175
cin	-12.3175
▁sik	-12.3179
▁drawings	-12.3187
▁wis	-12.3198
▁jonat	-12.3203
▁gall	-12.3205
▁gong	-12.3208
▁attitudes	-12.321
▁gia	-12.3211
▁preference	-12.3216
▁mubar	-12.3218
smo	-12.322
▁flowing	-12.3221
▁jee	-12.3225
▁verse	-12.3228
▁shan	-12.3231
ring	-12.3233
▁surrogate	-12.3236
vac	-12.3248
▁jeopardize	-12.3249
▁regulat	-12.3251
▁banda	-12.3254
metric	-12.3261
▁dott	-12.3262
▁supplement	-12.3266
▁diver	-12.3266
doch	-12.3269
▁forci	-12.3274
▁physiolog	-12.3274
pc	-12.3292
▁dera	-12.3299
▁earl	-12.3302
▁vit	-12.3304
ork	-12.3306
▁ramm	-12.3307
▁germ	-12.331
▁chic	-12.3315
▁reserv	-12.3316
asia	-12.3317
▁escalate	-12.3321
hafi	-12.3321
▁defian	-12.3325
▁relat	-12.3329
gone	-12.3329
ngal	-12.3332
▁foray	-12.3334
▁replica	-12.3338
▁smuggl	-12.3345
▁lonely	-12.3354
▁downsiz	-12.3358
▁greeting	-12.3358
ammar	-12.337
▁tit	-12.337
rel	-12.3372
▁geographic	-12.3401
▁beta	-12.3401
▁tyrann	-12.3404
▁pg	-12.3406
▁disguis	-12.341
news	-12.3411
▁plen	-12.3411
▁unfit	-12.3428
onian	-12.343
▁advocat	-12.3439
dam	-12.3439
eth	-12.344
▁deng	-12.3441
▁ober	-12.3444
▁nasir	-12.3445
▁garri	-12.3452
nica	-12.3452
bun	-12.346
▁nikol	-12.3467
▁belts	-12.3474
▁embrac	-12.3477
▁grind	-12.3478
▁xia	-12.3479
▁mit	-12.3481
iff	-12.3487
ika	-12.3488
▁capitaliz	-12.349
▁shaha	-12.3492
▁bab	-12.3497
▁subsidi	-12.3501
▁enthusiast	-12.3508
uted	-12.3509
tract	-12.3513
▁yin	-12.3513
▁fonda	-12.3524
jord	-12.3526
▁rebuil	-12.3537
stands	-12.354
etz	-12.3541
▁astronom	-12.3544
sphere	-12.3545
week	-12.3546
taek	-12.3547
adequate	-12.3548
blaze	-12.3549
parents	-12.355
ure	-12.3554
technology	-12.3555
▁purge	-12.3557
sense	-12.3559
▁taka	-12.3559
watch	-12.3559
jean	-12.3561
▁fayya	-12.3563
visibl	-12.3565
taka	-12.3566
avoid	-12.3566
pat	-12.3569
shot	-12.357
lley	-12.3571
▁kenne	-12.3574
▁sar	-12.3576
▁wonders	-12.3579
ashi	-12.358
▁ev	-12.3586
▁wrangl	-12.3587
▁magnet	-12.3587
sha	-12.3588
▁doug	-12.3588
▁patron	-12.3592
▁ensu	-12.3594
▁pardo	-12.3595
▁prominen	-12.3595
▁bankrupt	-12.3604
▁distract	-12.3606
ghi	-12.3607
▁pharmac	-12.3607
gon	-12.3609
▁luz	-12.361
▁abolition	-12.361
▁absurd	-12.361
▁autobiograph	-12.361
▁deforest	-12.361
▁detach	-12.361
▁disadvantage	-12.361
▁discontent	-12.361
▁disregard	-12.361
▁indiscriminate	-12.361
▁loophole	-12.361
▁madagascar	-12.361
▁matthew	-12.361
▁netscape	-12.361
▁rebuff	-12.361
▁recharge	-12.361
▁revamp	-12.361
▁surcharge	-12.361
▁alligator	-12.361
▁complement	-12.361
▁dysfunction	-12.361
▁precarious	-12.361
▁tgv	-12.361
▁transgender	-12.361
▁cuisine	-12.361
▁inviting	-12.361
▁rupture	-12.361
▁telecast	-12.361
▁senegal	-12.361
▁zhao	-12.361
▁delinquent	-12.361
▁rutger	-12.361
▁cambridge	-12.361
▁solemn	-12.361
▁wrinkle	-12.361
▁anorexi	-12.361
▁cosmetic	-12.361
▁itinerar	-12.361
▁kashiwa	-12.361
▁turbine	-12.361
▁sleeve	-12.3611
▁purple	-12.3611
▁mitch	-12.3611
▁pharaoh	-12.3611
▁jockey	-12.3611
▁osbourne	-12.3611
eutic	-12.3611
▁dispel	-12.3611
▁relentless	-12.3611
▁pinpoint	-12.3611
▁cowboy	-12.3611
▁vigorous	-12.3611
▁disconnect	-12.3611
▁grasp	-12.3611
▁commend	-12.3611
▁malicious	-12.3611
▁arrowhead	-12.3611
▁stymie	-12.3611
▁kirch	-12.3611
▁newcomer	-12.3611
▁affirm	-12.3611
▁bourse	-12.3611
▁effig	-12.3611
▁mudslide	-12.3611
▁taunt	-12.3611
▁ravine	-12.3611
▁jelly	-12.3611
▁triang	-12.3611
▁furious	-12.3611
▁bulb	-12.3611
▁shrunk	-12.3611
▁meghani	-12.3611
▁humid	-12.3611
▁sitcom	-12.3612
▁spew	-12.3612
▁screenplay	-12.3612
▁bolivia	-12.3612
▁pleasant	-12.3612
▁resent	-12.3612
▁mimic	-12.3612
▁sidewalk	-12.3612
▁czar	-12.3612
▁ghost	-12.3612
mat	-12.3613
▁hamza	-12.3613
▁katz	-12.3613
▁arsen	-12.3613
▁condom	-12.3613
▁paek	-12.3613
▁drummer	-12.3613
▁columnist	-12.3613
▁reneg	-12.3613
▁shrugg	-12.3613
▁haq	-12.3614
▁unlock	-12.3614
▁scoop	-12.3614
▁recit	-12.3614
▁dumpling	-12.3614
▁narco	-12.3614
▁pinch	-12.3615
▁touchdown	-12.3616
▁thoms	-12.3616
▁marketplace	-12.3617
▁compass	-12.3617
▁interceptor	-12.3617
▁arrow	-12.3617
▁generous	-12.3618
▁derive	-12.3618
▁abductee	-12.3618
aux	-12.3619
▁booth	-12.3619
▁fluid	-12.3619
▁amass	-12.3619
▁decoration	-12.362
▁submerg	-12.362
▁jamestown	-12.3621
▁waive	-12.3621
▁surgical	-12.3622
▁elysee	-12.3623
▁feedback	-12.3623
werp	-12.3624
▁riddle	-12.3625
▁laurent	-12.3625
▁ayres	-12.3625
▁secularist	-12.3625
▁mansion	-12.3626
▁krug	-12.3626
▁slovakia	-12.3627
▁tasmania	-12.3627
▁marx	-12.3627
quille	-12.3628
▁intestin	-12.3628
▁handset	-12.3628
▁albe	-12.3628
▁housekeeper	-12.363
▁totalitarian	-12.3632
▁approache	-12.3634
▁mauric	-12.3634
▁ritz	-12.3634
▁zahar	-12.3637
▁som	-12.3637
▁spectacle	-12.3638
tilin	-12.3638
▁prevalen	-12.3639
leet	-12.364
▁loung	-12.364
▁newsroom	-12.3641
culty	-12.3642
▁preside	-12.3644
▁vonn	-12.3644
▁wax	-12.3646
▁taji	-12.3648
tious	-12.3648
▁mold	-12.365
quet	-12.365
▁heather	-12.3651
▁dweller	-12.3653
▁alban	-12.3653
▁rhe	-12.3653
nsei	-12.3654
▁estonian	-12.3656
uman	-12.3659
▁mesh	-12.3661
bas	-12.3661
▁chiap	-12.3662
bouc	-12.3663
▁bald	-12.3667
▁candles	-12.3668
▁offence	-12.3669
▁kinne	-12.3669
▁rama	-12.367
dler	-12.367
▁abundan	-12.3672
▁hotte	-12.3676
▁directive	-12.3676
▁violator	-12.3677
▁fluctuat	-12.3682
nger	-12.3683
▁explains	-12.3684
▁dismay	-12.3684
yak	-12.3685
kong	-12.3685
▁forceful	-12.3686
lam	-12.3687
▁reper	-12.3692
veh	-12.3694
rdin	-12.3698
▁shade	-12.3698
▁haa	-12.3701
▁biti	-12.3702
pine	-12.3707
▁merv	-12.3708
nate	-12.3709
▁tsuyo	-12.371
▁sneaker	-12.3712
▁shutter	-12.3713
▁shaw	-12.3713
▁timeline	-12.3714
▁stoning	-12.3715
▁unsur	-12.3717
▁schu	-12.3718
▁insurer	-12.3721
▁khalil	-12.3723
▁kiku	-12.3724
fold	-12.3725
▁pluck	-12.373
▁nan	-12.3731
▁salvage	-12.3733
habi	-12.3735
fann	-12.3737
▁boob	-12.3737
▁swelling	-12.3742
riano	-12.3744
andel	-12.3746
▁beast	-12.3749
▁singaporean	-12.3749
▁lek	-12.3749
ert	-12.3749
▁brod	-12.3753
▁verifiabl	-12.3761
ych	-12.3761
▁lemon	-12.3763
▁suck	-12.377
richt	-12.3772
▁navigat	-12.3774
▁fond	-12.3776
effer	-12.3782
▁tal	-12.3783
▁cardiov	-12.3789
▁gregor	-12.3789
▁endless	-12.3793
▁ung	-12.3793
▁porch	-12.3796
▁berg	-12.3798
▁shui	-12.38
stice	-12.3803
▁eun	-12.3803
▁painter	-12.3819
▁fractur	-12.3829
bly	-12.3831
▁py	-12.3832
▁perceiv	-12.3833
tractor	-12.3833
▁celesti	-12.3833
▁distincti	-12.3842
gne	-12.3848
▁couri	-12.3854
ched	-12.3857
▁marlboro	-12.3859
iot	-12.3861
▁deliberat	-12.3863
▁samuel	-12.3867
▁baba	-12.3868
▁shaun	-12.3869
book	-12.387
▁devi	-12.3872
▁outsider	-12.3873
▁scarce	-12.3877
▁directions	-12.3877
▁appreciati	-12.388
▁initiate	-12.3892
dez	-12.3894
oros	-12.3898
▁assumption	-12.3902
amba	-12.3903
▁barn	-12.3903
▁ull	-12.3915
▁vir	-12.3918
ntana	-12.3935
▁jas	-12.3939
▁homer	-12.3939
▁natali	-12.3941
▁behave	-12.3942
▁sara	-12.3943
▁anton	-12.3943
shu	-12.3947
▁abd	-12.3951
mert	-12.3951
▁electro	-12.3953
wall	-12.3973
▁espan	-12.3979
▁mri	-12.3986
gram	-12.3987
thura	-12.3992
chu	-12.3992
▁asha	-12.3993
▁mosle	-12.3997
▁tzi	-12.3998
▁stampede	-12.3999
pun	-12.4015
▁baa	-12.4015
▁hijacking	-12.4018
▁exceeding	-12.4019
tics	-12.4022
▁gallu	-12.4036
▁pause	-12.4037
dental	-12.4046
▁brace	-12.4049
oul	-12.405
▁uneas	-12.4052
mara	-12.4054
ryl	-12.4059
nso	-12.4064
nda	-12.4069
▁moderniz	-12.4072
▁smithson	-12.4073
has	-12.4074
avaro	-12.4077
▁conscript	-12.4079
▁ryd	-12.4083
▁bully	-12.4084
▁masha	-12.4084
▁confiscate	-12.4086
wich	-12.4091
▁sacking	-12.4091
dana	-12.4097
▁turki	-12.4103
▁moussa	-12.4104
position	-12.4105
▁mend	-12.4105
ker	-12.4106
▁pie	-12.4108
rock	-12.4108
▁robbi	-12.4109
afe	-12.4111
enne	-12.4112
▁prag	-12.4116
▁loser	-12.4129
▁tira	-12.4136
▁hyde	-12.4139
▁qual	-12.4144
▁resettle	-12.4148
shan	-12.415
▁dishe	-12.4151
▁destroyer	-12.4156
drome	-12.416
evic	-12.4162
vara	-12.4167
unker	-12.4173
elo	-12.4177
▁fri	-12.4181
▁discourage	-12.4189
ice	-12.4195
▁ira	-12.4197
inches	-12.4203
lm	-12.4213
▁lonel	-12.4215
▁confiscat	-12.4216
▁adrian	-12.4216
▁bain	-12.4219
▁allerg	-12.4222
▁joo	-12.4222
lov	-12.4224
▁equalize	-12.4231
mate	-12.4234
▁barre	-12.4236
▁dart	-12.4239
▁lou	-12.4243
▁casting	-12.4247
▁gem	-12.4257
eij	-12.4259
▁geno	-12.4259
▁ec	-12.4265
▁refin	-12.4268
▁fabricat	-12.4273
onym	-12.4276
hoe	-12.4281
▁venet	-12.4284
▁sands	-12.4284
▁dj	-12.4288
use	-12.429
▁frankl	-12.4296
▁lac	-12.4299
▁emb	-12.4302
▁graduat	-12.4315
egan	-12.4316
▁wald	-12.4319
▁adulter	-12.4328
▁conceiv	-12.4332
▁blu	-12.4335
▁licens	-12.4338
▁claud	-12.4342
tice	-12.4343
mega	-12.4348
tia	-12.4351
glio	-12.4359
▁stipulate	-12.4365
imon	-12.4375
▁skier	-12.4379
▁sel	-12.438
zad	-12.4382
rne	-12.4384
ameter	-12.4385
pinal	-12.4388
kova	-12.4395
gaz	-12.4397
▁tel	-12.4397
▁toddlers	-12.4397
▁abba	-12.4398
▁bois	-12.4399
▁russ	-12.4399
▁dri	-12.4403
▁kampu	-12.4405
ouad	-12.4411
lf	-12.4412
osa	-12.4419
ariya	-12.4421
▁blacks	-12.4423
▁retiree	-12.4429
gay	-12.4432
tian	-12.4437
▁cheese	-12.4444
▁duch	-12.4447
ff	-12.4448
▁una	-12.4449
▁gat	-12.4451
ole	-12.4452
now	-12.4466
▁mun	-12.4473
▁lid	-12.4476
▁fruits	-12.4477
▁alp	-12.4481
▁alga	-12.4482
▁fracture	-12.4483
inos	-12.4485
▁jian	-12.4487
▁syn	-12.4487
▁cripple	-12.449
▁activate	-12.4509
umi	-12.4517
▁fade	-12.4522
cat	-12.4522
▁parr	-12.4526
▁atom	-12.4527
▁natal	-12.453
▁duo	-12.4533
▁dom	-12.4535
comfortabl	-12.4536
▁frustrate	-12.4536
▁caffe	-12.4537
▁tame	-12.4537
word	-12.4542
agar	-12.4543
mosh	-12.4544
cock	-12.4544
▁conceive	-12.4547
nie	-12.4548
boy	-12.455
ducat	-12.4551
▁boo	-12.4551
▁imagin	-12.4557
▁scarf	-12.456
▁beneficia	-12.4563
badi	-12.4563
▁satisfy	-12.4567
▁underscor	-12.4569
▁nois	-12.4569
garve	-12.4579
▁bah	-12.458
▁ruben	-12.4583
▁piro	-12.4585
▁ego	-12.4591
lift	-12.4605
▁sneak	-12.461
▁tha	-12.461
tsuo	-12.4617
▁lens	-12.4621
▁elevat	-12.4627
▁plague	-12.4627
mitag	-12.4632
▁satisfact	-12.4633
terrestrial	-12.4633
shin	-12.4637
paste	-12.4641
diari	-12.4643
▁circu	-12.4647
oven	-12.4647
▁kau	-12.465
▁equ	-12.465
ready	-12.4652
cube	-12.4656
convenient	-12.4656
walk	-12.4657
accurate	-12.4659
effective	-12.466
committee	-12.466
government	-12.4661
affected	-12.4661
▁vik	-12.4661
daughter	-12.4662
season	-12.4662
fox	-12.4666
spring	-12.4666
▁entertain	-12.4666
help	-12.4668
▁residenc	-12.4669
accessib	-12.4669
▁milita	-12.4673
wanted	-12.4673
match	-12.4674
roar	-12.4674
▁glamo	-12.4675
▁psycho	-12.4675
yub	-12.4684
▁characterize	-12.4686
brew	-12.4687
heard	-12.469
▁iz	-12.4692
money	-12.4693
▁enthusias	-12.4695
▁inability	-12.4698
nz	-12.47
▁sweat	-12.4701
rity	-12.4701
▁americ	-12.4705
▁spar	-12.4705
▁hardline	-12.4708
▁numb	-12.4708
▁horm	-12.471
▁wolfe	-12.4711
aimi	-12.4711
▁yoshi	-12.4716
lp	-12.4718
▁eavesdropp	-12.4719
hard	-12.4719
▁distr	-12.4721
▁entrepreneur	-12.4721
▁aeronautic	-12.4721
▁apprehend	-12.4721
▁blizzard	-12.4721
▁boulevard	-12.4721
▁consequent	-12.4721
▁daimler	-12.4721
▁demolition	-12.4721
▁grizzl	-12.4721
▁handcuff	-12.4721
▁involuntar	-12.4721
▁kilowatt	-12.4721
▁liechtenstein	-12.4721
▁microwave	-12.4721
▁pacify	-12.4721
▁recipient	-12.4721
▁spontaneous	-12.4721
▁susceptib	-12.4721
▁thirteen	-12.4721
▁unravel	-12.4721
▁uruguay	-12.4721
▁banteng	-12.4721
▁detergent	-12.4721
▁occupy	-12.4721
▁avatar	-12.4721
▁belarus	-12.4721
▁manhunt	-12.4721
▁whirl	-12.4721
▁mcclinto	-12.4721
▁pundit	-12.4721
▁basilica	-12.4721
▁theoretical	-12.4721
▁classify	-12.4722
▁gymnast	-12.4722
▁octopus	-12.4722
▁hemorrhag	-12.4722
▁smear	-12.4722
▁wrack	-12.4722
▁nonviolen	-12.4722
nthia	-12.4722
▁indigen	-12.4722
▁wilkins	-12.4722
▁pelvi	-12.4722
▁turtle	-12.4722
▁dissent	-12.4722
▁twitter	-12.4722
▁pupil	-12.4722
hygien	-12.4722
▁morici	-12.4722
▁quirk	-12.4722
▁emphatic	-12.4722
▁cadet	-12.4722
▁essay	-12.4722
▁polygam	-12.4722
▁arraignment	-12.4722
▁gharial	-12.4722
▁masterpiece	-12.4722
▁snowstorm	-12.4722
▁idris	-12.4722
▁lizard	-12.4722
▁reclaim	-12.4722
▁roast	-12.4722
▁grievance	-12.4722
▁minibus	-12.4722
▁screw	-12.4722
▁chipmaker	-12.4722
▁nongovernment	-12.4722
▁preemptive	-12.4722
▁accommodation	-12.4723
▁tanner	-12.4723
▁butterfl	-12.4723
orrow	-12.4723
▁overreact	-12.4723
▁graff	-12.4723
▁scour	-12.4723
▁attire	-12.4723
▁intermedia	-12.4723
▁sophi	-12.4723
▁luxurious	-12.4723
▁clover	-12.4723
▁vigilant	-12.4724
▁entice	-12.4724
▁temptation	-12.4724
▁barbour	-12.4724
emic	-12.4724
▁termination	-12.4724
▁wiretapp	-12.4724
ilja	-12.4724
▁curricul	-12.4724
rogba	-12.4725
▁commemoration	-12.4725
▁toxin	-12.4725
▁graduation	-12.4725
▁cremation	-12.4725
▁hague	-12.4725
▁dangl	-12.4725
▁exemption	-12.4725
▁flawless	-12.4725
▁sift	-12.4725
imeter	-12.4726
▁corral	-12.4726
▁rainbow	-12.4726
▁gigabyte	-12.4726
▁aspiration	-12.4726
▁walt	-12.4726
▁tamper	-12.4726
▁fringe	-12.4726
▁gartner	-12.4726
▁birthrate	-12.4726
▁marvel	-12.4727
▁carving	-12.4727
▁funnel	-12.4727
▁distraction	-12.4728
▁downpour	-12.4728
▁sunlight	-12.4728
▁novelist	-12.4728
▁solace	-12.4728
▁depot	-12.4729
▁chick	-12.4729
▁doctrine	-12.4729
▁newsweek	-12.4729
▁organism	-12.4729
▁milos	-12.4729
choa	-12.4729
▁vander	-12.4729
▁subscriber	-12.473
▁yuri	-12.473
▁carli	-12.4731
▁summar	-12.4731
▁exclude	-12.4731
midt	-12.4732
okou	-12.4732
▁runaway	-12.4733
▁tenet	-12.4734
▁baek	-12.4734
▁injustice	-12.4735
▁chinook	-12.4735
▁holz	-12.4735
▁filter	-12.4735
▁mound	-12.4735
▁jabal	-12.4735
rom	-12.4736
▁mccle	-12.4736
kistan	-12.4737
igan	-12.4737
▁adorn	-12.4737
▁composition	-12.4737
▁hoard	-12.4739
▁mongolia	-12.474
span	-12.4741
▁contributor	-12.4741
▁fioren	-12.4742
▁obeid	-12.4744
▁galv	-12.4744
▁sixteen	-12.4745
▁maggi	-12.4746
▁playground	-12.4747
▁weiss	-12.4748
▁corona	-12.475
▁appa	-12.4752
▁worthless	-12.4752
▁overpower	-12.4753
▁nye	-12.4753
▁lux	-12.4754
▁worshipper	-12.4754
▁siren	-12.4755
▁lax	-12.4756
▁sca	-12.4756
▁congregation	-12.4756
▁cache	-12.4756
▁prim	-12.4758
▁oba	-12.4758
▁smol	-12.4759
▁kisses	-12.4761
▁hammon	-12.4762
▁borough	-12.4764
▁indecen	-12.4765
lein	-12.4765
nant	-12.4765
otherap	-12.4766
▁vulnerabilit	-12.4766
▁snu	-12.4768
▁earnest	-12.4769
▁deteriorate	-12.4769
▁veil	-12.477
▁mwan	-12.477
▁shann	-12.4772
▁satan	-12.4774
▁necessity	-12.4776
nova	-12.4776
▁nouri	-12.4777
▁institutional	-12.4777
▁tat	-12.4779
iena	-12.478
▁ashes	-12.478
▁gravitation	-12.4781
▁kua	-12.4781
▁pil	-12.4783
▁latino	-12.4784
▁bolsh	-12.4786
▁stain	-12.4787
▁alessandr	-12.4788
▁drops	-12.479
▁mcle	-12.4792
▁rightful	-12.4792
▁mok	-12.4792
▁scanner	-12.4797
▁citation	-12.4797
▁widower	-12.4798
▁tao	-12.4798
▁rightist	-12.4798
▁designation	-12.48
eller	-12.48
rief	-12.4801
hni	-12.4801
thle	-12.4802
▁trinit	-12.4802
eu	-12.4809
guel	-12.481
▁sharpen	-12.4811
suit	-12.4813
▁hallow	-12.4817
▁meddl	-12.4821
▁calib	-12.4825
▁cio	-12.4828
▁satisfactor	-12.483
nberg	-12.4832
▁qing	-12.4835
▁emitter	-12.4836
▁glea	-12.4836
▁unha	-12.4836
▁examples	-12.484
▁lankan	-12.4842
▁bells	-12.4848
doo	-12.4849
wire	-12.485
niels	-12.4852
▁tactical	-12.4853
mes	-12.4853
▁ft	-12.4855
▁llc	-12.4856
▁kristin	-12.4864
▁thu	-12.4865
varna	-12.4865
pick	-12.4867
▁santos	-12.4868
▁shine	-12.487
▁lombard	-12.4875
gie	-12.4879
▁matri	-12.488
▁bashir	-12.4882
slaughter	-12.4887
▁scarlet	-12.4888
▁brew	-12.4889
▁tee	-12.4891
▁arter	-12.4891
▁mut	-12.4895
bei	-12.4899
▁lauren	-12.4899
▁cruiser	-12.4901
▁nts	-12.4902
▁yuca	-12.4904
▁sali	-12.4905
▁penetrat	-12.4906
pal	-12.4907
▁ancest	-12.4912
▁corte	-12.4914
▁embed	-12.4916
▁drac	-12.4917
owed	-12.4922
▁tani	-12.4922
roz	-12.4928
▁bonsa	-12.4929
▁unfor	-12.4933
▁legg	-12.4934
▁kup	-12.4935
riyad	-12.4939
▁downside	-12.4941
▁pressur	-12.4941
▁visitation	-12.4942
▁hil	-12.4943
▁complian	-12.4943
▁normalize	-12.4943
▁hashim	-12.4944
▁comprise	-12.4947
lastic	-12.4951
▁curv	-12.4952
▁sunda	-12.4952
▁meg	-12.4954
ased	-12.4958
▁dictate	-12.4961
▁parish	-12.4968
▁skirt	-12.4973
▁zem	-12.4975
uro	-12.4977
▁wink	-12.4979
▁dayton	-12.4985
▁hum	-12.4991
▁maur	-12.4991
enay	-12.4993
▁goul	-12.4999
rough	-12.5001
slow	-12.5001
▁reveren	-12.5002
▁sander	-12.5004
▁fest	-12.5005
▁lb	-12.5008
▁rok	-12.5009
▁yush	-12.5012
▁jia	-12.5013
lab	-12.5021
▁moai	-12.5022
rani	-12.5022
▁burge	-12.5028
vision	-12.5031
▁distinguish	-12.5035
▁campo	-12.5038
▁coupons	-12.5038
▁judd	-12.5038
▁jett	-12.504
▁fig	-12.5043
rage	-12.5049
▁dominan	-12.5052
afsha	-12.5053
yongsan	-12.5053
tenberg	-12.5054
prk	-12.506
▁confuse	-12.5061
▁damp	-12.5067
▁robes	-12.5069
▁poet	-12.5074
▁merchandise	-12.5075
▁ichi	-12.5077
▁branc	-12.5083
lissa	-12.5084
▁brisk	-12.5084
▁pontif	-12.5086
▁coo	-12.5087
▁barad	-12.5091
▁abductions	-12.5094
▁jaip	-12.5095
uni	-12.5095
ema	-12.5107
dolph	-12.5113
▁jar	-12.5114
pulsion	-12.5121
▁perk	-12.5132
wage	-12.5134
▁gila	-12.514
cchi	-12.5142
zhn	-12.5145
▁sarco	-12.5148
dka	-12.515
hor	-12.515
▁matur	-12.5151
az	-12.5152
haria	-12.5161
▁kaz	-12.5162
▁spik	-12.5166
▁rotte	-12.5172
▁frederic	-12.5173
▁avian	-12.5174
▁servers	-12.5196
▁marul	-12.5197
▁equaliz	-12.5198
▁cristi	-12.52
poly	-12.5204
oslo	-12.5205
▁humble	-12.521
▁wh	-12.5211
▁oral	-12.5215
elipe	-12.5218
etsk	-12.5219
▁flyer	-12.5221
▁wol	-12.5224
aq	-12.523
ollen	-12.5234
heng	-12.5235
▁slate	-12.5236
▁misus	-12.5239
▁defamat	-12.5244
▁stretche	-12.5244
souf	-12.5247
▁grapple	-12.525
▁tracker	-12.5251
▁abide	-12.5256
▁tallie	-12.5257
▁breeder	-12.5259
▁qualifie	-12.5269
joy	-12.5272
▁abound	-12.5274
gery	-12.5279
▁gert	-12.5281
▁stitche	-12.529
▁rational	-12.5295
lem	-12.53
▁unt	-12.5301
sam	-12.5321
iar	-12.5322
▁unnerv	-12.5323
rshad	-12.533
▁toast	-12.5331
▁renam	-12.5337
tri	-12.5342
▁washing	-12.5343
cable	-12.5344
▁trafficker	-12.5351
mmunity	-12.5351
▁activat	-12.5352
ain	-12.5352
▁wastes	-12.5354
arat	-12.5359
issan	-12.5363
tai	-12.5366
▁shu	-12.5375
▁ignite	-12.5376
apolis	-12.5384
▁fume	-12.5384
▁shortl	-12.5385
▁attende	-12.539
▁holi	-12.5391
▁aston	-12.5395
▁mute	-12.5397
mps	-12.5404
▁colo	-12.5407
▁deco	-12.5422
pears	-12.5426
▁carre	-12.5434
bach	-12.5434
bre	-12.5436
▁kal	-12.5444
rome	-12.5444
▁stranding	-12.5448
environmentalist	-12.5453
▁lange	-12.5457
▁mani	-12.5458
low	-12.5461
cu	-12.5462
▁dair	-12.5465
▁marian	-12.5468
ellen	-12.547
keeper	-12.5471
▁wm	-12.5475
▁blockbusters	-12.5476
▁dail	-12.548
dic	-12.5488
▁zub	-12.5488
▁sock	-12.549
eston	-12.5492
ska	-12.5494
▁mutilat	-12.5494
gh	-12.5495
▁cosm	-12.5499
oise	-12.5503
vp	-12.5506
▁erode	-12.5507
▁intern	-12.5507
▁hamm	-12.5507
▁victori	-12.5507
▁christo	-12.5509
science	-12.5515
▁jenn	-12.552
onic	-12.5521
achel	-12.5523
erno	-12.5527
noble	-12.553
▁meri	-12.5533
▁levin	-12.5542
▁marker	-12.5543
napped	-12.5543
▁duc	-12.5549
▁facilitat	-12.5552
fusion	-12.5554
▁desp	-12.5555
▁exploitati	-12.5576
▁structur	-12.5576
▁pits	-12.5579
▁relie	-12.5587
closure	-12.559
▁atta	-12.5591
▁lind	-12.5591
▁insert	-12.5593
roid	-12.5594
pur	-12.56
▁disabilit	-12.5601
▁roadway	-12.5603
▁defus	-12.561
▁duran	-12.5612
▁cas	-12.5613
▁arc	-12.5613
ech	-12.5615
▁hurdle	-12.5618
▁yacht	-12.5621
▁accomplishment	-12.5622
rou	-12.5624
xi	-12.5629
▁penguin	-12.5634
poon	-12.5636
▁pillar	-12.5642
▁piz	-12.5644
▁detainee	-12.5646
▁idi	-12.5652
▁corpora	-12.5654
▁proteins	-12.5655
▁eclipse	-12.5655
▁terminate	-12.5657
▁manipulate	-12.5658
▁oppress	-12.566
▁solan	-12.5662
▁mum	-12.569
▁eld	-12.5693
▁aq	-12.5694
medic	-12.5694
omo	-12.5695
▁perceive	-12.5697
▁toleran	-12.5698
▁mariner	-12.5703
▁hono	-12.5705
▁coma	-12.5707
yud	-12.5712
nne	-12.5712
▁pear	-12.5714
nix	-12.5724
▁forbid	-12.5728
rail	-12.5732
▁coupon	-12.5733
▁accessib	-12.5734
leban	-12.5735
▁assemble	-12.5738
dder	-12.5744
▁aspir	-12.5746
oxid	-12.5746
▁samp	-12.5747
iti	-12.5751
▁yul	-12.5753
tent	-12.576
▁guse	-12.5779
▁insur	-12.578
▁mara	-12.5781
lee	-12.5783
ender	-12.5787
nch	-12.5788
ohn	-12.5792
▁lik	-12.5796
▁kab	-12.5809
etcher	-12.5812
ratt	-12.5813
▁stereo	-12.582
fia	-12.582
▁encircl	-12.5823
▁rb	-12.5825
▁yasuhi	-12.5828
▁robb	-12.5838
wha	-12.584
lom	-12.5846
ppe	-12.5849
▁tub	-12.5851
▁emer	-12.5866
load	-12.5873
▁flore	-12.5873
gher	-12.5882
zine	-12.5885
comm	-12.5885
uddin	-12.5885
▁zhi	-12.5886
mise	-12.5887
▁dipp	-12.5887
▁whaler	-12.5888
▁thrust	-12.5891
fu	-12.5891
▁mau	-12.5891
embe	-12.5893
nourishe	-12.5898
predictabl	-12.5907
▁demo	-12.5907
case	-12.5907
bridge	-12.5908
tooth	-12.5909
stroke	-12.591
historic	-12.591
hawk	-12.591
economic	-12.5911
graduate	-12.5911
▁baile	-12.5912
▁secre	-12.5913
pour	-12.5913
style	-12.5913
▁logic	-12.5914
asahi	-12.5914
▁euthan	-12.5915
swam	-12.5916
▁tama	-12.5919
reason	-12.5919
fried	-12.5919
▁spoil	-12.592
▁pag	-12.5921
▁euph	-12.5921
idge	-12.5923
▁nativ	-12.5924
▁francesc	-12.5925
▁suicid	-12.5927
▁paralysi	-12.5929
▁compromis	-12.5935
▁restructure	-12.5939
▁godd	-12.5941
▁kum	-12.5947
▁olympia	-12.5949
▁emir	-12.595
master	-12.595
▁disast	-12.5951
thma	-12.5954
▁alta	-12.5955
▁bac	-12.5957
▁snub	-12.5958
kaya	-12.596
▁scrub	-12.5961
▁bug	-12.5963
▁beau	-12.5964
▁eject	-12.5965
▁flour	-12.5967
▁homo	-12.5967
▁reconstruct	-12.5968
▁spam	-12.5968
slaught	-12.5969
▁skylin	-12.5969
▁bjor	-12.597
▁dharams	-12.5971
▁bikini	-12.5971
▁brazen	-12.5971
▁chechnya	-12.5971
▁derelict	-12.5971
▁dilemma	-12.5971
▁encroach	-12.5971
▁fountain	-12.5971
▁friction	-12.5971
▁immoral	-12.5971
▁incorrect	-12.5971
▁kiosk	-12.5971
▁modify	-12.5971
▁montenegr	-12.5971
▁orangutan	-12.5971
▁outflow	-12.5971
▁pablo	-12.5971
▁permafrost	-12.5971
▁pesticide	-12.5971
▁prejudice	-12.5971
▁scapegoat	-12.5971
▁semiconductor	-12.5971
▁soprano	-12.5971
▁stupid	-12.5971
▁subtitle	-12.5971
▁uninhabit	-12.5971
▁vicinity	-12.5971
▁arrogan	-12.5971
▁blatant	-12.5971
▁mishandl	-12.5971
▁scully	-12.5971
▁nullify	-12.5971
▁rheumato	-12.5971
▁straddl	-12.5971
▁qantas	-12.5971
▁entrench	-12.5971
▁sapien	-12.5971
▁oleg	-12.5972
▁glitch	-12.5972
▁graveyard	-12.5972
▁shroud	-12.5972
funct	-12.5972
▁conversion	-12.5972
▁ernest	-12.5972
▁landlord	-12.5972
▁lodging	-12.5972
▁tweak	-12.5972
▁acquaintance	-12.5972
▁archeologist	-12.5972
▁conspirator	-12.5972
▁horizontal	-12.5972
▁piercing	-12.5972
▁magoni	-12.5972
▁thirst	-12.5972
▁discord	-12.5972
▁imbalance	-12.5972
▁vivid	-12.5972
▁scourge	-12.5972
▁outsourc	-12.5972
▁snoop	-12.5972
▁aviv	-12.5972
▁halper	-12.5972
▁electrocut	-12.5972
▁entail	-12.5972
▁bookstore	-12.5972
▁gaffe	-12.5972
▁ivanko	-12.5972
▁blunder	-12.5972
▁organisation	-12.5972
▁assailant	-12.5972
▁tirade	-12.5972
▁sandbag	-12.5972
▁piled	-12.5972
▁fabian	-12.5973
▁humbert	-12.5973
▁timber	-12.5973
▁bombardier	-12.5973
▁chechen	-12.5973
▁ovation	-12.5973
▁unfreez	-12.5973
▁bancroft	-12.5973
▁gunbattle	-12.5973
▁perennial	-12.5973
▁regroup	-12.5973
▁calif	-12.5973
▁grue	-12.5973
▁pervasive	-12.5974
▁mulia	-12.5974
▁payroll	-12.5975
▁haircut	-12.5975
▁playboy	-12.5975
▁orchard	-12.5975
▁dealership	-12.5975
▁rehearsal	-12.5975
▁pharmacist	-12.5975
▁neural	-12.5976
▁niece	-12.5976
▁limon	-12.5976
▁eros	-12.5976
▁tailor	-12.5976
▁appliance	-12.5976
▁livelihood	-12.5976
▁giovan	-12.5976
▁elevation	-12.5977
lobo	-12.5977
▁trumpet	-12.5977
osexual	-12.5977
usnes	-12.5977
▁mountaineer	-12.5977
tter	-12.5977
▁deception	-12.5978
▁cair	-12.5978
▁cylinder	-12.5978
▁mattress	-12.5978
▁excavation	-12.5978
▁realtor	-12.5978
▁precis	-12.5979
▁anthr	-12.598
▁contamination	-12.598
▁socialite	-12.598
▁postcard	-12.598
▁lauder	-12.598
▁microbe	-12.598
tisa	-12.5981
▁admiral	-12.5981
▁snagg	-12.5982
▁partition	-12.5982
▁lurk	-12.5982
▁plow	-12.5983
guide	-12.5983
▁audi	-12.5983
▁reversal	-12.5984
ternate	-12.5985
▁premeditat	-12.5985
ourage	-12.5985
▁keyboard	-12.5985
▁cynical	-12.5986
▁alternate	-12.5987
▁audition	-12.5987
▁fiance	-12.5987
▁cjd	-12.5987
mela	-12.5987
▁witch	-12.5987
▁harmless	-12.5988
▁huang	-12.5988
▁stride	-12.5989
▁respectful	-12.5989
▁bachel	-12.5989
▁unsc	-12.599
▁sitter	-12.599
▁sauer	-12.599
▁walton	-12.5991
▁jolt	-12.5991
▁hoist	-12.5991
▁slap	-12.5993
▁surre	-12.5994
trayal	-12.5994
▁pedophile	-12.5996
▁stave	-12.5997
▁liar	-12.5997
▁reeves	-12.5998
▁tasting	-12.6
▁schoolgirl	-12.6002
▁evangelist	-12.6003
▁ventilat	-12.6003
gia	-12.6004
▁cutback	-12.6004
gam	-12.6005
▁wobble	-12.6005
▁backhand	-12.6005
nott	-12.6006
▁heller	-12.6006
▁clogg	-12.6006
kham	-12.6007
▁spillway	-12.6009
▁yank	-12.6009
▁fiji	-12.601
▁astro	-12.601
▁protestant	-12.601
▁repatriat	-12.6012
▁nobu	-12.6013
▁parma	-12.6013
▁cellar	-12.6015
▁bundle	-12.6017
▁beekeeper	-12.6017
▁transformers	-12.6017
▁polk	-12.6023
▁okay	-12.6023
izing	-12.6025
iman	-12.6026
▁covet	-12.6026
▁lobbie	-12.6027
▁makeover	-12.603
▁polite	-12.603
▁euthanize	-12.603
▁patter	-12.6032
▁recreation	-12.6033
▁curti	-12.6034
▁kiln	-12.6034
ingles	-12.6034
▁kilo	-12.6035
lic	-12.6036
▁torri	-12.6038
▁reput	-12.6039
▁etc	-12.6043
▁tempt	-12.6044
aikon	-12.6044
ecker	-12.6045
▁ponder	-12.6047
▁showroom	-12.6047
▁bestsell	-12.6049
▁bombard	-12.6053
▁prudent	-12.6054
▁angri	-12.6054
▁sphere	-12.6055
▁spite	-12.6056
▁cabo	-12.6058
▁grader	-12.6059
max	-12.6059
▁spotte	-12.6059
▁taek	-12.6063
▁gonu	-12.6063
hall	-12.6064
▁bugg	-12.6065
▁stutt	-12.6066
rash	-12.6068
▁extradite	-12.607
▁leon	-12.607
extraterrestrial	-12.6072
hamel	-12.6073
▁illustrate	-12.6074
▁subversi	-12.6075
▁chamb	-12.6076
▁lent	-12.6077
▁alegr	-12.6078
▁midland	-12.608
kar	-12.6081
▁fc	-12.6085
▁rubin	-12.6086
▁suff	-12.6089
▁honduras	-12.6092
▁eyebrows	-12.6092
▁hendri	-12.6095
▁lick	-12.6098
▁shum	-12.6099
ucinic	-12.6099
▁wealthie	-12.6103
ality	-12.6105
▁conrad	-12.6112
▁merck	-12.6112
▁mama	-12.6113
raped	-12.6114
▁destruct	-12.6118
cott	-12.612
▁molecul	-12.612
agong	-12.6121
▁glid	-12.6123
▁afl	-12.6123
▁roan	-12.6125
▁qata	-12.6126
ttered	-12.6126
ehead	-12.613
▁suffocat	-12.613
▁salad	-12.6132
▁nico	-12.6133
▁krist	-12.6142
yung	-12.6144
ps	-12.6145
▁hyo	-12.6147
▁outfield	-12.6148
▁smog	-12.6152
net	-12.6152
▁marty	-12.6155
▁beneficiar	-12.6155
▁spru	-12.6158
▁curl	-12.6158
wind	-12.616
rang	-12.6162
▁shuk	-12.6168
ile	-12.6173
▁tab	-12.6173
alai	-12.618
ex	-12.6181
▁knot	-12.6182
▁countrymen	-12.6185
raged	-12.6186
weight	-12.6187
agliar	-12.6189
▁hiker	-12.6196
▁slick	-12.6198
▁amir	-12.6199
▁haas	-12.6208
▁hayd	-12.6212
▁kins	-12.6212
eppel	-12.6213
▁fury	-12.6213
▁consultati	-12.6214
▁twister	-12.6214
imo	-12.6223
▁rhon	-12.6223
▁bao	-12.6224
▁wit	-12.6228
▁disguise	-12.6232
▁implicat	-12.6234
▁tremors	-12.6237
tui	-12.6237
ifa	-12.6244
▁locke	-12.6248
iah	-12.6249
▁inconvenience	-12.6251
▁santor	-12.6256
▁billow	-12.6262
▁balanc	-12.6262
▁neutralize	-12.6263
usch	-12.6264
▁labe	-12.6264
▁siddiq	-12.6275
▁maximize	-12.6276
robe	-12.6277
▁nou	-12.6281
andra	-12.6282
▁registr	-12.6283
passionate	-12.6283
▁adhere	-12.6284
ption	-12.6289
▁cheng	-12.6291
gura	-12.6295
▁functional	-12.6298
ough	-12.6298
▁hasten	-12.6316
▁frightening	-12.6316
▁tas	-12.6317
▁hemi	-12.632
▁mello	-12.6323
▁consula	-12.6329
▁yachts	-12.6334
▁ike	-12.6346
je	-12.6348
▁fraz	-12.6348
▁converter	-12.6351
▁hush	-12.6354
▁sule	-12.6355
▁hale	-12.6356
▁ellis	-12.6357
▁wada	-12.6364
mas	-12.6364
▁councilor	-12.6368
▁rin	-12.6378
▁qur	-12.6382
ians	-12.6382
▁chilling	-12.6383
uto	-12.6384
▁sheer	-12.6386
qi	-12.6391
gu	-12.6392
isch	-12.6414
▁strat	-12.6414
▁cav	-12.6418
▁kost	-12.6419
▁median	-12.6421
ib	-12.6426
▁chery	-12.6438
▁whisk	-12.6444
▁commons	-12.6446
▁sura	-12.6446
▁lookout	-12.6448
icker	-12.6457
▁illuminat	-12.6458
nage	-12.6461
▁ventur	-12.6462
▁hos	-12.6465
▁hoy	-12.6465
ere	-12.6472
lix	-12.6473
oui	-12.6477
▁acr	-12.6477
knesse	-12.648
▁isabell	-12.6482
▁trooper	-12.6485
▁fluor	-12.6496
▁nong	-12.6497
▁extort	-12.6498
▁shir	-12.6503
eef	-12.6507
▁murderer	-12.651
▁seb	-12.652
pper	-12.652
▁inju	-12.6521
▁chon	-12.6521
table	-12.6524
▁chil	-12.6524
▁divulge	-12.6526
▁crand	-12.6528
▁glue	-12.653
fm	-12.6531
▁tep	-12.6533
▁glamor	-12.6538
for	-12.6541
rum	-12.6542
▁tripp	-12.6543
▁eater	-12.6552
elman	-12.6557
▁dp	-12.6559
rus	-12.6559
jid	-12.6565
▁swede	-12.6565
▁stab	-12.6566
cyclist	-12.6566
▁jok	-12.6572
▁pains	-12.6573
isse	-12.6573
iku	-12.6574
lice	-12.6585
▁akh	-12.6589
▁idle	-12.6591
▁rena	-12.6592
▁shahr	-12.6598
▁dor	-12.66
▁hatha	-12.6601
link	-12.6605
▁jol	-12.661
▁ww	-12.6613
oya	-12.6616
▁clai	-12.6626
▁hab	-12.6627
▁tyle	-12.6627
aj	-12.6634
fid	-12.6635
▁foresee	-12.6635
gues	-12.6637
▁unsee	-12.6644
▁vern	-12.6647
▁chai	-12.6651
rie	-12.6651
user	-12.6654
▁revitaliz	-12.6655
▁culminate	-12.6668
▁vid	-12.6677
▁marcos	-12.6678
ichi	-12.6681
▁stri	-12.6681
▁benit	-12.6684
▁malt	-12.6685
▁pha	-12.6685
▁teres	-12.6693
▁gaill	-12.6695
▁rah	-12.6698
▁grani	-12.67
▁tarnish	-12.6707
▁tenzin	-12.6707
▁politicize	-12.6708
▁angle	-12.6714
mb	-12.6716
▁hp	-12.6716
asco	-12.6718
▁askari	-12.6726
mir	-12.673
bagh	-12.6735
▁hashem	-12.674
▁cau	-12.6744
▁infuriat	-12.6745
▁corners	-12.6746
rance	-12.6747
▁grappl	-12.6749
▁hay	-12.676
athan	-12.6761
illionaire	-12.6761
tour	-12.6767
▁prof	-12.6772
▁impersonat	-12.6782
ssels	-12.6792
ien	-12.6808
oto	-12.6815
iba	-12.6816
▁skid	-12.6817
lson	-12.6823
▁hiroshi	-12.6824
▁naka	-12.6826
▁caste	-12.6827
▁ador	-12.6832
xa	-12.6836
tle	-12.6837
▁sac	-12.6838
▁robe	-12.684
▁afar	-12.6846
▁dou	-12.6848
▁riche	-12.6849
▁tow	-12.6854
usted	-12.6855
▁salvati	-12.686
list	-12.6862
▁lamb	-12.6865
▁alto	-12.6878
utt	-12.6889
uchov	-12.6901
▁menac	-12.6902
▁carne	-12.6902
▁swell	-12.6902
▁gha	-12.6903
▁zaina	-12.6911
▁gravel	-12.6913
▁bam	-12.6924
gas	-12.6926
itzer	-12.6926
▁socio	-12.6927
▁worrying	-12.6933
▁chul	-12.6934
▁muha	-12.6937
▁undertake	-12.6937
uchi	-12.6939
▁kazu	-12.6944
▁mod	-12.6948
▁huddl	-12.6953
reach	-12.6955
kill	-12.6957
▁underse	-12.6958
▁kla	-12.6968
▁carol	-12.6975
▁lau	-12.6979
▁compassion	-12.6993
▁petra	-12.6994
▁consolidati	-12.7
enez	-12.7001
▁demi	-12.7007
fe	-12.7009
▁huddle	-12.701
▁roberts	-12.7012
agh	-12.7013
pr	-12.7017
aries	-12.7019
▁hander	-12.7019
acher	-12.7024
▁variation	-12.7026
▁semiti	-12.7029
▁tang	-12.7034
halifa	-12.7042
▁insect	-12.7048
zer	-12.7051
lion	-12.7055
▁incur	-12.7055
▁stephan	-12.7055
▁gorilla	-12.7063
▁antibiotic	-12.7066
terres	-12.7069
▁stok	-12.7071
▁attendant	-12.7075
▁hubb	-12.7077
▁awe	-12.7078
▁migrat	-12.7081
mur	-12.7082
ellwe	-12.7082
▁unrel	-12.7082
▁baku	-12.7092
logy	-12.7097
▁helsin	-12.7111
rick	-12.7111
▁lar	-12.7112
post	-12.7113
illo	-12.7113
izer	-12.712
lude	-12.7122
▁puzzle	-12.7123
▁seab	-12.7125
▁overtake	-12.7134
▁decreas	-12.7136
▁inflat	-12.7142
glo	-12.7148
▁hoe	-12.7165
erner	-12.7165
endo	-12.7171
▁berger	-12.7172
▁utilize	-12.7177
▁yam	-12.7181
▁kuo	-12.7183
▁gwa	-12.7186
▁evacuat	-12.7192
▁storie	-12.7194
▁reset	-12.7195
▁kma	-12.7198
▁clu	-12.7202
may	-12.7208
▁exhibited	-12.7211
▁gur	-12.7214
osis	-12.7231
allest	-12.7232
zar	-12.7235
speak	-12.7236
▁reassur	-12.724
▁paddle	-12.7241
ratify	-12.725
otti	-12.7259
▁halle	-12.7266
▁pino	-12.7266
dou	-12.7271
▁dine	-12.7273
▁transmit	-12.7274
▁slavi	-12.7279
▁advers	-12.7287
▁trim	-12.7293
▁confe	-12.7296
▁upgrad	-12.7299
yk	-12.73
tsb	-12.7309
doubted	-12.7309
▁imag	-12.7312
stage	-12.7319
tical	-12.7319
▁lace	-12.7319
▁const	-12.7321
announc	-12.7321
▁automat	-12.7328
▁necessit	-12.7329
girls	-12.7336
du	-12.7336
realistic	-12.7336
pleasure	-12.7337
blood	-12.7338
account	-12.7339
electric	-12.7339
brook	-12.7339
first	-12.7339
proof	-12.7339
fair	-12.734
chrys	-12.734
complete	-12.734
▁destin	-12.7341
storm	-12.7341
boat	-12.7343
broken	-12.7344
cuz	-12.7345
▁faw	-12.7346
famous	-12.7347
lund	-12.7351
gawa	-12.7352
siege	-12.7353
▁terroriz	-12.7354
▁quo	-12.7356
▁bolivar	-12.7357
kma	-12.7357
▁lyn	-12.7361
▁wrest	-12.7364
▁exclusi	-12.7364
einfeld	-12.7367
assa	-12.7367
wenge	-12.737
linda	-12.7373
iyad	-12.7373
bard	-12.7373
finger	-12.7375
▁dimension	-12.7379
▁adm	-12.738
ratchet	-12.7382
▁lenien	-12.7385
▁seren	-12.7388
cken	-12.7388
mulate	-12.7389
▁hunke	-12.739
▁morris	-12.7391
▁galler	-12.7393
▁snag	-12.7394
▁exempt	-12.7395
▁manifest	-12.7397
kfa	-12.7398
osu	-12.7398
▁surroga	-12.7398
mund	-12.7399
▁disgr	-12.74
cussion	-12.74
▁clarifi	-12.74
nuptial	-12.74
▁allegiance	-12.74
▁anaconda	-12.74
▁ascertain	-12.74
▁avocado	-12.74
▁blasphem	-12.74
▁caricature	-12.74
▁constituent	-12.74
▁dungeon	-12.74
▁dwarf	-12.74
▁embolden	-12.74
▁etiquette	-12.74
▁expenditure	-12.74
▁geopolitic	-12.74
▁greyhound	-12.74
▁imperative	-12.74
▁incarcerat	-12.74
▁insomnia	-12.74
▁instinct	-12.74
▁leicester	-12.74
▁limousine	-12.74
▁maverick	-12.74
▁nanotube	-12.74
▁nostalgi	-12.74
▁pamphlet	-12.74
▁piccolo	-12.74
▁python	-12.74
▁redistribute	-12.74
▁remorse	-12.74
▁reprimand	-12.74
▁torchbearer	-12.74
▁tumult	-12.74
▁unfavorabl	-12.74
▁unwelcome	-12.74
▁uproot	-12.74
▁vegetarian	-12.74
▁vegetation	-12.74
▁cochran	-12.74
▁cocktail	-12.74
▁curiosit	-12.74
▁linguistic	-12.74
▁succumb	-12.74
▁unpleasant	-12.74
▁blissitt	-12.74
▁culver	-12.74
▁disgust	-12.74
▁mothball	-12.74
▁neighbour	-12.74
▁overcrowd	-12.74
▁schwartz	-12.74
▁trespass	-12.74
▁newsletter	-12.74
▁anguish	-12.74
▁magellan	-12.74
▁vehement	-12.74
▁whisper	-12.74
▁encompass	-12.74
▁glorify	-12.74
▁inherent	-12.74
▁necklace	-12.74
▁wreath	-12.74
▁astrophysic	-12.74
▁wreak	-12.74
▁mahmud	-12.74
▁songwriter	-12.74
shep	-12.74
▁futile	-12.74
▁parcel	-12.74
▁thunderstorm	-12.74
▁diagnosis	-12.74
▁galile	-12.74
▁siphon	-12.74
▁xavi	-12.74
▁ardent	-12.74
▁homepage	-12.74
▁commence	-12.74
▁mortem	-12.74
▁shantytown	-12.74
▁horizon	-12.74
▁sororit	-12.74
▁hotspot	-12.74
▁marriot	-12.74
▁waheed	-12.74
▁minaret	-12.74
▁habitual	-12.74
▁zogb	-12.74
▁procure	-12.74
▁conquer	-12.74
▁rookie	-12.74
▁boutique	-12.74
▁soundtrack	-12.74
▁discredit	-12.74
▁intersection	-12.74
▁franz	-12.74
▁kindergarten	-12.74
▁picnic	-12.74
▁hippo	-12.74
▁enslav	-12.74
▁ransack	-12.74
▁silk	-12.74
▁macedonia	-12.7401
▁headscar	-12.7401
▁hinck	-12.7401
▁irreversibl	-12.7401
▁texture	-12.7401
▁exonerat	-12.7401
▁peddl	-12.7401
▁reschedul	-12.7401
▁lafa	-12.7401
▁drench	-12.7401
▁auctioneer	-12.7401
▁sparse	-12.7401
▁notebook	-12.7401
▁fissi	-12.7401
▁reorganize	-12.7401
▁simmon	-12.7401
▁mujahid	-12.7401
venir	-12.7401
▁mcew	-12.7401
▁stockhausen	-12.7401
▁slaughterhouse	-12.7402
▁schill	-12.7402
▁oxf	-12.7402
▁horde	-12.7402
▁eradicat	-12.7402
▁irving	-12.7402
▁undervalue	-12.7402
▁anthropologist	-12.7402
▁backyard	-12.7402
▁pediatrician	-12.7402
▁ferment	-12.7402
▁arbitrat	-12.7402
▁cereal	-12.7402
▁roberson	-12.7402
▁clump	-12.7402
▁crusade	-12.7402
▁wig	-12.7402
▁subdue	-12.7402
▁poetry	-12.7403
▁hungarian	-12.7403
ngchon	-12.7403
pena	-12.7403
▁adamant	-12.7403
▁koala	-12.7403
▁sunset	-12.7403
▁outburst	-12.7403
▁dividend	-12.7404
▁stringent	-12.7404
▁spearhead	-12.7404
▁ventilator	-12.7404
▁spacesuit	-12.7404
▁platini	-12.7404
▁eldor	-12.7404
▁subtle	-12.7404
▁streamline	-12.7404
▁guitarist	-12.7404
▁exhaustive	-12.7405
▁marque	-12.7405
▁financier	-12.7405
▁quail	-12.7405
▁angola	-12.7405
▁censure	-12.7405
▁turbulence	-12.7405
▁niche	-12.7405
▁foam	-12.7405
▁magdalen	-12.7405
▁seafar	-12.7405
tacean	-12.7405
▁repay	-12.7406
▁cheek	-12.7406
▁dampen	-12.7406
▁zhong	-12.7406
▁coax	-12.7406
▁vertical	-12.7406
▁impatient	-12.7407
grass	-12.7407
▁latif	-12.7407
▁flagship	-12.7407
▁hoax	-12.7407
▁vaccinat	-12.7408
▁lexus	-12.7408
▁paranoi	-12.7408
▁wolve	-12.7408
▁rapper	-12.7408
▁unload	-12.7408
▁meditation	-12.7408
▁loch	-12.7408
▁kolk	-12.7409
▁imperialist	-12.7409
▁rapist	-12.7409
kagi	-12.7409
▁baham	-12.741
▁morrison	-12.741
▁poise	-12.741
▁neat	-12.741
▁accura	-12.741
▁occurrence	-12.7411
▁swee	-12.7411
▁feasibl	-12.7411
▁medina	-12.7411
▁strive	-12.7411
▁pelt	-12.7411
▁breathtaking	-12.7411
▁blockade	-12.7412
▁poach	-12.7412
▁reposition	-12.7412
wan	-12.7412
▁myeong	-12.7412
▁slur	-12.7413
▁potts	-12.7413
▁appointee	-12.7413
▁pristin	-12.7414
▁kurt	-12.7414
▁monro	-12.7415
▁distortion	-12.7415
ogury	-12.7415
▁holling	-12.7416
▁aguil	-12.7417
▁trampled	-12.7417
▁trimm	-12.7417
▁intruder	-12.7418
▁bruise	-12.7418
▁flopp	-12.7418
▁grassland	-12.7419
▁pix	-12.7419
tomed	-12.7419
▁wrongful	-12.742
▁upload	-12.742
▁whip	-12.742
ellin	-12.742
▁zombie	-12.742
▁saucer	-12.7422
▁gadda	-12.7422
▁waterboard	-12.7422
▁cramm	-12.7423
▁equator	-12.7424
▁relic	-12.7424
▁chronicle	-12.7424
ktra	-12.7424
▁selloff	-12.7425
▁efp	-12.7425
▁acquittal	-12.7425
▁align	-12.7425
▁saeed	-12.7425
▁decry	-12.7427
▁ghana	-12.7427
nts	-12.7427
▁trio	-12.7429
▁limitations	-12.7429
▁hypothes	-12.743
▁mukh	-12.743
▁christen	-12.743
▁cavaliers	-12.7431
ynov	-12.7431
▁sober	-12.7431
▁tilt	-12.7432
▁haunt	-12.7432
▁loft	-12.7433
▁optical	-12.7435
▁allergi	-12.7437
irelessly	-12.7437
xter	-12.7438
▁knockout	-12.7438
▁bolivarian	-12.7443
▁hollow	-12.7445
▁sagg	-12.7447
▁dumb	-12.7447
▁bono	-12.7448
▁analys	-12.7448
ip	-12.7449
▁svet	-12.745
▁rhy	-12.745
▁boj	-12.7452
ep	-12.7452
▁brighten	-12.7453
▁cervi	-12.7453
▁olli	-12.7454
dine	-12.7455
ulsan	-12.7455
▁ral	-12.7456
efe	-12.7456
▁kap	-12.7457
▁scribe	-12.7457
istani	-12.7458
▁bode	-12.7461
▁mukas	-12.7465
▁abductor	-12.7465
▁mcde	-12.7465
▁validate	-12.7466
▁kuwaiti	-12.7466
▁tril	-12.7466
▁gand	-12.7469
▁ecolog	-12.747
▁colom	-12.747
▁kiri	-12.7471
▁sesh	-12.7475
acle	-12.7478
▁loath	-12.7479
▁hurried	-12.748
▁bumper	-12.748
▁reggi	-12.7481
▁kingsto	-12.7483
▁communiqu	-12.7484
▁nutritional	-12.7485
▁spurt	-12.7485
▁convenient	-12.7486
▁refuel	-12.7487
▁freighter	-12.7489
▁cola	-12.7491
▁withhold	-12.7491
▁haze	-12.7492
▁parasite	-12.7494
▁villain	-12.7496
▁toughen	-12.7496
▁jali	-12.7497
▁brandish	-12.7497
▁bloodie	-12.7498
▁gani	-12.7499
▁rework	-12.7501
▁bangladeshi	-12.7502
▁pend	-12.7504
▁imply	-12.7508
▁tram	-12.7513
▁wesley	-12.7514
guo	-12.7514
▁khu	-12.7515
▁elevate	-12.7517
▁continuously	-12.7517
▁shortcoming	-12.7517
▁hopeless	-12.752
cesc	-12.7524
▁durham	-12.7524
▁legalize	-12.7525
▁billionaires	-12.7525
▁digest	-12.7525
▁burger	-12.7526
desta	-12.7526
pag	-12.7529
▁tata	-12.7531
slav	-12.7532
▁commut	-12.7532
▁atkins	-12.7536
▁arlen	-12.7537
▁expo	-12.7539
eiffe	-12.7543
▁bragg	-12.7544
ui	-12.7545
baz	-12.7547
▁caul	-12.7549
▁pian	-12.755
▁allah	-12.755
▁allowance	-12.7551
▁soba	-12.7551
dahn	-12.7556
▁keller	-12.7557
▁idiot	-12.7557
▁defaulter	-12.7559
alph	-12.756
▁mayo	-12.7563
▁propeller	-12.7566
▁sellout	-12.7569
▁salem	-12.7575
▁peni	-12.7578
pression	-12.7578
▁sprinter	-12.7582
▁yaki	-12.7584
▁postur	-12.7585
▁rene	-12.7585
opoul	-12.7589
▁mast	-12.759
▁rica	-12.7594
▁inscription	-12.7594
zburg	-12.7595
▁khaz	-12.7598
▁specifi	-12.7605
▁lith	-12.7606
uku	-12.7608
▁lebr	-12.761
▁fink	-12.761
babil	-12.7613
uca	-12.7614
face	-12.7619
assi	-12.7622
nmen	-12.7626
▁coral	-12.7628
tive	-12.7629
▁reunite	-12.763
▁legislat	-12.763
leak	-12.7631
▁replie	-12.7637
magh	-12.7639
▁padd	-12.7639
▁unionist	-12.7646
▁slipper	-12.765
untle	-12.7651
hat	-12.7652
▁porto	-12.7652
cragg	-12.7652
▁narrat	-12.7654
▁hacke	-12.7655
▁payout	-12.7656
▁hanky	-12.7656
otto	-12.7656
▁gasp	-12.7657
iyan	-12.7659
mitt	-12.7659
▁bidders	-12.7664
suke	-12.7667
▁rex	-12.7674
mission	-12.7676
ides	-12.7678
▁shrive	-12.7681
▁puzzl	-12.7685
▁oppressi	-12.7686
▁homi	-12.7693
▁rott	-12.7696
▁alaskan	-12.7697
yong	-12.7701
▁marcia	-12.7703
▁airb	-12.7703
▁reside	-12.7705
▁ter	-12.7706
zzy	-12.7707
▁getty	-12.7707
▁harden	-12.7715
▁refine	-12.7717
▁spi	-12.7717
zhu	-12.7726
▁pow	-12.7728
sco	-12.7728
▁ponte	-12.7734
▁smiley	-12.7744
▁tar	-12.7749
vuit	-12.7756
▁belated	-12.7757
▁glance	-12.7759
hara	-12.7765
▁insects	-12.7766
shiro	-12.7767
▁alerts	-12.7768
▁strick	-12.7771
▁terminat	-12.7774
mposition	-12.7777
▁polariz	-12.7779
▁jima	-12.7784
▁shave	-12.7784
▁zur	-12.7787
▁favorabl	-12.7794
usa	-12.7797
tick	-12.7797
▁yasa	-12.7799
ashkar	-12.78
uil	-12.7801
ugh	-12.7805
▁northwester	-12.7809
▁gott	-12.7812
▁volk	-12.7819
▁bucha	-12.7823
▁pillars	-12.7823
▁hurdles	-12.7824
▁kah	-12.7825
byl	-12.7825
▁rancher	-12.7828
ridge	-12.7829
▁moderat	-12.7842
served	-12.7844
errone	-12.7845
▁busi	-12.7847
ahi	-12.7853
▁gut	-12.7854
▁info	-12.7855
▁repress	-12.7857
▁lew	-12.7858
gro	-12.7862
rkus	-12.7866
▁likeness	-12.7868
np	-12.7873
stick	-12.7874
▁cer	-12.7876
▁subsidiz	-12.7879
▁liner	-12.788
▁herman	-12.7881
mu	-12.7883
▁cruis	-12.7886
▁bach	-12.7887
▁responsibl	-12.7891
▁intrigue	-12.7892
▁reg	-12.7895
▁zal	-12.7899
uli	-12.7922
hel	-12.7926
▁bustl	-12.7929
mphan	-12.7929
▁rai	-12.793
yanni	-12.793
iki	-12.793
ving	-12.7931
▁clima	-12.7938
▁identi	-12.7938
rw	-12.794
arro	-12.7946
fication	-12.7966
iable	-12.7968
▁stephens	-12.797
lb	-12.7987
ister	-12.7988
▁notic	-12.7989
▁batt	-12.799
▁riv	-12.7992
zing	-12.7995
▁gloss	-12.7995
▁hosh	-12.8001
▁weave	-12.8001
▁shear	-12.8001
▁crisscross	-12.8008
▁sol	-12.8011
▁choke	-12.8012
▁cube	-12.8014
▁graf	-12.8027
▁aches	-12.8033
▁circl	-12.8033
▁sig	-12.8038
oga	-12.8038
▁stra	-12.8039
epp	-12.8046
iera	-12.8049
▁ble	-12.805
▁chal	-12.8052
▁marti	-12.8055
▁azim	-12.8061
▁loren	-12.8061
▁calve	-12.8064
▁aft	-12.8065
▁shard	-12.8066
umu	-12.8068
▁vari	-12.807
▁merg	-12.807
esha	-12.8071
▁promoter	-12.8076
ssi	-12.8083
▁vindicat	-12.8085
scription	-12.8089
▁chem	-12.8096
▁baron	-12.8099
▁infuriate	-12.81
▁whi	-12.8103
▁brass	-12.8109
▁amal	-12.811
▁rive	-12.8112
gara	-12.8112
▁arr	-12.8115
▁vas	-12.8115
nar	-12.812
jong	-12.8121
▁importer	-12.8122
erman	-12.8123
escent	-12.8124
▁workout	-12.8129
▁wali	-12.8131
richo	-12.8133
took	-12.8134
▁hyp	-12.8138
▁fah	-12.8138
shop	-12.8141
▁nord	-12.8142
nzo	-12.8144
tiana	-12.8154
▁sc	-12.8161
▁gale	-12.8165
ency	-12.8165
▁stein	-12.8166
▁rus	-12.8179
▁hats	-12.818
▁harrie	-12.8183
▁kono	-12.8188
▁originat	-12.8189
make	-12.8189
▁slamme	-12.82
▁revitalize	-12.8205
▁marginal	-12.8222
▁nai	-12.8225
▁beds	-12.8226
▁poli	-12.8226
heir	-12.8227
▁spal	-12.8228
▁gis	-12.824
moud	-12.8249
▁beards	-12.8254
▁cliffs	-12.8259
ming	-12.8262
▁depress	-12.8264
▁basa	-12.8265
▁incon	-12.8272
▁denis	-12.8275
▁cabb	-12.8276
eck	-12.8277
tie	-12.8278
dergar	-12.8281
lage	-12.8284
▁shal	-12.8286
▁shelve	-12.8291
▁arous	-12.8296
▁handler	-12.8299
▁sedan	-12.8299
▁invoke	-12.8299
▁congesti	-12.8301
feld	-12.8302
▁bursts	-12.8304
▁judg	-12.8305
▁compress	-12.8306
▁kings	-12.8308
▁defam	-12.8311
llen	-12.8319
car	-12.8323
▁bowe	-12.833
▁ren	-12.8331
▁dial	-12.8332
▁lei	-12.8335
▁congest	-12.8337
▁abb	-12.8339
▁cran	-12.8345
▁obstructi	-12.8346
▁dais	-12.8347
▁cont	-12.8351
▁erik	-12.8351
▁traumati	-12.8352
illian	-12.8356
▁compli	-12.8361
▁sensational	-12.8361
▁mach	-12.8372
▁til	-12.8372
git	-12.8376
pho	-12.8385
▁benze	-12.8385
▁extorti	-12.8392
found	-12.8393
▁surprises	-12.8395
rubb	-12.8396
▁bai	-12.8403
▁suppressi	-12.8404
tland	-12.8407
▁focuse	-12.8413
▁emili	-12.8414
gel	-12.8418
▁misuse	-12.8421
▁alleviate	-12.843
mp	-12.8436
▁meo	-12.8438
▁entitle	-12.8439
iev	-12.8442
gers	-12.8442
▁latte	-12.8444
elein	-12.8445
lc	-12.8459
▁persecut	-12.8464
holm	-12.8473
▁crowe	-12.8474
▁ce	-12.8476
▁homicides	-12.848
erick	-12.8482
far	-12.8482
▁gol	-12.85
▁updat	-12.8505
▁vene	-12.8507
▁laud	-12.8508
lli	-12.8508
dding	-12.8509
▁prep	-12.8511
▁conditional	-12.8513
▁gua	-12.8514
▁pari	-12.8526
azar	-12.853
▁kl	-12.8532
jin	-12.8533
novo	-12.8536
▁thre	-12.8537
▁kit	-12.854
ern	-12.8541
▁sho	-12.8542
conception	-12.8545
▁publiciz	-12.8546
▁cascade	-12.8548
jax	-12.8562
▁retaliate	-12.8576
▁taba	-12.8577
▁bagh	-12.8582
▁palom	-12.8586
▁munt	-12.8586
borough	-12.8589
▁fir	-12.859
▁mende	-12.8594
▁lui	-12.8597
aters	-12.8601
glia	-12.8604
hap	-12.8605
lla	-12.861
▁lani	-12.8612
egun	-12.8613
▁alf	-12.8614
▁cind	-12.8614
▁stow	-12.8614
▁practic	-12.8616
▁categoriz	-12.8616
▁hue	-12.8617
▁denn	-12.8621
loh	-12.8625
▁lumina	-12.8636
wart	-12.8638
culate	-12.8644
▁stubb	-12.8647
come	-12.8653
▁scenarios	-12.8661
brant	-12.8671
▁gy	-12.8677
▁palo	-12.8687
▁dona	-12.8687
izen	-12.8689
▁obi	-12.8691
alindo	-12.8692
ight	-12.8701
▁csa	-12.8713
▁tremor	-12.8717
▁kadi	-12.8718
▁stor	-12.8726
rah	-12.8737
▁integra	-12.8741
▁chore	-12.8741
nders	-12.8741
bov	-12.8743
▁cour	-12.8746
▁dalla	-12.8746
inz	-12.8749
ual	-12.8749
▁calv	-12.8756
▁begg	-12.8756
▁phon	-12.8763
▁sasa	-12.8767
▁brow	-12.877
▁ishi	-12.8771
mal	-12.8777
aden	-12.8792
▁garro	-12.8799
▁cuddl	-12.8804
enter	-12.8808
▁inca	-12.8808
bil	-12.8813
▁curve	-12.8814
ldp	-12.8815
tak	-12.8817
uiz	-12.8832
▁flam	-12.8834
▁dye	-12.8836
hbo	-12.8842
▁indulge	-12.8843
rbat	-12.8847
▁simulat	-12.8848
▁overrun	-12.8858
▁swath	-12.8863
▁ein	-12.8866
rill	-12.8866
▁intimidate	-12.8879
▁syndicat	-12.8879
terior	-12.888
ub	-12.8888
[...]
